C8
CD
D4
C7
DB
B9
BD
BD
C8
BB
D7
B7
BD
E1
C0
BA
CC
CA
D0
CB
DB
D2
BF
C3
C3
B7
A4
B7
C4
D5
B7
A8
C0
D9
CF
AF
D4
BD
BA
A9
B3
CC
D0
E3
C5
91
BA
B4
C2
B9
C3
DB
BF
E1
D4
D3
CA
AF
BA
D3
CB
B5
B0
C7
C3
C6
CC
AC
9D
CE
93
C5
CC
DB
BD
C0
D1
B0
C2
D1
B8
DB
B7
D3
C8
CE
D0
AE
E5
D2
D9
C1
C7
D0
B9
C9
C2
CB
81
C3
B3
A3
BF
D8
DB
D0
C6
93
A1
A6
C6
C9
CC
92
CD
AB
D3
9E
AB
D1
D7
BC
BC
B6
D4
C2
C0
CB
