FE
27
F0
F4
F8
E9
FB
E5
ED
09
03
F5
01
02
0E
0C
13
FF
FD
4B
18
14
1D
F5
13
20
0D
13
F8
1E
16
E7
DD
E5
09
F8
DB
32
1C
0C
18
EC
F8
06
05
19
FB
FF
D9
05
FF
03
FC
FB
FE
0B
DF
0F
F9
13
D9
FB
01
E7
FD
F1
EC
ED
0D
0A
EF
0C
F4
14
36
F7
C2
E4
37
12
08
F9
11
16
FF
00
15
13
17
2E
F5
D9
07
09
0C
24
E8
0B
0B
08
25
D4
14
0A
10
0F
02
05
03
8A
0B
10
F0
04
09
09
FD
F8
0E
F9
C2
F1
F7
E8
17
FA
EF
1D
EB
0D
18
04
06
0B
10
E2
F8
0B
0E
20
1D
1A
DB
EE
15
0C
08
09
17
23
08
07
EE
F5
F3
DE
F3
C8
1C
EC
E2
FB
05
F4
F8
22
F4
0B
28
07
21
01
F4
1A
07
CB
22
0F
02
03
FB
D1
FF
0C
24
13
04
F3
02
18
04
0B
01
FE
FC
F2
05
D3
1B
D4
0F
FB
1F
00
DA
17
09
DF
06
00
01
A3
F2
07
1E
00
0E
FA
07
EF
FA
18
CE
0F
D6
25
D6
1B
FD
C2
12
F4
DB
17
03
03
0E
FE
F9
D4
09
FD
FE
F2
FB
E9
E4
EF
23
1F
0D
0B
FB
EA
1F
0C
FF
08
EA
E9
09
F1
16
04
09
14
1A
00
E2
0E
EC
E9
F5
03
F4
01
02
F0
1D
FD
F8
E8
04
FC
E2
E6
13
F3
EA
EF
EE
FA
09
F0
F4
04
F1
0B
0E
F7
09
F2
0A
E3
D1
FF
F8
09
FC
CC
09
0E
13
EE
ED
13
06
1A
ED
E7
E7
F9
0D
1D
01
D4
E4
06
0D
DB
F3
E5
E0
ED
B0
1F
09
FB
09
06
DD
07
E3
F3
FC
FD
F4
FF
18
E2
27
07
02
24
1F
30
0C
0A
D9
0C
0B
FB
04
FC
09
DC
FD
29
FC
F4
1E
02
0C
DC
02
E1
E9
F4
F3
14
F5
1A
08
28
1C
0D
03
E7
01
E8
22
08
09
F4
28
13
CD
17
1C
EC
FB
F7
EF
DE
00
F3
FB
F1
FC
20
11
16
F9
F8
18
F1
EC
06
D0
E6
DF
CD
00
F5
F8
F1
EE
09
0B
D5
04
33
C3
FB
C2
05
0F
00
15
EB
E3
1C
05
E5
1E
0E
F9
2B
06
1C
0C
05
F1
FA
F3
EA
10
ED
D1
CC
DC
0B
DA
1A
FA
07
00
0B
F0
24
E9
0B
E4
EA
02
0B
01
D9
CB
D1
1B
26
DA
E9
DE
18
0B
0A
E1
1B
1B
03
03
DC
FA
24
36
00
DA
05
0C
D4
F0
F6
F2
E3
E6
E9
0F
E8
11
DC
06
0F
0A
FD
EF
0D
03
17
FB
F7
F6
17
FF
E8
16
18
F1
0A
F1
F1
1E
16
F8
F2
0B
F9
F9
F3
F0
DC
FF
F1
D7
CE
13
01
EB
2A
12
00
E0
05
05
FE
05
10
09
C9
0B
06
F2
08
01
E1
03
FE
1F
F9
EA
00
1D
08
1A
13
F1
F2
04
03
F2
F0
01
15
FA
20
FF
E7
E5
F3
03
1E
E9
02
F5
11
1A
06
F8
05
F2
04
FE
EE
F4
11
F4
EA
23
E2
FA
10
03
DD
09
10
FB
09
25
02
FB
E6
FF
ED
29
FC
EE
EF
0B
4E
06
18
FF
EE
10
FA
20
0E
F6
DD
F7
FE
F0
F5
F8
DB
01
09
0F
E6
F8
E8
FD
16
E9
F3
F7
FE
F6
2D
11
EE
1A
F0
FE
F8
FD
F3
F2
26
16
0B
1A
F7
01
16
15
FC
08
FE
F5
12
F5
07
F5
E5
07
DF
FD
0B
02
0C
F9
11
04
1E
1C
FF
0C
FF
02
01
F1
DE
0B
E3
00
F8
11
D5
F7
09
F5
FF
01
DB
00
FF
10
22
1A
08
05
E7
FF
FF
EC
F7
06
F5
07
03
0C
01
1D
FA
03
F2
25
E9
F2
D4
E7
07
1E
06
13
F8
07
EC
F5
25
05
01
0D
F9
00
11
16
D0
15
E8
0D
F0
08
0A
0C
F3
12
FA
0C
0E
08
0C
EC
F8
05
F3
FB
FD
ED
17
0D
11
05
F6
F6
24
CF
E4
E3
EA
20
E5
05
E1
F3
08
E5
03
E3
22
07
E5
F3
13
E7
12
CC
1D
06
FE
06
05
0B
D9
C5
F4
1D
F7
07
FB
1C
BD
F9
FF
FD
08
19
FD
28
FE
11
1B
E8
08
E8
16
E1
C3
F5
0F
E4
15
D6
E8
06
EA
0A
00
EF
AF
19
F0
0E
05
F5
07
07
18
19
F3
2A
18
BF
0E
00
E0
0E
14
17
00
F6
EA
EB
F7
F6
81
0A
3B
05
F7
DC
00
0F
04
04
BE
F4
ED
07
E2
DC
0E
DC
25
07
F3
0D
04
FD
FF
E7
D1
FA
F8
11
F2
19
05
14
1B
FF
0A
EF
F9
15
06
0F
E0
07
0D
0D
F9
17
19
F6
E8
ED
CE
05
15
0A
FC
01
04
E6
F1
0B
FD
FF
2A
07
09
F2
F5
FC
03
10
0F
12
E0
26
FF
16
F8
0A
F6
F1
FE
EF
DC
F4
F4
0D
F6
EC
E0
F7
F2
F4
ED
E8
F1
E7
09
14
FE
F7
C4
12
ED
1D
00
0C
F5
01
0F
0B
16
0E
DD
FB
E6
12
0D
E9
2F
01
05
26
04
FB
08
F7
FE
F7
FD
C6
04
F3
F7
08
B9
17
09
FB
FF
FC
FC
E6
F5
09
F7
1F
FF
F5
F2
F9
E7
00
04
01
1E
FE
F7
0E
F9
E9
EA
EF
00
08
0F
F4
FC
1C
EB
F1
FE
00
E7
17
EA
E5
F4
CF
B7
EA
16
1A
09
0A
F8
27
07
0B
FF
FE
D3
09
D5
26
0A
1C
08
F8
1A
FA
F1
10
FD
05
0F
DD
F1
1A
E5
05
00
09
F7
01
FC
F6
25
0F
09
F1
EF
ED
F5
15
06
0A
11
ED
34
F7
E7
18
F3
06
FE
FC
1B
02
E7
17
07
20
D8
E0
18
E6
E4
E6
FF
0F
F4
EB
FA
F4
41
FA
0D
0A
0E
15
00
09
12
11
E8
DA
E8
F1
F8
ED
FC
0F
D4
07
DE
1B
FE
0C
D4
03
E6
01
FF
1C
FD
17
EF
EF
EF
F3
07
F9
05
F3
E6
04
08
02
0C
01
F6
FA
EC
10
DF
E0
FF
0F
10
1B
1D
08
0F
26
FC
F8
0D
FF
DF
0D
AF
E6
0F
F9
03
04
21
F4
14
1B
FB
04
E3
FC
EE
0F
11
EA
FB
01
EC
FA
04
0D
E3
FC
F3
32
E2
14
01
30
E0
10
07
00
D8
08
1B
07
EE
13
17
11
F0
F0
11
03
FA
31
27
E8
C5
DD
25
0F
09
07
EC
10
F8
05
F1
FD
17
19
FB
CB
02
FC
1D
08
14
03
10
F0
03
F5
E5
F0
0A
F0
F9
00
EF
FF
F2
06
E0
FE
FD
E5
F9
00
05
F3
11
07
F3
0A
36
0C
0B
15
F4
08
FC
F9
00
F0
A2
E8
07
24
F1
E6
D8
EE
FB
D0
0B
15
02
0C
06
07
BC
08
ED
1A
05
19
02
05
D8
F7
F3
F2
07
E5
1B
00
0B
F2
FD
FC
10
0C
09
10
ED
02
DE
F6
11
EC
D4
09
1D
1E
E1
F9
FC
0A
89
11
1C
F9
F4
F4
14
08
F9
FB
27
15
EF
2B
DE
DC
1F
0D
E8
F1
12
F9
12
01
02
06
31
02
CA
13
FD
EE
FE
FB
FF
FD
0F
E1
12
06
0A
04
F5
02
15
07
D4
F8
EF
03
F4
F2
F0
05
0A
E4
10
07
06
F0
F6
0B
FF
F8
DA
DC
F9
DD
13
EB
F5
09
FA
F0
22
E1
0A
11
C9
ED
17
F4
EB
ED
F2
E3
F9
ED
01
F7
FB
05
BE
02
01
F0
01
02
D3
F5
FC
E8
DF
EB
02
23
0D
F2
1A
EF
DB
19
F0
FD
FA
13
10
07
0B
14
D7
F4
12
CC
1B
11
04
E5
B2
07
18
DA
14
07
C5
FB
F2
0C
D2
26
F3
31
D2
F9
23
06
09
F7
0D
23
F1
1A
F7
F6
11
F8
CB
D5
F7
E5
F9
F7
33
ED
11
EF
1B
F6
0C
2C
0A
EC
E1
F4
F4
FF
07
F7
FF
F7
E7
06
0B
20
F1
14
FD
F9
F8
0F
FF
F2
C6
F9
02
E4
F7
12
E9
FE
12
16
D2
F8
0D
EE
13
FC
F6
F3
0B
E8
06
03
F2
ED
0A
0A
DD
FE
10
1E
FC
02
09
FB
18
05
E3
1A
E9
0E
EE
17
ED
03
E7
DE
19
10
E8
0D
04
E8
24
09
F0
15
DE
0E
03
E9
FB
F6
0E
E3
DC
07
19
27
00
F2
0C
F5
11
13
D1
10
EF
0B
F1
E8
FE
FE
F4
DA
FB
08
0E
0D
FE
F9
2E
01
D0
0A
08
01
FE
03
F5
F5
1F
1B
12
02
04
EB
0F
FB
14
ED
2E
F3
F3
0A
17
F1
E9
08
16
DE
E8
2C
08
BF
0F
04
FC
ED
0E
1D
1D
29
FD
FD
DD
F5
01
EF
AB
F5
EB
FF
EC
03
17
05
2F
E6
FC
F9
09
FD
06
FC
E7
01
CC
DD
F6
F7
03
FF
0D
15
DE
1B
18
E4
16
FC
05
07
03
EC
F1
10
EF
F9
D6
F7
23
FC
FF
E5
E4
FF
14
10
17
F7
0B
04
1E
0B
02
FC
03
0C
FE
FA
0D
06
F3
17
0C
2B
D2
EF
FA
E5
DC
F4
06
0D
EF
FB
04
FA
34
02
EB
CD
00
DC
02
FD
DC
F3
DA
24
E3
F4
0A
15
FA
FA
FE
05
F6
00
F8
10
F7
04
26
02
11
12
26
C8
0A
00
EA
15
0D
0D
3C
EE
0B
E5
1B
0F
FB
00
E0
EB
3B
19
EF
EA
F0
11
0F
FA
F7
13
F9
F2
05
02
F7
EE
8B
F7
EF
1A
FF
F4
FD
03
1D
F3
05
FE
01
EE
EE
E8
EB
E2
32
F7
DD
0B
F8
0E
E7
08
10
FE
FB
14
EE
BF
FC
DE
25
1A
08
0A
DC
12
D6
1D
04
FB
D6
05
EF
EF
D5
F3
13
CA
17
EF
04
07
E0
DC
F5
EA
F5
DA
02
07
FD
EA
3A
2A
F7
F0
07
00
C3
F7
F3
0A
0E
0C
EF
0F
21
0B
ED
FC
EF
12
02
FE
04
EA
2C
0D
FE
11
E8
E9
06
EB
F2
F0
04
F8
1A
07
10
E8
08
FF
EC
F6
09
14
E9
E6
F1
2A
10
F3
F3
0D
F9
FC
0A
E2
F5
F3
07
F6
1D
01
E4
1C
07
FE
0C
06
C2
F7
07
03
EE
F4
01
1E
06
16
15
12
FC
08
07
08
E7
F8
E6
0A
FE
E6
DC
15
F0
1A
E7
F6
05
0B
E2
21
1B
F3
15
03
17
F7
F5
13
1D
EE
13
0F
EB
F3
23
F3
FD
F8
ED
FF
FE
F8
00
01
17
00
1B
FD
F0
E5
06
FC
E8
05
0E
E5
1E
FB
FF
28
03
0D
0A
11
12
F9
E3
EF
F6
18
DE
02
05
1D
E0
FA
10
33
EA
02
03
04
C4
E9
00
D9
10
F9
14
F8
08
EA
21
F7
E6
CE
F9
17
D2
FA
EA
0D
EE
F3
12
03
09
FC
E9
0A
E9
EC
F3
20
FB
FF
2D
F5
DB
D5
E8
14
F2
05
F3
04
E9
FC
E5
F5
E7
FA
F1
E8
CE
0C
E4
39
FC
E1
0C
EE
07
F2
FE
F3
27
E5
11
08
F1
1A
17
02
DC
E5
F9
19
E5
C7
0F
13
F8
0A
E8
1E
FD
16
00
F7
04
08
D6
FF
F4
B4
FA
02
F7
F7
0D
FA
E1
D0
11
0E
F7
F1
13
04
06
00
0F
01
FE
F8
D2
0A
0B
13
EB
0E
15
0E
08
22
F6
EE
08
0B
D3
DD
F9
ED
E9
F5
32
0E
F3
FE
D3
E5
10
34
2C
FD
F2
D7
DD
F2
00
EC
15
F1
F8
04
2C
F9
20
D6
09
DE
F7
07
4C
F3
FE
E6
0D
EA
20
F5
F4
14
24
01
E4
EC
06
05
FE
23
FD
13
E9
D8
F1
EE
D5
00
EB
E0
00
00
D7
0A
EC
FB
17
0B
BD
0C
EE
E7
23
20
F7
E3
37
FA
FD
F1
01
E4
05
F8
0F
0F
02
03
E8
F4
04
C9
F2
D2
F7
05
EC
F5
01
14
E5
F0
F2
04
F5
FD
EB
07
F8
F3
0C
F3
02
EE
DC
0C
EF
E0
26
18
F9
21
07
0C
FB
E7
FE
00
E9
FC
14
05
F2
0B
02
11
0E
0E
E1
2D
EC
E5
E2
0B
DF
F8
F7
EA
0B
FF
05
06
4A
09
F7
F3
09
EB
06
07
34
F5
FF
1E
14
F8
F7
04
DB
01
E7
0B
0D
E9
EE
F7
F8
F2
1C
F6
F4
D7
26
F8
E0
DE
EE
F6
FD
06
09
0B
FE
CD
15
0D
FF
04
16
12
D3
EF
E7
14
09
07
E4
ED
10
FA
F4
E2
ED
1C
F9
03
DE
FE
EB
BF
00
FC
FC
0A
F8
FD
14
09
04
FF
1B
E8
F0
FF
CF
19
1C
F3
E7
04
EE
F4
24
E7
00
30
E0
1D
0D
14
17
E0
FF
FD
D3
1D
1B
16
16
F4
EB
06
00
01
E5
06
DC
B0
1F
04
CD
EC
2E
06
ED
F3
F0
28
FC
0A
D0
F7
CF
1E
FF
02
FB
00
DB
13
04
F9
F5
0E
EE
05
15
EF
03
1C
1B
14
E7
09
1A
E2
24
06
FB
C9
ED
E3
01
CA
EA
0A
FD
0C
DD
F4
28
E0
F6
F4
F6
02
EB
EC
EB
14
F0
E7
E5
05
12
11
04
1E
F8
E5
1A
13
04
01
0C
F6
FC
2F
F5
20
EA
01
22
09
F2
04
F0
E7
EA
08
04
FA
D0
EF
F4
F9
EB
06
DB
10
1F
06
F8
10
1E
F4
F2
E5
FA
0D
04
E6
FA
EA
0A
F8
FC
FF
04
F6
E5
F8
21
19
00
16
EC
14
FD
19
26
18
FD
FF
F8
EA
09
07
46
08
22
FD
FE
F7
07
FE
DC
F7
11
09
0C
11
FC
1A
0F
FF
29
FB
DE
F8
02
0A
FE
E7
F2
08
FE
FA
20
F1
E8
DF
14
FC
F6
E9
1E
ED
E3
E8
EE
0D
FD
0C
E5
09
04
F1
F5
E2
1F
13
FB
D9
0E
F5
FA
16
02
14
FB
0B
0C
02
1C
D2
08
26
F4
01
18
11
12
02
03
EA
15
15
FC
FB
2C
EF
13
05
F1
EE
FA
02
EF
06
EA
19
FE
1D
FB
07
EF
EF
07
E7
AD
EF
06
EE
17
F4
18
07
E6
FB
13
E6
08
F7
ED
F8
07
F4
EF
EB
0F
FD
15
0B
FF
0C
29
F7
F2
00
09
ED
F9
06
D0
E6
DB
F9
0D
F2
06
11
E4
F0
20
E7
F7
06
F6
FD
F0
03
E9
FE
15
13
FB
10
ED
F0
E5
0E
FE
01
02
18
02
13
FC
12
1C
02
E4
FB
07
FE
EE
EC
DC
F3
D8
FE
E6
F5
EF
07
FD
1F
0A
00
D2
08
F5
15
01
1A
F4
05
17
0B
1C
D3
13
EF
06
F3
F4
07
19
12
12
E8
12
0D
19
1F
13
0D
EE
F3
2A
09
E2
E8
12
FF
06
0F
32
F2
E0
F9
E6
04
E3
F2
F1
E6
1D
F5
EB
C3
36
F1
F0
23
D9
FA
FC
F9
F8
15
07
FA
44
0E
19
1B
F8
E1
0C
05
52
07
F3
DC
0D
FD
E8
F8
F5
1C
C8
FD
2E
F4
E8
F6
09
DE
E6
EE
00
2D
FB
1A
F4
28
F7
1B
00
10
E0
10
04
EC
0A
FC
E4
F3
FB
0B
F7
E3
08
CE
FF
22
DB
12
DE
25
FF
B3
FD
D9
02
F7
F3
04
F8
EE
FE
17
EC
02
0B
0B
EE
D5
0F
12
F7
E8
12
10
E7
FD
12
F3
FB
11
17
0E
EA
FA
1E
E0
E1
FF
0B
DA
1A
06
03
F1
C9
0D
F2
F9
12
09
F5
FA
03
09
00
F8
0A
06
02
2A
D7
E2
1A
F7
00
EA
F5
FC
03
FB
18
FA
EE
2E
FB
E7
F5
0C
98
FC
10
E7
E1
EE
F5
FB
F5
F2
19
03
F4
FA
0B
04
09
FE
D1
FD
F3
21
15
07
16
E4
F8
10
FC
F9
F1
E9
EC
21
E8
F7
0D
01
15
02
DD
02
EA
EE
D1
EC
21
F5
CC
F5
FA
E0
10
08
FC
F8
FE
06
28
ED
F8
DA
02
0A
0B
F4
E6
0E
13
FC
FB
26
E6
EC
03
F5
1F
13
F6
FF
DF
E2
DF
F6
E8
D4
00
32
16
1B
1B
16
0E
F8
18
11
09
03
00
F6
F0
F8
FD
10
17
FD
F2
38
C3
14
0F
0E
1E
E3
06
E6
12
0A
09
F4
F1
07
07
07
F9
DF
08
F7
D5
EF
F5
28
06
F3
04
FC
EE
FE
FC
F7
11
F9
F7
0B
05
0C
DA
04
06
E7
F8
27
11
F4
E3
F2
08
EA
DB
1E
05
1D
12
FC
0A
07
1B
F2
1F
07
E0
25
D8
FA
24
05
23
F8
FE
13
FF
05
08
FA
E9
01
E4
DE
FE
0B
F9
00
D6
13
E9
E7
F3
F4
F9
24
F1
00
20
E5
0F
FA
EB
F7
F7
F9
D7
F5
04
FC
0F
F8
15
E2
02
EE
00
01
F0
1A
06
E1
F5
EC
01
F8
09
F6
12
F2
E1
10
D0
E7
07
15
14
08
FB
00
0B
10
FD
F9
C9
FD
D5
0C
FE
00
00
FA
10
F0
D7
1E
FE
02
F3
27
EA
F1
15
0C
F4
EA
06
01
18
19
06
F8
13
F3
F4
F5
03
04
0E
F0
F5
09
38
F1
F8
E9
03
F0
04
0A
F0
ED
29
07
E6
C7
F3
09
CE
FD
1A
09
FA
C7
12
1B
FD
0A
D6
02
10
24
F8
20
F9
04
36
13
F2
CE
01
FE
DD
07
EC
F2
D8
F2
D7
0E
10
13
DA
07
F4
FE
F7
F6
0C
30
EC
DD
F1
E4
F2
02
14
08
E9
17
E1
F5
0E
05
F9
02
13
00
F2
39
BA
19
27
1F
3B
D7
FF
FD
FF
08
08
04
59
09
C4
B1
02
EA
FC
03
03
13
1B
0F
E9
03
F3
0E
02
FA
13
FF
0C
EF
0E
F6
0E
F8
01
0C
27
DE
19
ED
0F
12
04
0D
0C
FA
A9
1F
02
18
F1
08
F8
F2
21
F2
16
F2
0A
1C
16
1B
F7
E9
F2
FD
FC
06
1B
EC
0A
0B
D7
FF
C9
0F
FC
21
FF
F9
2F
14
0E
FD
F3
EC
FB
00
F0
FB
1A
0E
FC
E2
08
EE
16
11
E5
01
07
F3
E9
E2
EA
EA
F7
FA
F9
E0
A7
D0
EA
07
03
E8
DC
F4
D1
E9
F6
E4
10
DB
CC
E0
DC
13
0B
10
EC
0E
F5
ED
F7
F5
E5
F9
FA
C0
F2
CA
06
F0
FA
ED
DF
0B
DC
01
0A
EF
EC
09
E2
12
F3
F6
EE
F7
FD
20
0A
0A
10
01
10
F4
F3
F4
0B
F7
05
F6
D8
03
F1
1C
ED
04
00
0F
F6
FE
EF
F1
E5
F6
18
E1
DF
E3
21
F2
F4
E2
07
F3
F4
15
D9
08
07
F8
12
08
FD
FE
34
03
D5
E3
04
EE
1C
06
14
04
F0
01
E2
06
0B
10
EC
F1
E1
FB
05
19
FD
04
15
1A
EC
FF
0C
FC
D1
EC
E6
18
F3
10
01
FA
07
F1
06
FB
EC
15
E8
FA
F0
15
0E
E7
F8
06
F1
EA
01
02
34
0F
CB
D9
04
13
03
05
DF
02
03
E2
03
F2
0C
F8
06
F2
20
05
1D
F7
EB
FA
FF
FA
F7
F5
16
1D
02
0C
F5
01
08
E9
F8
ED
11
08
0D
0F
12
07
16
FA
0A
FA
FC
19
06
F4
0D
F9
ED
EB
0A
08
0C
FB
FC
E6
FD
08
45
0C
EC
EA
07
11
06
F8
DD
F9
EB
1E
0C
F4
EB
21
E7
F1
DB
D4
15
13
FE
0E
F8
0C
E6
FE
F4
C6
0A
FF
13
C8
07
E3
05
FC
0A
13
DE
E2
EC
FC
09
04
EE
12
FE
01
E1
E9
03
E9
D1
E3
33
D8
01
0A
E6
FC
00
06
0D
00
D6
E6
F9
F0
08
F8
09
14
1A
E9
DD
01
01
D4
FC
F4
FE
06
04
02
DF
F4
E9
1A
03
F3
1B
EC
0E
F5
FF
F2
1B
05
0B
F4
F5
F4
00
EA
ED
F4
EF
04
0D
ED
14
F7
FD
D4
15
EF
F3
1B
E8
03
05
16
13
EE
01
FC
1B
06
1F
06
0A
DF
02
01
15
F2
E8
E1
11
14
F9
F6
EF
00
12
F2
01
F1
FC
0A
10
06
DB
F9
1A
26
E3
EC
F3
E3
EB
03
04
09
CC
04
18
11
DF
07
ED
09
02
0D
E7
E5
13
EF
14
FF
01
27
CC
2A
FA
E4
F3
0F
09
05
18
F9
1B
C1
F5
10
F1
FA
FB
0B
FC
0E
12
F7
0A
E1
02
0F
DD
FB
E0
EC
EB
01
05
F8
F5
15
E4
0E
F5
E2
16
F6
CE
0D
06
FE
D3
C9
0E
EA
07
0E
E1
03
0A
F0
F8
E3
19
A8
F7
08
E1
03
CD
DF
F7
DD
11
F7
F6
F6
02
F8
1A
D7
FC
ED
11
FE
02
EB
E7
C2
F3
E1
F2
DF
08
08
E5
EE
08
10
01
0A
EE
EB
DD
00
F0
F1
15
20
09
ED
E7
EB
FD
E6
C8
F9
06
06
06
FD
0D
07
0E
11
28
FE
00
EC
FF
1B
F2
F9
28
EB
FB
0D
FC
05
07
09
EC
0A
05
F6
05
F6
09
F7
2B
FA
E6
0F
09
00
F5
E8
F9
0B
1E
E1
E3
0D
F9
0B
21
1B
04
FB
0B
09
DA
F0
F7
DC
FA
14
09
F3
13
F8
18
E9
FE
F0
F7
FE
0C
05
D4
EC
D7
D5
0C
E8
EF
0F
D4
F9
03
D7
F2
DA
0D
03
D3
F6
E5
12
FE
F5
F7
03
0E
F7
FF
20
07
FF
F4
10
EC
FE
29
E6
04
FE
F5
FD
11
F9
EF
01
0E
02
01
16
16
D7
12
0F
F9
00
3A
0B
EF
C6
F2
EF
EA
FF
D4
FC
27
FF
F4
EF
02
E6
E0
F5
2C
FD
F3
DF
0B
F9
02
01
FA
FE
ED
25
FC
EC
FC
09
3C
07
00
D2
F0
0B
DE
EB
E7
F3
1E
ED
05
F6
E1
F7
F5
0E
08
F8
D2
E5
3C
15
09
D5
04
10
F5
14
0F
05
0B
E0
06
0D
F0
FC
00
0A
E2
FF
CE
08
F5
0A
F8
F3
D9
E8
EF
F8
F0
08
0A
01
27
FC
11
DC
0A
17
02
FF
11
12
1A
E6
03
13
F5
DE
E1
F5
01
ED
EE
EF
0B
14
F7
0F
1F
03
ED
D7
14
D7
03
01
FA
FE
00
11
0B
1F
08
EF
FF
05
0A
08
01
E5
FC
E6
F8
0F
E2
16
12
F0
22
F4
02
02
03
00
FE
FA
D9
06
FC
D7
FD
EF
0A
FA
F6
ED
F8
29
1B
12
02
1E
FD
10
2D
01
E4
0F
0A
EB
0C
E9
0C
0B
F7
EE
D0
05
E8
BF
E6
08
FF
F4
27
02
D7
1B
13
ED
EF
08
22
EC
1C
13
E9
E8
0C
32
F6
18
E8
FB
03
E3
FC
10
FB
F0
E3
FC
95
13
FC
26
FF
0A
FD
00
F8
0D
18
F5
06
EE
0D
D5
3C
0C
F7
EE
E9
FA
FC
07
0D
FB
08
ED
CE
F0
01
06
04
0D
03
FC
DF
E5
EB
E9
ED
0C
00
09
F2
FD
EC
F6
F3
F2
1B
10
F9
13
E3
07
F7
18
FE
FC
FA
FE
C6
0D
F7
12
F9
1E
0B
FD
ED
00
ED
E3
14
0F
06
FB
13
0C
17
DD
D5
05
EF
FB
DC
0A
EB
F2
0F
17
0C
06
FC
E6
E5
07
F0
05
FD
09
F7
ED
0D
03
E5
FA
E7
EE
C4
DC
CE
E9
D6
F9
F3
01
11
E9
0E
2E
F7
C8
F4
F7
33
00
BD
E1
FF
F5
08
F8
A9
D8
E7
06
0C
08
E9
FB
00
E3
39
0C
04
11
06
0A
F1
0A
EF
06
16
E3
1F
D9
E7
18
F7
10
FF
02
30
00
FA
C3
EF
EE
CF
F1
02
F8
03
13
0C
27
FF
F7
F6
F1
36
0A
FF
27
0B
EA
FB
F7
24
FD
EE
CD
FB
39
F1
00
CB
09
FD
0A
1B
08
E5
C4
07
DF
01
E7
FE
1B
F7
FB
F6
FE
FA
F7
D8
D0
03
E2
0C
ED
FB
F0
F7
05
39
F2
F9
FD
FA
E7
08
F5
17
18
D0
1D
20
00
F0
F5
F8
1B
FE
F1
F7
BE
16
0F
06
0B
34
F7
1B
D5
09
E2
04
12
C5
EB
29
13
EB
F0
F8
31
FB
ED
00
FC
08
07
F0
0B
E0
0D
E9
04
F4
EF
D8
F6
F6
29
E9
FE
09
ED
D1
DF
EE
E1
F6
F8
FF
06
05
08
16
0C
FA
E4
E4
EE
EC
EB
DB
F3
10
0F
02
E7
FF
0A
0F
F5
05
E3
FC
F5
FD
03
04
FA
05
F3
EF
07
17
FA
0B
17
DC
00
FD
06
05
F9
EA
13
EC
04
EA
05
E6
1C
EA
CB
DC
0B
01
F9
37
0C
DD
EC
09
ED
15
12
05
ED
FA
EC
F5
1A
0B
34
19
F6
DD
FD
F5
F2
FA
03
0D
FF
4B
08
FB
DC
0C
F9
0D
FF
D2
F0
16
E5
0F
0B
FB
03
02
0E
FB
06
F9
11
F5
F6
16
E6
F3
FD
0B
2A
F0
ED
01
F1
10
13
09
FF
FF
F8
EE
FD
EB
11
FB
0D
F0
05
23
13
19
23
E6
F6
D4
EC
D7
0D
07
02
09
EA
04
0D
B7
FC
E3
19
09
EE
F2
06
CF
F5
DA
D5
12
05
FE
00
EA
0D
FF
0E
01
0D
FD
F3
08
F1
FC
F9
06
07
32
C7
08
03
F0
FE
FE
0A
27
F3
13
F3
F7
FE
DA
FA
18
00
EA
09
FA
CE
0B
15
05
F7
F3
F3
0A
F9
0C
01
F9
08
28
FF
00
F5
F8
EC
FA
03
F4
FF
1C
14
20
02
FF
0E
08
E7
F0
DA
E7
17
16
FF
02
F0
08
F0
05
EF
33
F4
EE
B3
FC
EC
0A
E7
D4
04
E3
D1
F3
0B
E6
F8
18
FC
02
D7
EE
24
14
0C
F0
24
1A
14
11
E7
06
00
FB
ED
D0
FC
D6
3E
09
05
FD
FA
B1
11
05
22
F0
EE
02
29
F2
F2
29
ED
08
10
0C
ED
F9
15
1A
FD
E5
FD
0C
12
EB
0B
18
07
02
F9
E3
07
FD
D4
F7
F5
0C
FC
17
01
E7
15
F8
B8
08
11
D0
05
0E
11
EF
17
0F
E6
02
F2
20
FA
E8
07
FD
0B
ED
FF
27
F0
DC
E1
01
FA
F5
E2
0C
18
12
F5
DF
EC
F3
0B
E1
03
EB
0E
18
BC
CB
D0
0C
27
C9
1B
FE
FE
AD
EF
0C
FE
FF
FB
F0
08
FE
02
EE
0B
EB
0E
FC
0B
F2
0C
0B
0E
0E
F0
02
1E
00
F2
BA
04
0D
0E
1B
0D
07
0A
86
0B
27
E1
F0
0D
02
0F
F6
F9
11
06
F5
00
E8
FF
EB
E6
E8
07
11
13
07
E5
0F
14
EE
F1
FF
FE
B5
03
0B
01
02
01
F3
04
02
F9
09
F8
ED
E7
15
F8
F1
0C
D3
06
0B
F3
F7
E6
FD
FF
BB
FE
F2
0A
F8
1E
01
03
24
FA
1B
F8
0A
10
FA
EF
02
EC
F8
09
EC
12
F9
06
F8
17
E2
FE
FE
D4
D7
FD
0F
11
E2
16
FB
09
21
05
15
18
FA
0F
F7
06
12
05
00
19
06
0B
01
EE
10
E2
D6
0B
FA
16
F7
E2
09
0B
D3
F8
F8
EE
06
F1
05
FC
2D
02
EB
0A
F9
0D
EE
08
F9
F2
05
01
1A
07
0A
F0
FB
05
E4
08
14
0B
1D
0E
03
0F
03
FB
F5
F7
E5
F5
12
DE
0C
07
F0
0A
0B
03
EB
F3
00
18
1D
1A
17
10
12
05
00
0E
F9
0E
08
08
DE
0B
D8
FF
FF
02
03
FE
35
F1
D5
0F
F4
07
0C
E4
E9
09
FB
19
12
0C
00
F6
EE
0C
DB
04
1A
E2
EA
0A
F6
E3
DD
FD
03
F8
B8
13
15
E3
0C
04
F4
01
1B
08
EB
D9
F2
27
EB
DE
F9
F3
06
EE
06
E9
0E
DE
05
EE
1B
09
10
21
FA
0C
0B
FC
2B
F7
EF
02
FF
FA
09
31
EF
F2
FC
05
1F
F7
00
E5
22
E1
14
FC
1B
E5
05
ED
F7
E0
1C
14
EE
13
06
18
0F
BD
F8
E3
05
F6
D8
FA
EB
11
0A
F7
0A
E5
FA
14
E2
F4
F3
F9
08
E4
04
07
0F
02
FA
28
0D
1C
F9
09
14
ED
F9
07
1B
17
FF
CB
F9
03
EB
FD
D3
F6
FD
F4
0A
FD
01
0C
E8
F6
D1
F9
08
2B
F3
04
FD
07
F9
FB
F1
FA
01
0D
05
03
FE
F9
E6
0B
F1
01
CC
F3
0A
F3
D3
E5
0F
15
FC
F1
FA
FA
41
F3
1C
0D
09
03
FF
F6
E3
F2
E5
18
ED
11
F5
00
0C
F6
FD
F1
F8
06
07
F6
14
0A
06
F7
0C
DA
03
06
15
E8
F1
F5
0E
03
F0
04
0E
15
EE
E7
22
01
06
00
D8
09
0C
A2
08
ED
2B
00
22
F5
04
06
06
DE
0B
04
23
14
E2
10
07
E9
03
F6
E9
15
03
C9
12
09
EC
DD
E5
E6
E7
14
FC
E8
06
04
F3
04
FA
05
E7
DB
12
DB
05
F4
0F
FC
F5
E7
95
01
03
D4
03
03
E8
F9
DB
ED
F3
E6
03
D0
E5
10
E2
0C
C1
EC
07
EF
FD
E1
F9
F5
F9
F1
06
F5
FC
17
FA
F7
0E
EE
01
D6
03
F0
04
18
0E
F0
F9
19
1D
06
F1
FC
0B
03
19
F8
EC
F7
12
03
FC
23
E4
0A
04
0A
1A
14
F2
FC
1C
EA
0B
07
FB
F2
32
DE
1B
D8
1E
2C
E4
F1
EB
07
10
14
13
F6
00
02
0C
06
E4
EA
0C
2A
F7
02
E2
EF
E7
DF
13
FA
F1
24
11
18
2A
06
F2
01
0F
FD
EA
06
EA
F1
EA
00
12
1B
01
FC
05
F3
08
01
B4
16
E8
18
02
0F
24
FC
17
03
30
E5
18
DD
15
03
EA
0B
DB
E5
F6
11
00
F5
08
09
E2
0C
FA
F2
09
01
F8
00
4A
FF
E4
0B
17
0D
04
EA
E8
0F
DC
E9
12
FE
07
FC
1D
E9
F8
FB
0D
F3
1F
DE
00
2D
20
FB
F8
F7
CB
F5
03
E0
12
FE
FC
F5
E8
05
EE
13
00
FD
1F
24
D1
04
05
0E
05
F2
02
13
07
F7
B4
FD
1F
1C
02
11
08
0B
CF
F2
08
13
F1
0F
F2
FE
13
12
1A
E3
06
13
0D
0B
00
E8
0B
FE
EC
BB
E8
F6
ED
11
D6
E8
00
11
33
F4
F2
EE
E6
F6
F5
FC
26
EA
D7
03
C4
0C
D7
0C
00
ED
D7
E9
09
24
0B
0E
01
05
EA
FF
07
D2
0D
F4
0F
FC
FB
F6
07
26
02
09
FA
16
F2
EF
F1
0D
25
F3
05
07
ED
F4
06
F5
EB
F6
09
D8
0F
E0
0A
06
F9
FC
0C
0D
0C
E7
16
0F
10
0E
EF
09
08
FD
F3
DA
FB
FE
17
13
07
18
0C
FC
FD
FD
FF
FB
D5
0D
E8
2E
0D
E6
04
0D
0F
EA
00
F7
01
0C
FA
18
F4
05
09
DD
E7
0C
07
08
E2
0A
20
05
0D
DE
1C
05
F6
05
E3
08
F6
FA
10
18
E4
18
F9
F2
F0
03
F3
0B
FE
0C
E1
F4
1E
E9
D1
15
0B
F5
F1
F0
F8
04
07
FE
DD
08
F6
1E
01
08
0A
09
B5
0D
02
01
1C
F9
E0
CE
F4
DF
B8
02
FD
0B
03
07
0F
D5
0E
FA
1C
FB
22
1A
E5
0C
11
EA
F3
05
DF
E4
0A
04
02
00
D5
06
F9
E2
29
F9
F2
AF
E8
F5
D5
E5
D5
F7
E3
DF
ED
E0
FD
06
E3
04
CB
02
FD
E6
15
00
11
0A
E8
E7
15
F8
FD
CB
EA
E5
29
E9
E9
05
EE
F8
10
F6
FF
F2
11
E1
F1
E5
F1
14
E9
FF
0A
03
ED
13
F0
E4
00
15
19
F5
0C
11
DF
FA
FF
24
E6
F7
EA
0D
D2
EE
02
FF
0E
E0
06
07
CF
0B
15
FA
FC
EB
FE
07
EF
12
F3
E7
02
05
F7
EB
0F
F3
F8
F5
D3
06
F2
FF
F0
0F
FC
F6
F3
1B
12
ED
12
18
EA
0D
F5
0F
CB
09
EA
E0
F3
EC
17
05
DF
1B
0F
F4
16
29
15
03
18
10
2A
FA
0F
DD
0B
0F
FC
04
C9
F8
CA
C6
FA
FC
F5
00
BA
10
0F
D5
E5
08
09
D1
F3
05
D4
