EF
E2
FD
DF
0D
ED
F4
08
18
0A
DD
FE
E1
0D
E6
03
FB
FE
ED
E3
17
20
01
F2
FE
1B
F4
F7
F8
FC
E4
13
E9
17
F3
EC
0F
21
EC
FE
FB
FC
03
03
F1
01
19
25
EE
0C
EA
06
FA
F8
F7
09
FB
0C
11
F5
07
FE
10
03
F1
15
E3
15
D8
FF
01
01
0B
FA
F2
F7
F9
22
F0
04
18
08
0B
01
00
16
0B
F0
FB
00
FD
00
FE
07
06
EE
01
14
08
0B
0D
19
2F
07
02
E3
21
D4
FE
15
1B
10
01
E1
06
04
FC
DA
ED
0D
D0
F9
21
04
F7
F9
ED
FD
04
05
1B
DD
FA
B6
02
F7
FF
0D
F0
0A
08
1F
31
F0
1E
EC
E0
E9
14
02
0F
0A
19
16
E5
12
0D
FB
03
B8
0C
20
FC
02
FC
F3
13
EA
10
FC
F8
FD
1C
DC
E2
AB
0E
F1
F3
08
0E
ED
ED
06
F8
02
D1
EE
0A
08
04
FC
F6
E8
F0
E4
01
03
FB
05
05
06
02
CA
19
FF
FB
F1
ED
18
0B
EC
F4
FD
D6
F9
06
ED
0C
E7
03
FF
02
F1
F1
12
10
F6
06
E4
E5
17
FC
15
0B
2D
0A
FC
0F
08
08
EE
F5
FF
16
D3
02
FF
0A
09
DB
F0
FA
F9
0F
FE
F6
1B
F9
FA
07
00
0E
FD
0F
0D
F7
EE
FB
FA
2A
0E
1D
1A
08
FE
21
F3
11
22
14
F3
FA
F1
FF
0F
E3
F7
F5
FB
FF
09
04
14
05
F2
0A
F9
ED
08
15
FE
E3
DF
E8
07
D3
0E
01
F7
FF
03
F9
FC
ED
0B
FB
13
06
0B
0B
F4
F0
29
F6
F3
FC
F4
08
EF
FB
1F
05
1E
01
F1
E7
09
EF
FA
F8
FE
FF
15
FD
10
0F
05
03
0D
F6
F5
F7
E7
FD
0E
FA
01
0F
0C
17
EA
FA
DF
03
0A
11
07
F3
E6
EF
00
04
0C
07
0B
04
02
E8
EE
0A
F0
F1
04
00
FC
26
F2
06
EE
06
19
FE
12
08
05
EA
0A
EA
12
E3
FD
00
FA
10
13
01
08
12
EA
D5
00
25
02
F1
13
0C
F4
F8
13
F9
14
F3
FD
16
0D
05
03
FC
04
00
EE
E6
F3
E6
01
03
18
0D
04
05
E2
24
04
0C
02
FB
FE
11
15
1E
F1
27
F4
0C
1B
13
FE
1D
F1
02
F3
0A
F2
1C
0A
E3
23
0C
01
16
11
25
01
15
13
02
0A
FB
14
0D
03
FA
0C
0E
1A
E5
18
09
E8
1E
FC
05
00
02
0A
FA
E9
03
FA
F2
25
06
0D
07
00
0F
F5
EF
09
0F
09
07
0A
15
FA
10
EE
08
0C
EF
00
F8
0B
F8
E0
24
0A
0F
FE
01
FD
01
E8
F8
02
0F
03
02
F1
02
0F
26
CA
FF
10
17
F9
FF
02
F8
EF
07
F9
12
09
FF
02
13
FC
F9
00
F0
0C
FB
09
02
FF
F7
FB
D7
0B
02
00
09
EF
13
08
F5
EC
0D
F3
07
F4
F6
EE
EB
D0
F1
0D
17
FB
22
F9
13
EF
09
15
F7
07
F1
0E
05
17
03
02
07
E1
06
E1
00
0C
0D
0C
CB
CD
FD
E1
0E
E3
F4
F7
FD
04
07
E9
12
FD
FF
F8
EC
0B
FB
F3
F7
FD
E3
0C
0A
FE
FF
F2
EA
EC
07
D8
FE
09
14
08
E9
01
EF
1B
DC
00
08
0A
ED
E3
25
10
0F
F2
FF
D7
EA
02
21
FA
E7
F0
FE
09
07
EF
0A
06
14
0A
0F
FA
FA
01
F2
EB
13
21
EE
06
18
F9
FB
10
05
FB
0F
F3
04
07
0E
03
1C
0B
FC
FB
03
EA
37
F4
05
ED
F1
E4
EF
DF
1A
17
01
E8
F8
29
E6
04
09
F0
FC
EC
F0
1C
F6
E7
07
01
FA
0C
FB
17
08
F0
10
E9
F3
E6
F2
0B
F7
19
FE
08
07
FD
0C
E7
FC
04
F8
0F
EC
FB
FD
02
FC
12
DC
FE
F5
F7
FE
0F
ED
25
13
F5
06
0F
0D
1A
F3
FD
E4
11
18
10
E2
08
FE
E4
12
FF
0B
0F
F6
0F
FC
07
31
0A
EA
FD
0A
F1
0F
0D
0B
18
02
0A
FA
09
0D
06
F4
03
08
F6
0D
04
07
17
0D
FC
FE
FD
0E
F5
00
13
FE
06
18
02
FC
FB
E2
20
18
F6
0C
F7
FE
E5
04
F2
E4
25
08
0B
0A
06
0B
11
07
11
1A
06
FF
07
FD
F1
00
FE
05
1B
F7
08
13
17
FF
11
0E
F1
16
EC
DD
EE
14
0B
FA
FD
07
F1
F6
00
F7
0A
2B
1E
08
09
0E
09
08
02
08
0B
FE
DF
F8
0D
ED
DD
08
FF
F8
04
FE
FA
12
01
BC
0B
1E
E8
E7
EE
10
17
02
F8
0B
EB
E7
FB
13
02
20
01
0F
FC
FE
1E
0C
F6
04
DE
09
F8
F4
F6
1C
01
13
0F
19
F4
E7
0A
02
FF
08
F9
08
FD
07
0D
FD
F1
12
00
06
FE
EA
02
1E
01
F5
FC
FA
E0
FB
ED
EF
27
EC
E6
E8
0E
05
13
F5
08
01
05
15
FD
F9
FC
F7
FC
F7
25
16
14
15
09
0F
04
0F
F2
FB
D7
CC
EE
0A
FC
EA
06
05
0E
E1
F9
F3
F7
F2
F5
04
F2
07
05
F3
0D
04
07
07
12
E3
EA
F4
F5
02
02
07
F7
1A
F0
09
FD
E6
06
15
FD
F9
0D
05
F7
D5
E9
1F
2A
E8
02
ED
11
11
03
06
11
FD
09
D7
0E
F6
FF
F9
00
05
07
FD
02
14
EE
F9
EF
EC
09
F0
0B
03
06
FF
02
BC
FF
02
DD
0A
FF
13
03
15
0A
12
FE
FB
16
F8
F6
FC
D4
06
EC
0B
F4
EF
04
D4
FC
F3
F6
02
F7
F9
1D
FC
01
05
FA
12
D4
F6
F1
08
F2
00
F2
D5
EF
02
1B
24
ED
01
13
F4
0C
FE
C2
F2
02
0B
05
19
0B
F2
05
FA
08
04
11
06
FF
09
D4
EC
EC
FD
1B
02
FD
FF
F0
DF
11
FB
F0
DD
16
FC
0F
EC
13
DA
EE
FB
F1
E3
05
2D
00
16
F0
E6
90
0D
FF
E1
EE
FB
E9
E9
05
11
FF
0A
02
01
06
09
C6
C9
17
22
E8
10
F2
18
01
FE
0B
DD
FF
F6
0A
04
FE
FC
F5
05
F5
E7
F9
0B
0B
16
18
10
08
06
EC
10
F3
C6
E7
FA
F9
03
10
0D
FF
F0
17
FB
ED
08
F0
F8
1A
EF
EB
FF
01
EB
EB
EB
EF
E6
E6
F1
25
FA
0F
0B
F9
F8
1A
E1
05
01
E3
22
FF
E4
09
22
EE
0B
1F
EB
05
E9
E3
0A
D9
0B
1A
F4
FD
06
0B
D8
03
F7
ED
BE
F8
E8
05
FA
18
0C
F2
FC
FB
0C
DB
04
05
FF
12
51
C1
15
E5
1F
FE
0E
05
DE
F9
FE
0D
03
FB
CA
05
0E
31
FF
0A
04
07
E6
01
EA
03
F0
EB
FD
04
FC
FD
E6
EA
FC
FE
D1
2C
DA
F4
02
F9
F0
0E
07
04
E2
F5
1D
21
E6
E5
10
01
1C
18
08
F5
01
F3
05
0B
FC
05
FD
27
F9
EF
0A
0B
05
E9
F2
BB
1B
F0
0A
18
FA
FB
06
0E
01
48
E6
00
E5
0B
ED
ED
FF
1D
26
0C
0F
11
0D
03
F6
E6
FC
05
07
C7
06
00
03
07
0B
04
F7
D6
E1
E2
D6
FE
0E
02
EF
F8
03
D7
E1
35
E4
0A
21
04
C9
39
FF
EA
19
DE
15
E7
06
19
F4
FF
FE
02
F9
10
02
E3
16
FA
EA
00
04
F7
E9
FF
0A
E1
27
FF
F0
F0
D8
09
F7
E7
EA
29
0A
0B
FE
02
F7
12
F1
11
01
19
00
17
F4
13
D2
0F
0D
E3
03
0E
E6
DF
FE
FF
FA
08
0A
F4
0F
15
FC
05
F8
11
0E
24
1D
E9
CF
43
09
EC
FC
FF
F2
30
FC
03
E4
EF
F1
00
F0
0C
0D
21
0C
F6
00
FE
F3
F0
CD
06
F3
0C
FD
08
08
F5
F1
F8
F9
00
CC
1C
03
1B
FF
0B
F1
18
C4
09
00
CC
09
FC
FB
FA
FD
DA
02
F7
D3
F4
ED
FD
22
07
FA
03
EC
01
FD
06
F5
CA
07
08
E3
02
07
E9
FB
05
F9
F8
F1
10
F9
09
0B
0A
0D
05
E2
D4
30
0B
F3
00
F1
F0
09
F6
17
0B
F3
DA
13
FE
E8
00
07
FE
07
F5
DB
DB
FA
FE
FB
0A
FC
10
F8
F1
E9
04
F3
02
EA
DF
09
02
C7
DF
07
0D
E5
03
08
0E
FA
02
02
E7
F8
14
F8
01
11
EA
EB
E7
02
00
F1
F9
F1
F8
05
03
14
09
0A
14
0B
00
FF
FB
1E
FC
0B
EE
F0
09
11
11
F7
F0
E4
D3
03
FC
F8
0E
FF
F4
12
22
E8
F5
F7
EF
17
15
0C
F4
05
F4
0A
DB
EE
33
1A
F5
05
F7
FF
F0
FF
04
FA
FB
EB
06
05
FF
1C
04
F3
0C
03
0D
D8
04
09
E4
ED
F3
F7
FD
ED
0E
1A
13
FF
F4
03
11
0D
09
0C
0D
F5
FB
E9
00
05
0A
F5
09
10
06
05
0B
F4
08
F0
F3
F6
D1
E5
FA
09
08
F6
F9
06
32
FA
FA
F4
25
13
10
F5
F4
21
EE
19
FD
00
00
D2
F2
DC
DE
F6
D5
00
07
FD
E8
04
13
F8
0E
B6
FE
06
F1
E4
0B
10
EB
F0
0F
E4
14
1D
03
E2
F0
1B
BE
F9
FC
10
FC
03
03
23
06
F1
06
10
FD
16
FB
FE
13
CD
13
0D
01
01
06
EB
03
0C
F1
05
0E
FF
ED
BF
F4
EB
EE
DC
1F
04
03
F1
F3
F3
11
0E
F8
F6
20
1C
03
E7
F3
1A
FC
EF
1F
FB
F6
23
F8
08
08
F2
01
F3
02
F7
FF
F2
F8
F2
10
DD
F2
F8
16
FF
FE
16
14
F7
0A
07
C9
FC
F3
E3
05
D5
0A
1E
06
26
FF
F9
0E
0D
08
FF
EF
0D
F7
FD
10
F4
03
11
02
F8
F7
F5
E9
0E
E9
E5
09
E1
0D
EF
FC
08
F7
E1
13
16
FF
F3
F4
BF
0A
0A
E0
08
01
E3
22
06
DC
E2
03
F0
05
0A
ED
16
15
ED
EE
06
09
08
05
FB
02
F7
08
F7
F8
0A
F3
09
01
F7
E2
1D
18
1A
F3
04
18
09
15
02
05
F8
EF
F2
E2
F5
FC
C7
0C
06
04
FF
0C
D6
E0
0F
0E
07
04
E2
0E
10
FD
02
0A
09
FE
CB
0D
E9
CB
EB
F7
FC
0C
F1
FC
F2
C6
F9
FF
09
FF
1D
0E
FA
F6
03
02
DE
F2
FB
0D
F8
F2
F4
0B
F6
FA
05
F7
00
FD
F2
FD
1A
E6
10
F5
1D
DF
F9
EB
0E
DE
02
D8
FB
27
23
06
EF
F9
07
9D
00
EC
0D
EE
00
F0
FF
FA
FD
F9
FE
FD
01
F5
01
CB
1A
0E
DC
F1
07
F3
09
06
F6
FF
FB
FF
0A
16
E6
F9
09
F9
14
11
02
08
F0
03
07
EB
FB
07
EB
FD
F3
FD
F2
DA
F1
F8
F3
EF
FD
FA
EB
D4
00
EE
FA
FC
FD
0A
F6
FC
02
17
FE
E7
11
FD
1F
FA
D6
F1
09
07
E8
07
FE
20
04
05
F6
23
05
F5
FD
F5
FA
DB
03
F9
FC
F1
17
26
00
DC
00
E3
07
FD
16
0E
F9
F3
06
F5
11
12
F2
00
E9
F6
FA
0D
FC
27
15
F4
E9
F6
ED
0E
0A
36
03
F0
02
13
0A
EE
F0
DA
12
03
00
FC
FA
F3
01
FF
ED
EB
D4
0E
0A
F5
E1
03
FC
E5
16
FD
00
09
FE
F4
0E
06
08
E4
DD
F7
02
E6
08
DA
01
0F
F2
0A
ED
FC
1E
15
0A
0B
04
09
1B
04
DE
21
FC
F3
FD
0C
03
1B
F1
ED
09
FD
09
F4
03
E9
0C
EA
F3
FA
F4
EB
F7
F7
FB
EA
0B
04
EE
09
F9
02
E1
0F
D7
F0
06
F6
ED
FA
EA
11
FB
D8
07
EB
FC
04
17
0C
04
10
E9
F9
BD
F5
E8
0F
FC
12
10
06
1B
1D
0B
FC
0E
FD
17
0B
F2
DC
0C
ED
F1
05
03
E5
F6
E5
10
09
F5
01
21
F3
09
28
E2
02
DA
02
F1
0E
F8
06
FB
F5
E6
02
0F
04
E7
07
F5
08
1F
FA
F2
F1
FC
F4
04
F2
00
F6
00
F6
04
0E
F6
14
15
FD
02
04
14
F8
FB
FE
14
15
07
FA
07
EF
0F
0B
ED
08
03
0A
06
EC
FA
EF
00
C4
13
FF
FD
05
06
E7
07
F6
12
F2
F7
07
04
FF
1C
EC
FA
EF
EF
FD
08
DD
0C
EE
F7
28
01
F2
EC
12
FC
03
06
03
0D
EC
0D
0F
EF
E5
EB
0B
11
05
DD
F4
FA
FA
16
F3
03
0A
0B
03
01
1A
F0
E7
01
D1
EF
04
F6
FF
E6
EE
F5
31
02
13
2E
09
EA
0F
FC
FC
09
08
E0
F6
FE
03
25
07
13
F0
FD
04
ED
FF
00
DD
10
0D
1B
F3
14
D0
07
F7
01
EF
FA
1C
01
F0
FE
F7
D2
E2
F5
FE
FE
F7
F4
CB
12
0F
06
F2
03
F3
14
E8
E4
02
E8
A4
F8
F3
F1
07
0E
01
FC
EF
F0
BF
1F
FE
02
F5
1A
F2
D2
29
FC
EF
04
F0
12
FE
F7
FD
07
02
F8
FF
0D
F6
E7
DA
C0
FB
0C
0A
F6
0F
F6
FB
EB
02
02
24
FB
19
19
F3
BE
CB
0B
E4
E4
01
1B
FF
EA
FD
FC
02
0A
F9
10
F8
F2
B5
E4
09
10
E7
ED
17
EF
03
08
12
FB
FA
F5
02
18
F9
EF
FD
DE
E2
FA
F1
FA
0C
0F
02
19
10
F0
13
13
DD
F5
DB
0C
04
0E
0F
1E
F5
E5
0E
06
21
FF
0C
05
09
F1
EB
0C
ED
09
F5
FE
1B
0A
EF
EC
F5
FF
06
00
0B
F4
B4
F2
F7
EF
28
0E
09
0A
0E
11
05
1B
07
EE
03
F4
DD
EA
E8
04
E5
F6
04
FB
13
F9
06
E8
FF
FF
15
16
0E
03
1C
E1
06
0E
F3
23
03
F1
02
FF
FF
33
82
09
08
17
0A
08
04
F0
FE
0F
FA
12
0C
FE
EA
0B
0F
EF
11
17
08
10
EF
E6
05
F7
04
D1
07
00
E5
D8
FE
00
07
19
2B
D9
F9
0D
FF
06
F3
18
E7
00
04
EF
E5
F7
01
E0
F1
08
16
06
00
F5
00
EA
24
0B
F8
F1
F3
0F
FA
07
10
F7
D2
F3
DE
E2
01
19
E6
FE
0E
17
03
0B
39
E7
02
09
2F
23
F9
F3
08
17
E4
05
0F
D9
FB
E2
FA
17
17
0C
EC
02
09
FB
02
03
13
0F
E4
E3
F5
12
F2
11
E9
FB
0B
05
D7
1B
15
E3
01
19
0E
F0
C5
F8
1C
13
FF
F4
EF
0D
FB
E3
01
10
FC
0C
EC
E6
1B
E8
ED
16
F3
E7
F2
01
FC
FA
F2
0B
F1
08
FF
2C
FE
10
0C
FE
B4
EE
EB
07
10
02
FE
DF
DF
14
10
20
09
0E
EC
06
EB
FF
FA
02
FE
D2
E3
F6
DC
FE
0B
06
BB
F7
DE
F7
FA
07
FB
FE
E1
DA
22
1A
DF
FC
19
F3
0B
F9
D1
FC
05
08
CA
09
05
FB
01
FF
02
F3
EB
0B
03
06
20
15
F1
04
FE
EA
06
F5
0B
FD
ED
F4
16
F9
07
11
05
18
10
EB
08
07
10
E5
FF
08
15
F3
0B
06
F9
F0
04
12
0D
FC
EC
05
0F
FF
FD
E8
FA
F3
05
F3
2A
FE
F9
2C
16
07
00
09
04
09
08
F5
F4
FA
FA
B8
F7
05
E8
FE
20
C5
0C
FF
F0
F1
EF
F6
04
F3
ED
03
F0
E9
D4
27
02
0E
04
0A
05
F4
19
FE
03
FD
0C
01
F1
00
0E
0C
04
0D
EC
13
F0
17
29
E1
3B
FC
16
ED
FD
F9
00
F3
01
F2
0C
E0
06
F8
F2
FB
18
18
E6
ED
F9
F5
D2
1F
F9
04
0B
EF
04
0A
FF
04
F7
F9
D6
E7
FA
07
E7
07
ED
FD
EB
D1
DE
FC
D5
DB
FB
E7
0B
F7
E2
F6
F5
D5
0D
F6
13
07
00
0B
06
0D
04
0B
F3
FB
03
F0
FA
14
02
0E
F6
EE
FC
06
DD
D1
03
07
F1
E6
F1
06
03
16
0D
ED
09
FD
EF
FD
F6
F5
03
EF
FC
F4
03
EF
ED
FF
0D
12
00
F6
07
F1
05
FE
1A
01
07
F3
FA
03
F5
04
12
11
16
E7
ED
E9
E2
FA
C3
F2
E9
0B
0D
F8
C1
03
00
EC
F2
03
FC
E0
00
FA
E3
04
04
FD
F7
13
12
03
DF
03
D4
F9
F6
D5
FD
0B
E1
14
04
E0
17
24
E9
02
FC
03
FE
FE
EA
F6
1E
D7
FA
0B
ED
F4
0F
EB
F5
F4
15
F7
F1
F6
D0
0B
02
0C
09
F7
FE
F9
F6
18
05
1A
F8
0A
00
F4
01
0D
F5
1D
02
0B
0C
00
F4
F6
F3
F9
DF
36
F2
FA
E7
EE
EF
F8
DE
0E
06
FE
EA
F4
DB
15
FC
E9
11
0A
0E
FD
08
12
F7
00
09
04
11
FA
E2
F0
03
14
13
E5
1E
08
09
F3
15
F3
F7
0D
F6
04
D3
F4
FD
11
EE
0A
05
23
0F
FF
09
FF
FB
0C
0B
FE
17
11
04
EB
15
F1
FF
E3
0B
16
ED
1C
02
1A
F8
EE
F2
1A
F2
F8
F2
1C
F3
10
E3
03
09
15
FD
0E
B2
02
EC
E1
F0
01
EA
11
1D
F7
0A
EA
FF
F6
E7
01
03
F4
FA
F3
08
EC
05
08
FD
0C
FE
E2
F3
FB
F4
11
01
0A
EE
0B
19
19
FC
FB
F0
04
FC
02
F0
EB
F3
13
F5
0E
F9
09
F8
00
15
02
01
0B
F0
F6
10
04
F9
02
1D
F4
DC
05
05
16
0D
19
02
DC
15
FE
02
04
03
FE
FD
08
C5
08
FF
06
CA
EE
09
01
00
F3
09
FB
1A
F4
05
1B
E2
FB
00
F1
F0
0B
0C
0C
E9
FB
FB
15
F4
E9
ED
0F
F1
11
ED
22
D4
EC
E7
DF
FD
D7
05
0B
02
A3
18
02
F1
DD
19
1E
FA
E0
E2
E9
06
FE
FA
13
E6
0B
CB
F1
1E
F6
F2
F0
11
03
FE
00
FE
CA
FC
F8
EE
16
00
09
05
EE
13
09
06
EA
07
04
EC
0B
E6
E5
1C
EB
F4
E2
E7
1A
1D
09
0E
F5
F0
DD
E7
F1
05
00
F8
08
1B
0F
D1
EA
EA
0D
17
F0
F3
ED
20
D0
15
07
F6
E6
F2
07
BC
EF
04
F0
FC
E4
09
15
F3
BF
07
E2
17
FE
F8
18
1C
EE
EC
F3
D3
08
FA
F1
03
01
FA
11
03
25
00
1A
FA
FF
1B
16
07
E1
1F
1C
CF
F9
FE
F0
F7
F8
33
F7
FB
F1
FB
F3
08
0D
CC
F9
FA
04
FC
1C
F4
F7
D7
1F
FD
E5
F4
12
03
06
04
FE
F7
E5
FB
FB
F4
DA
FB
00
13
18
E8
DC
F9
F8
02
03
DE
02
0C
FB
FE
E8
05
F5
F3
0F
0A
0F
00
0F
0E
D3
FE
FC
FF
06
0C
05
16
F8
F4
08
FA
FB
00
1E
FA
F6
1D
E6
BC
F2
01
E6
F1
F7
DF
0F
0C
12
C3
F0
FC
09
F8
F8
F5
EE
0D
EC
0B
D4
CE
16
ED
FF
1F
F3
02
F9
EC
EA
02
EF
11
EC
01
EA
04
F6
0C
FC
EB
DC
C3
07
CA
F6
00
27
07
03
E7
FF
F7
2F
F4
17
FA
F7
EE
FF
0E
FD
05
FC
0E
EF
02
04
FE
15
F2
F3
EE
09
04
FF
FF
01
F2
F2
F6
D8
FB
01
1F
ED
2C
CC
FC
FB
F3
EC
E4
ED
DD
03
D7
0F
25
1D
DD
FD
F5
F1
0C
05
FB
E7
F0
0E
F2
F9
0E
03
D4
F4
F7
0F
F4
F6
07
05
DC
27
27
07
E1
F7
04
04
0C
06
FB
FD
F9
03
24
05
D6
DD
FE
09
15
13
ED
18
06
FC
22
17
08
08
03
F2
FD
E2
0B
01
F5
1C
09
13
08
16
FC
15
0E
03
FC
02
E6
0B
00
F1
05
0B
01
F7
40
F1
F3
F9
F2
11
02
10
D2
EA
07
E0
09
12
09
FD
D5
1D
F1
DE
FE
04
0E
FC
05
0A
04
19
0B
10
0F
09
04
09
FF
17
34
F1
0B
F6
08
05
ED
20
FE
02
FF
FB
18
1B
ED
2D
0A
12
0C
EF
F0
E2
0D
F9
24
06
0D
06
04
02
00
F3
F4
06
F2
04
07
EA
FE
24
14
FC
F6
ED
F8
02
38
14
FF
F9
00
E6
05
02
F7
05
F7
0B
0E
EC
02
FA
07
12
FF
F7
F6
EF
07
01
F5
F6
01
F5
E2
B6
ED
D7
06
0C
F0
26
F1
15
F6
E0
E3
D4
FA
14
0D
1A
E0
0B
F9
F0
F3
06
F1
FD
E8
F7
FD
F7
FB
03
0E
10
08
FF
FA
F7
F5
ED
00
02
02
08
E7
2F
06
01
06
05
04
04
EE
F0
17
E8
06
07
E5
00
0C
EE
EB
EF
07
05
F1
DC
18
DB
0D
FF
F9
03
FD
1A
07
F9
EC
FB
08
FB
0D
0F
0A
0F
FA
F4
00
0F
FF
0D
E7
F1
C3
04
F7
02
02
0B
16
01
0A
F8
D1
EF
0A
E4
F6
03
04
EB
EE
F6
03
E3
10
CC
D9
0A
F7
06
FE
07
F5
FA
DA
15
F1
12
05
12
0E
E5
09
16
21
D4
19
1E
BE
0A
F6
D8
EB
0B
84
F7
01
DB
E4
F3
EB
07
FE
0F
FF
01
02
0A
F1
DC
B7
EB
0C
E2
06
0F
F0
F9
FF
08
DF
FE
0B
01
0F
05
FA
EF
F8
16
1A
35
0B
00
E7
06
FB
11
F7
EE
00
E6
D9
18
15
F6
0B
F1
FE
DC
ED
E2
E6
09
18
F5
F8
09
F6
FF
F8
EA
F2
FA
0A
F2
FA
20
E2
D4
CC
00
09
F0
FC
F7
15
13
10
FB
27
F3
02
E8
F5
E2
D4
1C
20
00
11
01
00
11
D2
0C
02
E4
0C
FE
0D
FE
F7
F1
F8
E4
11
00
0D
08
F0
21
18
20
FC
1B
AF
CB
13
0C
11
C4
12
00
FF
10
F7
0C
FB
0C
FA
1C
02
EF
F3
1E
08
13
10
EC
ED
FB
17
FF
F6
23
01
0C
07
17
02
FD
06
0D
0E
F2
17
F7
04
F3
08
F8
1E
FD
12
F5
F4
0E
11
FF
E9
ED
10
E8
0C
FE
0A
1A
03
F7
05
FD
13
05
08
E1
FC
06
22
07
FF
E9
01
05
14
1D
D9
1F
05
0D
F5
04
07
FF
21
E7
0B
FE
EA
DC
F7
EC
F2
F5
EE
08
08
F0
FC
15
20
06
0F
E9
06
F9
F7
FF
F2
01
F9
F0
01
0A
12
15
FE
07
E8
03
02
FC
0D
14
DC
06
05
06
01
DD
66
01
0D
05
08
0D
00
16
02
F9
09
F1
10
F3
FB
F7
F4
1E
0A
2C
0D
F2
15
0B
FF
FF
F9
EC
F5
FD
17
CF
08
0C
FD
1C
F7
14
FF
FD
16
F0
00
E5
F4
F5
D1
F6
F5
E5
24
F7
0F
02
05
0F
F6
0A
0C
FF
03
04
08
FB
E5
07
FF
EC
12
FD
01
F9
F9
0F
F2
D7
F5
01
11
24
0B
06
B5
0A
08
12
D8
0E
02
1F
04
DC
09
0B
09
F8
00
18
FA
09
02
01
F0
F8
0A
E2
EC
E1
10
18
C4
D6
07
F2
03
DF
EB
03
F8
F8
00
0F
D7
03
FA
E4
08
2E
9A
05
20
01
F5
E1
0F
16
F2
19
F4
FF
02
0C
F8
01
0E
CC
EB
E7
EE
F9
12
0D
03
FF
F0
01
F9
F7
19
26
0E
08
1D
FC
EB
F6
FF
11
01
FC
FB
E1
D6
24
06
F2
00
ED
05
F6
02
FB
ED
E3
03
F5
18
0E
D7
FC
FE
E8
E4
02
03
F3
09
FF
0F
22
DD
FB
D5
1F
28
FF
0B
E7
F2
01
D7
0D
00
FC
91
FA
08
D0
0F
0B
FB
0E
FF
0A
07
0B
ED
F6
03
EF
FC
05
F4
04
03
F6
11
F3
DD
CB
00
F4
00
E2
11
E3
DC
20
FC
F7
12
F7
0B
EC
F7
19
C8
FC
20
09
12
EE
F5
F8
EE
F2
F7
01
F7
F2
01
FE
DE
F9
12
0B
05
FF
0E
14
05
FD
05
0D
06
F8
12
02
0B
04
FA
08
09
E4
0A
07
F2
0B
0C
F9
16
F7
E7
05
EC
E0
08
D4
FA
01
0E
19
09
E0
ED
FD
21
FF
F8
F1
07
FE
0A
08
FB
0E
00
09
00
ED
FF
2F
10
F6
15
F9
F1
03
FC
EB
04
10
04
00
FB
F6
11
F4
F2
02
EE
FA
F8
06
EE
04
FD
05
F9
05
06
0C
F3
0D
0C
F5
F2
26
08
29
0C
F3
04
1C
06
E5
D1
F6
FF
1B
11
19
02
F7
A6
00
E9
F7
EA
D1
0B
0A
1A
D1
08
F2
12
F4
FF
1C
F4
F8
02
F6
07
FA
0C
1A
01
EE
F0
E4
09
08
E6
E2
FE
02
04
FE
F2
15
0A
F8
ED
0C
E6
ED
08
F9
E4
0B
E1
09
F2
EC
F5
0B
FA
09
04
DD
E4
F3
F0
08
FC
01
D3
DE
E7
E4
03
FA
04
EF
E8
0B
F2
20
14
F8
FE
FD
0A
0D
D3
06
01
F5
F6
FC
F3
F3
DD
F7
F2
22
18
0B
F3
E5
D3
00
E8
07
F6
EA
FC
11
E4
DD
16
1A
11
CB
08
05
04
FE
EE
FE
04
14
E1
0A
D1
17
0E
DF
F5
E1
82
F3
F9
E8
00
F7
13
ED
19
1B
06
14
FE
F7
EF
ED
C2
D3
EF
F5
0F
FF
03
08
FF
07
FD
F4
00
04
15
22
FA
EB
04
01
C0
BD
01
07
F9
06
F1
01
F6
11
13
1D
E4
FF
FB
03
06
09
FD
08
F5
FA
F1
EF
F0
F9
02
FA
DC
00
13
06
EF
13
F2
0F
ED
EA
EF
09
EF
07
F8
11
FB
09
CD
F6
05
12
13
D2
FC
05
05
14
F9
DA
05
08
FE
16
15
EA
FD
0B
1B
FA
02
03
FA
00
FC
FE
20
C1
FF
FF
0D
09
EE
F3
06
FB
F8
FE
DB
FC
03
10
F7
E7
5B
00
08
0D
0F
0F
01
F6
DA
1E
F5
ED
00
03
FD
E8
0B
F6
11
F1
0F
07
F9
06
03
FC
0F
F5
03
0B
05
0E
F9
03
18
05
07
0A
F1
FB
EE
00
0A
03
14
0E
1B
E9
F8
11
F1
04
F6
F8
F6
01
15
E9
EC
03
0B
FD
04
F0
F4
09
FB
F3
05
F2
F3
1F
0E
04
17
0D
04
F8
E9
F5
FC
06
33
FB
FA
02
01
0A
FE
F6
FC
E3
18
F3
0F
F1
0D
1E
F4
1B
F4
19
E6
01
06
23
14
0A
00
1D
0D
28
0A
01
ED
E8
00
12
04
1A
1C
1C
D7
E5
FF
ED
F1
DC
29
02
0D
FE
F8
0E
F3
0E
EC
FA
06
02
F9
07
04
FD
D4
D7
EC
F0
0B
F1
E8
0C
FE
0A
FC
F5
F0
08
04
03
F7
F8
0B
19
0E
07
E4
08
13
FC
16
0A
FF
0F
26
EC
FC
FB
FF
01
FB
0A
FA
08
12
04
16
11
17
06
F3
F3
F2
F5
0F
01
0D
F3
25
1E
FE
1D
DD
3D
93
FE
09
15
F4
02
FB
F5
FF
05
A5
F5
FB
09
07
EE
EB
E4
06
F1
0B
E5
09
0B
17
E8
EC
04
0D
F8
FF
E2
FA
F0
21
CB
01
F0
ED
F9
F7
E2
02
12
DC
FB
21
FD
09
20
07
29
BF
FD
00
FF
02
00
10
F9
E5
15
F3
0B
FC
12
EA
06
FE
19
13
17
FC
05
0A
02
FB
F9
12
E3
FD
08
FA
10
0B
EF
F7
07
D7
37
00
08
03
F4
0E
0D
EB
05
D7
F9
EF
D3
15
E6
F8
EC
06
03
23
DF
FB
EE
F4
04
00
FD
FB
EB
ED
01
FD
03
FD
20
26
13
0A
E0
F4
0F
01
1E
ED
03
29
F3
FB
F4
EB
07
14
F5
F8
14
F1
0F
0B
F3
00
15
E1
E4
FD
07
F2
01
FD
F5
10
EF
FF
E1
FE
EB
0A
0B
FF
02
F3
EA
0D
06
D9
00
BA
11
02
FA
10
29
F9
03
0D
1A
0A
D2
11
25
F4
F0
06
FA
04
E5
13
F1
12
22
EB
F6
07
F9
FD
F9
FF
F1
23
E5
FE
09
E7
EE
0D
08
EB
1B
E1
DA
FE
07
1C
F6
EF
E4
EF
16
F4
FA
05
EC
F7
FB
F7
FA
F6
EB
00
EC
EE
08
EF
07
04
03
03
FA
06
FC
1A
0B
FE
07
F7
0D
DF
23
20
F6
F8
F3
02
00
20
18
0A
03
22
FF
FC
16
F9
F3
0B
08
E6
09
0A
19
FD
FF
E1
08
2D
01
0A
FE
13
FA
F4
F5
07
EB
17
E6
0F
0F
0B
11
ED
E0
F2
EE
CE
D4
F6
FA
FD
1A
19
0F
14
05
F5
ED
10
0B
F0
13
FC
F6
0A
0D
DB
14
0F
00
13
E5
0E
0B
FF
0E
07
01
0D
0E
06
01
08
18
FF
05
FA
0A
E8
DC
01
F9
F1
0D
EB
07
1A
F3
F2
15
E5
14
F8
EF
15
F4
FE
1A
02
E7
E9
04
F9
00
03
EF
17
05
FB
FD
00
FD
10
FF
FB
09
05
E5
C8
03
02
F4
F3
0B
E4
15
06
FC
E7
1B
14
FC
0E
0F
F8
E5
EE
02
06
EE
0A
FF
00
F2
24
F9
09
FB
02
F9
F9
F8
FB
22
EE
19
0A
17
07
F7
F9
1C
06
0C
0D
F0
09
05
0D
09
05
F1
19
0F
FF
F9
06
07
E4
FF
09
04
09
0A
E3
FD
0C
01
11
F8
F5
F1
16
14
01
10
F6
0A
FF
0A
0C
0A
0A
F7
FB
09
00
09
0C
04
EE
03
10
0E
13
FF
13
F7
0C
07
00
0B
0F
11
09
F4
04
E3
12
02
0A
05
04
F2
1C
F8
F2
08
0A
08
24
28
13
07
17
0A
23
0F
F9
05
0D
F3
34
07
F7
F4
1D
FB
F6
01
11
11
EC
1A
00
FE
09
ED
3E
F2
1B
FD
1F
0E
F9
05
F3
FA
09
13
BB
05
F9
1D
09
0C
FD
FA
F7
14
F4
EC
06
00
F7
0F
F8
33
0B
F3
DA
EB
02
E4
01
1B
FE
F2
ED
ED
F4
E1
11
FD
F3
FC
15
04
0A
FA
F3
EE
F8
FA
06
C8
0F
08
0A
15
FF
07
F9
05
F0
45
0A
F7
0E
F6
F4
1C
0C
F6
EB
E4
EE
F0
EA
EB
03
07
05
E7
12
04
05
0D
EE
FF
09
01
FC
FA
DD
F9
09
EC
E7
10
E4
17
0C
ED
0E
F2
F6
FE
F8
07
21
F1
07
E9
E0
1F
FB
DB
FA
0D
03
F7
00
12
F4
16
0B
EF
FF
07
19
F2
0F
FC
F9
FF
FC
F4
17
EF
11
D9
09
FF
1F
07
FF
03
FC
0A
F4
DB
00
18
F4
02
D1
F1
01
0D
01
15
0B
18
00
08
FF
06
F9
EF
EA
F1
01
EE
F8
E2
F8
02
11
ED
07
07
E9
F2
F1
06
F5
E5
00
09
FC
F0
FB
E5
05
04
02
08
04
17
F8
EF
FC
0B
F2
F2
0C
E0
17
08
FD
0E
EE
0E
15
06
11
04
00
08
FE
F1
04
05
06
FF
F3
E8
03
EE
11
18
F1
12
FE
F3
09
FD
0A
0D
FF
0A
E6
02
01
04
F3
12
F8
ED
1C
F5
03
FC
EE
DF
17
0A
EC
F7
FD
0E
00
00
F7
12
25
32
14
20
F3
F3
FD
EB
F0
2A
DE
03
DC
09
06
D7
01
E3
FC
00
05
EF
1A
0D
0E
0E
16
1E
F7
FB
F8
12
F1
01
E1
06
06
18
FF
F2
F9
F5
05
04
03
03
02
F5
02
0D
01
F2
EE
EB
CC
F2
E7
03
F7
FF
14
15
EC
E9
05
FA
E1
F8
10
2E
18
E5
F5
FD
EE
1D
18
08
1A
FB
0C
FC
1B
06
E8
16
08
0D
EC
2A
E7
E2
26
21
3E
EC
16
08
06
00
00
FA
FB
F7
0F
D7
F6
DA
00
0A
05
0E
00
E6
FF
00
CE
0C
E2
FD
F1
F7
06
0F
E5
E3
EE
F1
18
D3
FD
08
FE
FA
FC
F4
05
F2
FD
F2
FC
16
10
06
0C
CB
F7
11
0E
EE
FB
1B
00
0A
DF
F0
08
F7
FB
F3
ED
15
D2
D9
0E
19
FE
FA
F0
F2
00
07
F5
00
11
03
06
F6
FD
0C
03
0F
16
D5
08
02
D7
02
F6
F7
DF
F1
29
F4
FF
F7
24
E7
FB
FC
0A
F4
FD
EB
32
08
F5
FD
F4
02
0C
04
02
04
FD
04
01
D9
ED
DD
1E
E4
1A
03
0D
EC
F4
F8
DC
EB
FF
F5
D0
DC
F9
0C
FD
00
F3
01
17
06
F5
F6
F3
E9
F4
F3
F4
F7
0A
04
0F
05
FE
02
F4
F2
14
07
11
E9
1A
0C
02
EE
28
F0
F0
EF
EF
1A
F9
EF
E5
02
F8
0A
0E
11
FC
09
FA
ED
FC
02
FA
05
F2
EA
FF
F9
01
0B
00
0F
09
02
FB
09
0A
17
07
F8
0D
DB
05
FA
FF
E5
E6
10
0A
05
09
00
01
02
07
FB
04
F7
F8
ED
E8
F1
10
0D
FA
04
FE
15
0E
07
F6
FA
FA
09
0F
12
E8
FF
F5
ED
FA
F6
25
17
17
E9
F7
F7
0E
0A
E9
FD
B7
12
F8
F1
D8
17
FB
E6
03
EF
EE
E8
09
FB
05
E6
EC
10
29
FB
2C
FD
F9
FE
0A
FC
04
01
00
11
07
F3
0B
F4
01
0C
ED
1A
EA
D9
31
FB
06
17
01
E7
35
03
DD
FB
FB
1B
F5
E6
ED
17
FA
F9
FB
0F
F8
EB
1B
08
09
F2
0C
04
04
17
F7
FE
1C
09
F9
F9
0E
F9
08
EF
05
0E
D9
FA
F2
FE
02
EC
03
07
12
05
08
1A
EC
BB
FB
FB
EF
FA
12
1B
0C
04
21
FB
1A
FC
FB
F3
CC
03
F6
F9
01
F3
F5
F9
1D
E6
07
DF
D8
FA
F9
27
00
10
F7
E2
08
04
2D
21
F4
E4
F8
FB
F2
FE
17
E5
05
04
F2
DB
FA
01
09
03
F3
0C
F4
0E
0C
F1
E6
21
FA
E3
16
FA
EF
F3
EE
DC
1E
F0
C2
EF
FB
15
F3
D6
A5
EE
0C
F5
EB
E8
02
08
0D
09
F8
F0
FC
16
EF
13
CE
E2
03
CF
07
04
12
10
03
F1
EE
1A
02
06
E5
1D
02
03
FF
1C
12
1D
05
FE
07
05
FA
04
FC
06
0B
EE
F9
EE
18
0D
EA
EE
FB
F9
FE
E7
00
06
E6
03
04
E9
09
1A
02
F4
F2
08
12
E9
FA
E3
ED
D7
86
F9
EE
F2
F8
F1
11
0D
F7
08
C3
F0
0C
EE
11
E8
FE
00
19
F6
F1
07
05
EF
16
FD
E6
0A
03
FD
0F
01
14
0E
03
1D
E5
FD
FB
03
03
E3
E6
1C
FA
FF
01
EB
07
1A
01
10
E0
08
F6
FC
16
05
0B
08
F1
11
FF
05
FC
07
F7
0E
E5
08
E4
11
0A
FC
F9
FC
07
02
0D
00
EF
F2
FB
28
00
07
EF
EE
04
3E
F2
F8
04
0A
11
0E
1C
10
14
0F
0F
06
EF
04
19
F7
10
FE
F5
FC
F8
05
FD
FF
FC
07
12
FF
0C
11
F4
FA
F5
03
07
04
0D
FA
41
FA
02
F9
02
09
D5
F7
F7
05
FC
01
F3
F3
07
E0
0E
15
03
FF
02
02
E2
0B
25
05
ED
06
12
08
00
11
08
18
18
20
D6
FB
0C
F9
ED
0B
0E
FE
F5
16
25
E5
10
E0
F2
3B
81
25
05
EC
EF
EF
01
1C
F1
0C
03
0F
00
0F
D4
FD
ED
FC
D4
06
04
0C
F2
10
FB
04
F3
CC
11
0F
FB
FF
07
FD
F8
03
21
ED
EF
16
16
FE
F4
10
F1
0E
E7
09
1A
1A
30
F9
DC
FA
15
F9
FA
E1
C1
E7
FD
03
F6
EA
FA
F1
FF
05
F2
F3
ED
0C
05
1E
CC
09
51
F6
10
03
09
0B
23
FF
FD
F0
15
10
05
05
F0
E5
01
22
0F
F5
FB
0D
F5
06
EE
FC
11
FC
14
F4
01
10
FD
F3
08
0D
EA
E6
10
11
17
FB
EC
1A
D5
E5
D7
20
05
0E
0C
C6
E3
03
ED
03
0A
EF
0B
E1
0C
F3
01
08
00
0A
FB
FF
E0
EA
FC
12
00
08
F0
06
09
09
F6
EA
00
FF
10
FF
0B
0D
FA
11
14
E8
FE
FA
EB
07
EA
05
07
15
EC
0F
09
F9
EF
DD
F9
15
0C
FB
FF
0A
FA
09
27
09
08
FA
F0
F8
0B
FA
FF
0B
EC
ED
07
E1
F7
30
29
F5
0F
F7
0B
06
BD
FA
FC
0C
D4
16
14
F8
E7
07
F1
15
0B
10
FD
F7
EA
FE
19
07
ED
FE
0C
04
F0
13
F2
FE
F6
D6
06
E8
F0
10
03
06
0F
09
E8
F1
06
01
0A
16
F8
1D
FF
F7
E7
03
0E
F3
FE
20
FC
EE
F3
F6
09
0A
F7
0D
02
0B
04
0C
ED
11
12
FA
FD
0B
E7
FE
0A
0D
07
D5
02
EE
02
09
05
E4
F5
FB
0E
F5
FD
1F
E4
0D
13
F0
09
E8
DD
EE
08
F6
ED
0C
F9
F3
F8
15
EE
04
FC
07
1D
0D
FA
0E
08
00
04
F4
EA
1C
20
0F
12
04
FA
FA
0E
0B
13
12
0A
F0
EB
F5
F3
02
FD
1C
FA
09
FD
F5
04
FC
04
F1
01
07
FE
F4
F7
FB
14
E2
FE
0F
E9
2B
0E
FA
00
E0
E2
E8
10
F1
25
05
FE
06
F4
04
05
0E
04
01
EF
F9
E9
FA
FC
00
F8
09
00
05
F2
EC
F7
ED
E7
ED
F0
EF
05
05
F1
F3
FE
0B
01
DB
F1
FA
F2
05
FC
F6
FB
0C
14
18
F6
0D
E6
01
F7
F8
DF
1B
08
F1
ED
22
01
F2
0D
12
15
10
02
C8
E7
FC
F1
03
EE
F9
C8
F6
0E
E9
F8
08
08
DC
E9
0C
D0
E8
D9
F8
0F
F8
FA
0E
44
0A
F7
08
B7
0B
08
F8
FE
C4
FB
EA
0E
F5
0A
F0
F9
01
1A
01
DE
FF
02
FA
13
E8
0C
ED
07
DD
F8
E1
0C
16
0C
EF
FE
ED
04
E9
26
03
0B
0B
FD
E5
83
13
E4
12
08
1E
02
FB
06
07
03
07
F3
F0
00
09
06
E3
0E
E9
0A
FF
09
E6
05
0E
01
F4
0F
FE
EF
F7
F0
03
07
D2
EF
19
16
07
02
FE
FD
05
FD
FC
E6
F9
0C
01
CD
E9
F7
FF
F5
04
0A
03
EC
F6
FA
FC
F5
0F
E8
F0
0F
10
0C
F2
E3
FD
EA
F9
F0
05
EE
0E
02
FB
F9
FC
E4
06
05
FA
34
F3
F9
07
17
11
FF
FD
FD
E7
F5
D3
EC
18
05
0A
E9
04
09
EE
00
0E
F6
E9
05
0A
05
0D
08
EC
0D
0B
EE
F3
D0
08
FB
10
01
01
F3
0F
04
F3
F7
FA
14
FD
09
06
FB
D9
FD
FD
FD
13
E5
09
F4
EC
06
FA
F4
EE
1B
19
FA
F4
05
B1
F5
03
EF
F1
08
12
00
0D
09
21
05
FA
1D
F9
09
06
E6
01
F3
F5
0E
F6
1E
FC
14
10
F3
E9
E9
F8
15
05
D4
FF
F7
F2
EB
F0
FE
04
F1
0D
FA
11
03
FE
0C
32
0F
11
08
FA
F9
04
23
1C
F8
F9
D6
F7
04
13
F9
F6
0E
E5
01
13
0A
F7
0F
EC
0A
15
FB
F6
07
F4
ED
14
F0
F2
D4
16
FD
EB
05
F8
0D
06
17
EB
20
09
F7
18
08
18
06
CC
FD
05
E0
0D
F4
E4
17
FE
FC
F3
06
FC
F4
F0
F1
FF
EB
0C
06
14
0A
08
FF
04
FF
00
F3
F7
0E
08
E7
E9
FB
FF
FA
13
C8
CF
FD
02
18
F9
15
FF
E8
0C
13
12
F5
FD
06
EA
0A
FB
07
15
05
C4
10
F4
09
FB
F4
F9
F6
E8
03
F2
05
07
F3
DB
2D
DC
E5
21
15
F4
0B
E6
05
F1
DF
0C
FF
07
1E
E8
04
22
FF
F4
DC
09
02
00
06
0B
EF
C8
0D
EC
C8
0A
FF
F0
02
0B
F0
E5
FE
0B
EC
D1
ED
FA
18
FE
11
ED
1B
FE
07
EE
0C
E0
F8
EA
D2
0E
18
D5
06
13
0D
1E
13
12
F4
0A
02
EE
02
D6
D4
1D
0A
EE
F2
07
F5
06
FA
FB
F9
02
FC
05
15
E0
FC
06
01
E3
E8
E4
10
F9
ED
F9
F0
0D
FA
F0
ED
DB
CC
0B
F1
11
E5
FC
FA
EE
15
E4
17
F4
F7
F8
01
06
21
FF
1B
FF
FB
E8
01
12
0F
F0
10
30
C8
F9
EC
13
FF
0B
FE
FA
0E
07
B4
FD
13
09
07
F9
FA
E5
F6
EF
FF
F2
DA
14
F2
0A
1D
06
F2
F9
05
FD
F3
1B
DE
E1
0F
03
0A
E4
E2
0B
FE
DC
1A
ED
ED
ED
FC
12
0C
F5
26
ED
D9
FC
F9
05
05
14
DF
DB
FA
F6
07
FD
EC
11
23
25
F9
F3
0F
FB
11
14
01
FF
03
EC
FF
09
F1
CD
03
0B
10
F9
E8
CD
FD
05
10
ED
F4
11
0E
F0
FC
04
EA
EE
15
ED
15
02
F3
05
F2
15
EC
F5
15
FA
03
F4
1E
F4
12
16
ED
12
0F
0B
F2
F7
D0
D0
E7
08
FB
EF
09
F7
EE
F8
F6
F8
07
D9
EA
1B
F2
FD
0D
EC
0B
FB
0B
F1
1A
F0
05
0D
1E
FF
08
04
E6
EC
0B
14
F5
F2
08
F1
FC
06
F4
FE
03
CD
01
F3
19
F3
EB
F6
0F
BE
FA
12
DC
F4
06
FC
11
D6
F6
10
08
0E
00
13
FD
F4
11
FD
FA
F0
F5
F5
06
E9
05
F7
0B
23
0F
05
E9
07
F9
03
ED
F1
C3
00
F9
FF
F9
F1
02
FF
FA
03
EB
FA
E0
04
EA
DF
04
09
F8
13
0F
FF
16
EE
14
05
FE
05
DF
F1
E3
F5
06
F4
DE
FD
00
F8
DC
FA
07
F1
05
F6
FD
04
F2
F6
F8
FC
38
0B
12
14
03
E9
E6
E2
FC
EA
0A
14
10
02
F7
07
EA
FA
F8
F1
F2
EC
F0
F2
E6
D9
12
18
F2
01
F8
13
F9
11
FC
FA
17
F9
08
DD
14
0D
C4
F4
1E
03
15
FD
F5
17
0F
E8
03
FD
FA
EB
FF
EB
26
00
00
F4
FD
07
0F
EE
04
FA
FC
10
16
07
FA
09
00
FF
0A
F9
22
AC
03
01
0D
F8
FF
F0
EE
F4
E3
05
FF
1B
DF
0A
E4
FA
08
FC
0B
E0
FD
F8
0A
08
16
EB
1E
05
F2
FF
0A
03
E2
24
F1
03
01
F7
09
11
F1
FA
0D
07
E1
E8
03
02
DF
FD
0C
07
04
04
F4
0E
F1
06
0B
00
FD
F3
EE
FF
1A
FC
FC
F2
1C
ED
FC
ED
DE
C0
12
19
15
0B
0B
F3
1C
F9
15
E9
C6
D8
0D
00
0A
10
F3
01
14
ED
F6
0C
03
FD
EF
F9
03
07
04
24
06
03
E7
02
10
14
F0
0B
F4
1A
FE
05
F2
16
06
05
10
E4
F8
0D
12
18
32
05
0D
F0
EC
0B
EB
F8
F9
FB
06
F8
FD
DB
03
F5
11
FB
F5
04
0E
06
24
00
FC
00
F7
03
1D
0E
0A
F9
14
F7
F2
EB
D4
11
28
D8
DF
FA
15
0F
00
F6
C9
FA
05
FA
05
EF
EF
07
01
00
FB
1D
08
F1
FD
FD
FF
01
06
F1
BF
EC
F6
16
F6
06
0C
FB
DD
FE
EF
F3
F3
E7
08
FB
F6
15
E5
F1
10
09
12
04
F5
B8
CA
04
F3
E9
F6
F2
DC
FD
E5
FA
02
04
0D
16
F8
F8
D4
CD
F9
FF
FE
F4
E4
04
01
FC
EA
CA
FF
0D
ED
FF
FA
16
F1
F3
E5
1A
03
FD
E6
11
0D
F3
12
00
07
03
D1
A5
FB
DF
0D
0E
0A
E4
04
EE
F7
FE
E8
00
06
F5
1A
13
14
00
DC
12
E4
04
1A
0A
EB
FE
D4
F7
FD
E9
FE
08
1E
F1
08
FC
ED
EC
03
F6
DD
FF
16
04
E0
01
FF
11
FB
FB
0F
F7
14
FA
F8
ED
0A
0E
03
08
EB
B1
10
14
00
F2
E4
FB
02
20
01
12
F2
F8
0C
F0
08
E5
D4
F7
F7
F1
1D
02
FA
E4
F4
18
FB
14
FF
1A
EB
17
FC
EB
0B
08
00
05
0A
D9
03
0A
E4
1A
F7
01
F7
E0
FB
F5
F1
03
FF
27
00
13
FE
14
07
F7
EB
FF
0F
07
F2
FC
11
E9
09
F3
F9
17
F5
04
21
FE
1B
05
07
F7
24
07
F5
F6
F3
11
ED
FC
F8
0C
02
C6
36
03
13
09
0A
F7
0E
F2
08
01
05
02
FA
F8
0B
10
F9
EC
E7
0B
FB
F2
15
FD
19
08
1B
F6
0B
05
0C
03
16
FF
E8
1A
11
21
F5
FC
EA
21
F9
11
10
F9
11
05
F5
17
FB
23
0B
04
FA
11
1C
06
04
0A
00
0B
FA
0A
FF
F2
FE
08
25
F9
F4
F0
F3
F7
0F
E2
07
0E
0F
18
03
FD
FC
22
04
FF
03
0B
ED
20
0B
0D
15
F6
07
FA
FF
F5
F5
04
08
2A
E0
F9
FC
F2
0F
EF
12
F7
E7
F4
F5
07
05
12
01
F2
F0
10
04
12
FA
E5
F3
13
1F
1E
DB
0A
FF
1A
FC
06
1C
10
F9
F4
28
24
11
E3
04
06
0E
0A
09
0E
F8
EE
E9
11
E7
0B
FD
03
04
15
09
F3
08
E9
F2
ED
EE
D1
F8
0E
F4
F9
FB
E6
20
E3
0E
EC
F3
06
04
F2
28
10
03
FD
13
E5
E2
DB
EF
FC
04
FC
F9
0F
FF
0F
BA
E6
E9
EE
08
F0
07
F8
FB
07
FD
DB
F1
01
FC
1D
08
0D
14
E5
1D
FC
07
F6
ED
FC
04
05
D0
0E
10
F9
01
FA
FA
0C
FA
FD
0A
E7
FA
FD
F0
16
EB
04
04
13
D5
F1
03
FE
F5
0A
17
00
01
17
0A
F1
D0
FD
EB
F9
F7
F9
C1
12
08
0E
21
DE
0E
10
0D
EB
15
E8
EA
14
07
02
1C
1B
FB
0F
E8
FE
03
10
05
13
FC
0F
0A
38
0C
07
04
E1
FC
D8
F2
14
FD
13
0D
F1
F7
E4
08
EB
2B
F3
F6
0B
15
04
F3
E3
04
FC
09
18
F3
12
FB
04
DD
25
0B
09
F8
F4
11
03
FC
0D
E9
1A
04
09
11
1B
02
F6
04
E7
ED
17
F5
0D
DA
09
07
0A
02
14
F6
F9
01
00
0A
11
01
FB
15
19
07
DB
E6
F7
FE
FB
FE
06
F2
08
F3
0E
FA
03
16
E3
E5
FB
0C
D7
0A
06
11
EF
FC
F5
ED
F4
07
08
0C
21
EB
E5
F5
D6
F2
F8
FF
FB
09
F7
1E
11
0A
08
07
07
09
02
21
F6
F7
0A
0D
4A
EE
FF
F9
08
0C
EC
F1
14
1A
2B
FB
01
0C
02
FF
31
EB
FD
17
1F
08
E1
04
FA
07
EF
05
03
01
F8
01
EF
12
14
EA
FA
06
0F
F9
FA
04
0B
F4
F9
F4
F8
F1
20
FB
F4
F5
1D
2E
14
07
04
EE
F1
F7
F7
ED
F8
04
FA
EC
2F
17
2D
0C
0C
0B
06
0C
DF
E6
0E
F8
FD
00
F2
F8
E4
F2
13
05
08
08
10
08
F4
F7
D3
21
08
16
0D
10
09
0A
03
03
ED
DD
09
06
13
09
F7
FB
F1
F8
F0
0B
0D
F4
15
21
08
E9
0A
F5
F9
0A
10
F0
17
07
EE
F0
F3
F6
F7
1A
DA
EC
18
F7
02
29
21
FD
F5
ED
ED
20
06
14
EF
FA
E3
08
19
E0
04
FD
10
FC
09
E7
0C
14
EC
EE
18
FC
F6
0A
E2
00
09
14
09
F7
03
F1
03
FB
0D
04
11
E9
CD
10
FB
0B
03
F4
F4
28
04
F0
05
0E
D9
F7
26
E8
09
ED
FA
03
08
F3
0C
E7
FF
FD
03
F3
F8
F2
0D
08
F6
18
F2
EF
E6
DE
EF
C8
FF
F4
EF
0D
04
43
0B
F9
10
D4
07
FE
06
03
E6
11
08
E8
09
01
00
E8
07
F3
FC
FE
0C
01
08
02
04
FD
13
E7
DD
04
DD
FC
0A
1B
F6
0B
F9
F5
0C
FE
E1
F7
00
07
D7
1C
15
E8
EB
13
FC
E4
F4
09
ED
F9
05
0A
02
FD
0A
F3
D9
03
E2
02
F6
FE
FD
05
FC
1A
D3
FA
03
08
1E
09
F9
07
0E
1E
C6
FD
F9
1E
F3
02
03
FA
10
1B
E3
05
DB
1A
06
E8
09
F1
13
F2
FF
16
03
FF
00
F8
F1
03
FD
13
F1
04
0A
04
0C
FA
18
DB
17
D2
F4
FB
04
FE
02
FF
F1
05
F2
E4
11
05
F1
0F
F5
1A
05
ED
0D
08
08
1C
FB
E7
0C
00
F9
F6
F2
13
E3
03
F4
DC
F1
05
F4
14
08
F5
FF
F1
FB
21
DD
E7
0E
0C
EA
F4
DC
05
EE
F2
E6
07
FE
04
11
13
07
FC
F1
02
F4
F6
11
EB
03
08
F8
06
06
FE
03
FD
F1
18
CC
F9
0D
E3
F1
F3
F1
01
09
FE
F3
02
F3
1C
F4
FE
EC
E3
EC
EF
F8
F4
1B
FD
E8
FB
03
FF
E7
00
FF
05
02
F7
FC
F3
FC
16
F2
06
04
F6
11
F8
E8
DF
FE
0A
DE
0B
0A
0F
FD
FE
0F
D3
0A
F5
F9
1C
EE
09
0D
05
EB
03
E7
F4
F4
05
07
12
F5
0F
E3
14
05
0C
21
1D
F1
FA
E4
F0
B0
EB
E2
1C
01
F2
0C
1A
0D
20
1E
34
FB
F6
ED
11
01
2E
FE
0C
ED
EF
08
F4
ED
E2
E0
FC
FA
09
E4
18
08
DA
0F
F6
04
04
02
10
F3
04
FB
13
DE
02
F1
00
11
02
03
18
E3
A1
D9
F7
F5
21
EC
F9
0B
DC
DA
F7
09
EA
DF
FE
CB
04
01
EA
17
EB
08
D4
0D
21
FD
01
E0
FB
0C
18
07
0C
10
F2
0F
D7
F7
E0
0C
EE
FD
EA
17
EF
01
B6
EF
04
F2
0D
E8
F4
09
0A
11
F3
DF
09
FB
FF
03
1D
EC
08
0F
F6
FD
ED
0C
19
E7
00
EB
16
F8
02
FA
03
07
DA
FC
EF
EB
D0
00
F5
01
FB
08
F5
03
D9
F0
0D
23
F7
E0
09
F2
D7
FD
12
ED
FA
E8
07
FB
09
EC
E9
DC
FE
FD
02
EA
02
F5
F1
E9
01
03
11
2D
FA
0E
F7
04
1E
1A
F1
04
DF
F1
13
EB
FA
F1
06
10
09
F4
EB
0D
02
0D
F1
0B
06
03
D7
0B
0B
0A
F4
EF
20
0F
08
F3
00
19
F5
FB
E2
E3
E6
F1
28
05
18
F7
0F
0E
00
F7
0E
0A
C3
FF
11
03
FD
F9
0E
F9
F3
0B
04
1B
DB
E2
0A
00
13
0D
00
05
FC
13
0E
11
09
D2
18
FC
04
E6
FC
E9
F6
EB
22
0B
23
F4
FB
12
06
10
E2
F7
12
04
FA
15
F4
E2
E7
20
F8
07
FC
F6
E8
0A
E1
F0
E8
F4
F0
10
EA
FE
FF
08
EF
F3
FC
04
EC
E0
09
01
FB
E3
0F
D3
F2
F0
EF
05
EE
FA
F1
E9
EB
F9
FC
E4
F3
E3
02
EA
0D
FE
02
E6
E9
FD
09
04
01
0F
D7
0D
E7
FF
FA
E8
18
E4
19
FD
FE
0D
FA
03
FF
06
05
F1
F5
E7
0D
FA
F9
04
F1
CE
F6
EE
13
E0
18
F8
FF
DA
C5
FF
1B
FF
FF
06
FF
15
0F
ED
E5
F8
EC
09
F7
F9
04
0F
E0
F4
02
EE
DB
12
16
E1
05
03
07
0F
DC
05
14
F1
13
FF
02
F7
D4
FF
0B
09
FF
ED
CF
FB
BD
1E
EF
13
0A
04
13
EB
04
00
04
13
0A
F4
02
01
01
FC
0E
0E
DB
CA
10
FA
17
FB
0F
F5
FA
FD
FF
FB
FA
17
F5
1F
13
F2
F4
1F
02
0E
FD
09
1A
05
07
0E
E5
03
00
00
F6
FC
F9
0B
EB
FF
1D
EC
EF
04
11
13
04
F9
FE
EF
FD
FA
DA
DD
FB
F9
FD
FB
FF
DB
FA
F1
0B
10
F5
F7
E2
EF
D7
E8
0A
0D
0F
C6
07
13
F8
28
08
D2
F7
EB
00
08
09
E1
1E
E5
DC
00
04
12
0D
D4
D5
09
FA
DD
07
EA
FC
08
25
ED
00
F5
0C
0F
06
05
E8
00
17
FF
07
0F
09
EA
FC
05
F4
F1
07
09
06
2D
03
E2
F2
F7
FA
FB
01
FE
2B
02
F3
00
F4
0F
01
F1
FF
C9
18
CB
EE
1C
E6
08
F6
F4
09
0A
EA
FD
00
F0
CA
00
0D
EE
0A
F8
FA
E7
07
F7
D7
FF
FF
0B
F5
F7
F1
F3
24
EB
0D
16
07
F0
FC
06
F3
EA
F1
09
F0
08
FD
E7
0A
FE
09
EE
06
F2
FF
07
EC
F0
04
F4
2B
D9
02
0B
F7
08
FC
07
F9
04
10
D6
C8
F8
07
08
EF
FE
E1
0A
0F
06
0A
0B
FA
FC
E8
05
0B
F0
01
F0
09
ED
F6
DF
F9
C6
FC
F1
01
F8
02
F1
0C
09
01
FA
0B
FC
02
02
E3
E1
D0
13
0A
F8
EA
0A
0D
FD
10
E3
12
03
EE
E9
D6
EA
0F
F6
F3
07
08
02
1D
F9
E8
05
01
FB
29
0F
E6
F5
FC
F5
F8
FA
FB
F1
F1
C3
EC
F7
04
E6
01
07
D4
F7
09
EF
D0
DE
F7
14
06
ED
0D
D7
F1
EF
F5
F1
F0
F4
11
0C
12
02
F8
F9
14
01
0B
18
EA
C4
06
E6
0C
05
FB
DE
FC
08
11
F9
FB
14
F9
C1
03
E6
D4
F4
F1
F3
F3
EF
07
F1
D9
05
05
FF
FC
ED
F5
12
E6
EC
05
04
0A
ED
EE
D2
02
F4
0A
09
F9
FC
ED
1A
08
F2
EF
D6
D9
0F
F7
F3
03
FE
05
F0
FE
11
0B
16
04
CB
F9
F7
F8
FF
FA
F2
05
E0
1A
03
FC
FB
FE
EB
E7
F8
02
00
F8
07
ED
DD
E6
0A
1C
19
AC
FB
0A
F6
ED
09
F8
12
06
12
05
07
EC
FF
01
F0
0A
D5
00
F9
FA
EF
D7
01
06
14
EF
0A
06
0C
FF
0D
06
FF
EC
DD
F9
0E
F9
15
EB
04
F5
DC
FC
E4
EF
EB
FE
E4
F2
FC
A8
04
09
F7
F1
0C
E0
F3
D1
00
FF
05
04
02
ED
0F
FE
0F
EB
0D
FD
0C
0A
FE
FC
08
EE
EA
F2
06
FE
23
06
EC
FA
F4
1D
E2
0E
FD
09
00
09
15
E9
0E
FE
EA
EF
F4
F3
EA
03
F8
0F
0A
FD
08
13
F0
FA
02
FB
10
0E
E9
FF
F1
F8
08
0D
F2
E2
FA
D9
E0
1E
02
13
F4
FC
F7
17
ED
09
F5
17
DF
07
01
02
FB
EC
05
06
F2
01
E4
0C
1A
0F
10
F8
09
03
F2
13
FE
19
13
F7
04
FE
27
FD
0A
15
0A
FF
1A
1D
EA
23
FB
0E
FE
F8
0D
07
FA
F1
01
09
F8
FA
FC
E1
F0
04
10
F5
24
F6
ED
F8
17
0D
E0
00
0A
14
0F
01
08
05
FE
FB
08
00
FF
0A
0D
0C
EE
DD
0B
07
12
07
07
08
02
0B
FD
F2
15
05
F9
E0
FE
12
F7
F1
08
11
FF
EA
FB
1A
02
06
0F
21
F7
F6
06
0B
03
1A
FB
F8
F7
F9
28
D6
F4
F9
06
FE
F4
05
12
01
13
45
FE
F9
FA
05
12
F3
1B
16
14
F7
ED
EA
0B
10
07
31
04
00
F8
1A
0F
E7
E7
04
13
F6
E3
07
FF
03
0D
FA
FE
24
02
35
0D
FB
D7
06
40
25
F8
D4
0C
0F
E2
F5
19
FD
E0
FA
07
04
FF
D8
FE
22
EA
0C
F9
FA
0E
06
00
0A
FB
F7
E1
02
FF
F5
E5
FD
00
FB
F5
15
DC
10
03
11
16
0D
0E
FE
0B
C3
01
EE
19
F6
15
F0
FB
11
05
FB
EC
12
01
23
07
0B
0C
DA
F5
F2
EB
F5
15
0F
0E
FE
FD
0C
0E
2B
04
F0
E6
06
F3
50
04
09
0F
01
F1
EF
E8
F4
CF
EF
FF
10
02
F5
02
02
0A
E9
E9
EA
01
0B
01
F2
F0
F9
E9
FD
20
1D
F3
EC
03
EC
1B
D9
03
03
F2
FA
EE
E9
1F
EF
EF
98
F6
ED
12
F6
F9
ED
D6
EA
DC
FF
0B
FB
E8
F9
F1
DC
FC
0A
F3
02
0A
07
E6
02
08
17
16
FA
0A
FE
F2
F6
F1
F1
FB
D0
EC
FE
0B
F5
0A
08
E4
F2
FC
07
08
03
11
FD
FE
EB
F5
02
DD
0D
E9
F3
01
E2
F5
01
F7
00
EB
E3
F8
00
0C
F6
12
00
00
E5
0C
B8
FE
05
0C
04
0D
00
F7
F7
F3
EC
F8
00
18
F5
DF
FB
0C
F1
0B
02
F1
1A
18
FC
F0
0B
07
FB
FC
F0
09
FF
F6
F4
CA
FC
E0
17
F4
0D
0F
09
06
01
0C
0E
FE
03
FB
FB
3E
F8
FF
F1
05
0D
F4
12
0A
F4
03
04
EB
03
EE
F4
F1
AE
E2
13
1B
F9
EE
F1
18
FF
FC
13
04
0B
01
FE
E1
FF
F5
F9
0A
05
F8
FE
09
E2
04
10
E9
0A
F1
FB
FF
0D
09
07
F1
1B
07
EE
F2
FB
16
F1
FF
D4
04
06
F4
0F
FA
EA
04
0E
F2
06
D7
FD
E6
FD
E4
03
0C
0E
07
F6
F9
B8
12
FD
0D
01
D1
03
24
EB
0D
0A
0A
03
F6
09
04
02
01
0D
15
FB
06
04
1B
E4
07
F4
EF
DB
FC
05
E0
EF
04
15
00
DE
D5
DF
F5
08
1F
FC
24
F6
E7
B2
F5
12
08
E7
0C
EE
F4
1E
DF
F4
FA
0D
15
17
D2
C6
1B
CA
DD
FF
04
F5
21
FF
03
EA
F3
F6
02
F5
2D
04
0F
0B
FC
27
BB
06
F1
08
FE
08
13
FA
00
0E
EF
EA
04
FD
D5
E9
FF
06
EB
F2
EF
E2
F4
E4
FB
04
F0
F8
FC
15
0F
FB
07
F3
13
0A
02
E4
E5
A3
F9
F6
05
04
FD
36
F6
F6
0D
E3
F9
EB
02
03
E5
F9
F6
10
1B
F8
F7
EE
06
13
E6
ED
FC
02
02
FE
FA
0C
F9
1C
AE
F3
21
0E
EA
EE
14
0A
E4
EA
FF
DF
13
F2
F3
FD
E9
12
0A
D4
17
E9
0F
F9
ED
EE
05
03
07
15
14
FA
FF
13
10
25
F3
05
02
0A
F3
03
03
FA
1F
0B
F7
06
08
06
E6
0A
F2
03
EE
E6
00
20
03
11
18
06
02
E4
1B
E8
D7
08
EA
FF
F9
DE
DD
0A
E3
D9
10
E0
FE
0F
E9
20
05
02
07
07
E6
00
04
E7
07
1B
D4
FD
F0
FC
17
0C
07
AE
F8
FD
03
F8
1D
EC
0D
03
13
01
14
E6
EF
FF
D1
C3
02
0C
09
07
FF
01
E9
05
FA
EC
F2
C8
D5
0A
F6
11
0C
EC
05
0A
EE
B6
07
E6
0B
07
FC
FE
1B
F8
FB
0D
11
FF
CF
03
F9
FB
0D
06
ED
01
ED
05
F6
F5
03
F0
EA
EF
EE
0F
0A
00
09
E4
12
04
F8
FF
FA
06
FA
08
FC
12
F6
00
0D
0D
07
E1
E3
FA
FC
DF
F3
0E
E7
ED
FB
0F
02
F0
1E
00
E5
EF
04
06
03
F2
0D
F9
FD
02
03
F8
16
F1
EF
FA
F9
D2
FD
F6
F9
02
0E
04
F5
C0
00
06
F4
CD
DA
EC
EB
FB
F3
F7
E6
08
12
09
E6
D4
F9
1B
EE
D5
FA
01
F6
F8
F7
0F
F5
EA
29
E8
E2
08
EF
0D
FF
04
EC
F1
05
0A
FF
0C
19
FE
DD
FB
00
0A
F2
F0
F7
E7
EA
0F
D9
02
06
06
E6
DF
F3
2A
E2
F2
E5
0B
F7
08
1B
00
FE
F5
F5
0B
0A
09
27
01
FB
0A
02
1F
03
F8
05
06
05
FF
FE
E5
FA
DE
E5
02
06
ED
08
F9
F8
FF
08
08
D0
11
FD
D1
08
F5
09
E9
E1
04
F3
07
FE
20
26
15
1B
13
21
F3
04
F8
EB
F7
02
E9
18
EF
0B
0A
D9
F0
FC
E5
D6
F2
15
F5
F7
F7
CD
C2
FF
FF
EC
FA
F7
F3
E4
F0
E4
17
15
00
12
F4
15
F1
E3
F8
FF
F6
11
11
FA
E4
01
FB
03
F4
FF
1C
FA
E5
11
F4
FF
E9
FA
F0
D6
06
0E
F9
FF
E2
F6
0C
D0
FC
1A
0D
EE
F9
F8
03
F8
F1
1B
0D
0A
00
E9
00
EA
FC
09
00
F3
F3
F3
E0
00
12
F2
09
00
EE
00
0C
C9
EB
DA
EF
F9
00
E7
01
05
EA
0F
D9
FB
01
EF
D4
E9
0D
ED
F5
EB
0F
0E
0F
EF
DB
15
2F
11
F9
18
FB
0A
37
0C
01
10
15
0B
F5
11
E5
12
FC
06
E6
02
05
04
F0
F1
DD
FA
D3
00
05
EC
0B
EE
F4
E9
DE
10
01
EB
F7
07
02
DF
EA
F0
13
0C
F7
F9
FE
1F
04
E8
EF
EF
EE
F2
1C
04
F5
D3
FF
07
F6
0A
FA
00
EB
13
32
C5
FD
0D
F6
FC
12
0B
FE
FD
F3
D6
02
01
0A
E5
08
F3
0B
15
D9
DA
FD
06
E8
FA
F4
12
0F
F3
F3
E5
11
F1
FC
E3
03
EF
EC
D7
08
D6
E2
0C
F9
FC
03
09
01
DF
E5
0D
FB
DC
F6
03
01
03
DC
07
2F
0A
0B
FD
F2
05
E6
05
01
06
01
EA
EB
E4
F9
EC
0B
06
F1
05
00
F3
0B
14
F4
ED
02
09
F6
0B
09
EE
00
FB
24
AF
14
DC
F2
F7
DF
F7
E8
FE
06
F1
DF
E8
F7
20
00
D8
25
FF
0C
10
00
ED
FD
0B
F6
0B
FF
06
FF
F2
01
FA
12
01
01
E6
0D
04
F6
E5
FD
02
0C
06
01
F5
F0
DE
04
0F
F7
E0
EB
E5
F6
02
EF
10
F0
F4
EA
08
01
F3
06
EA
DF
04
F5
E9
03
03
F6
E3
19
09
DF
FA
06
01
F3
0A
00
F4
FF
F8
1C
DD
07
EC
FF
1A
D9
F6
11
F4
0C
0E
F2
F8
04
F3
D4
ED
09
05
F6
DB
EF
F7
FA
09
FA
05
EF
16
E5
E0
EE
00
05
19
05
FE
14
D2
C7
FF
F0
EF
07
15
FC
E2
13
1B
25
05
0A
0C
E4
E1
09
2D
09
09
F2
10
EC
F7
E5
0E
FD
F1
F4
FF
FF
E7
F1
08
F8
F2
02
F7
01
DE
0B
0C
05
F1
EF
0E
09
01
FB
14
02
F5
0C
FD
0A
0D
EC
0A
17
F1
FB
1B
DF
F6
D5
F9
0E
FE
E2
06
01
06
EB
E8
EF
FA
ED
08
ED
06
F9
F4
C1
F7
00
10
06
EC
03
07
F9
FB
0F
EB
DE
03
F6
EB
05
F8
1A
0D
FD
02
C4
F5
F7
E6
0A
EE
00
E0
E4
F3
07
DA
26
07
16
01
08
01
0D
F1
0D
03
11
08
1D
2E
0C
08
0A
03
09
E9
F0
02
EB
E4
FD
FC
FA
EE
06
F7
F9
FE
18
0F
18
1B
F4
EB
E2
FA
FD
17
0F
F1
DE
0B
0C
D4
E7
17
0F
02
F1
F4
03
FB
F6
EE
05
F4
F0
EA
03
F6
04
DA
23
36
07
0A
03
0B
FB
1F
F9
16
F8
F3
FA
DD
12
E4
00
ED
07
EF
FA
04
08
09
E0
02
05
FB
01
12
EF
FF
EB
0A
F6
EF
0F
F2
F3
D8
28
12
04
06
FD
01
F7
12
EE
07
18
F3
15
14
05
F5
EF
1B
1D
EE
0A
EE
1E
FE
F2
FC
07
FC
09
E9
10
06
01
F8
07
1B
0D
04
0D
ED
F8
0A
04
F5
F6
01
CC
FC
06
0B
03
0D
2F
01
13
E8
0D
FA
13
04
E4
0D
03
03
FD
17
0E
FF
19
00
01
16
EF
13
FD
D4
05
FE
F4
04
F6
FD
F1
18
09
0D
0D
EB
D2
F0
FB
0A
FF
03
01
00
EF
0F
F0
F1
F9
0C
F8
07
00
19
F3
F3
FC
E2
DD
02
1D
FE
00
15
1E
08
ED
09
F3
0C
0A
E3
E4
16
DC
BB
FC
10
04
19
05
F7
F5
04
0A
F2
D0
FB
0D
F0
0F
F0
0F
1A
F8
09
FD
0F
EE
FE
CF
0F
EB
07
FC
0B
E6
1A
FC
1B
F7
12
F3
F1
F9
0A
FA
0B
0D
FF
FC
0B
0C
0B
04
1E
0A
1D
C7
F1
F7
F0
00
26
F3
ED
08
F8
02
F8
F9
0D
F7
F4
06
FD
F1
BE
06
0A
F4
08
04
15
F9
E8
00
06
F8
BE
EE
F3
14
F0
16
FB
FD
0C
E0
FB
F5
0F
F6
0B
FF
02
F1
03
1A
F9
14
F0
11
FC
E8
F6
12
FF
EA
01
F7
FE
04
14
FC
E8
08
FB
0C
16
E5
11
E7
DB
36
08
EA
F7
05
F6
DA
ED
11
0B
1E
E5
F2
03
EE
C7
E3
FB
F6
FF
F5
0A
0A
1F
F4
04
D0
0D
0F
FD
13
04
0A
06
E9
0E
0D
0F
FE
EE
0A
D4
F8
E6
02
1A
D0
F9
F9
F4
00
11
C0
FD
F6
0A
0B
FB
E9
EE
09
11
FB
EE
04
1E
06
F5
0F
10
FA
D7
F6
0E
FE
0C
05
F8
0E
13
F4
FE
0A
1D
05
08
12
03
E8
EB
FC
07
DC
08
F0
09
05
1F
F5
FE
E8
D2
F9
E1
F4
FA
F7
EF
F7
F0
F4
F6
00
FB
01
05
1D
09
15
F9
03
18
16
D3
E0
EA
CE
D9
16
F3
06
F8
04
F4
BB
16
0A
FD
27
FF
EB
EE
06
E9
06
E0
F6
FB
05
15
2A
08
16
F8
14
FF
F7
F9
FA
DD
FF
00
08
E8
02
F2
F0
E4
06
F1
F1
0D
23
E7
01
03
EE
0B
F1
FB
BA
07
15
0C
02
1A
EA
0D
E4
F4
05
0A
07
14
06
16
10
01
1E
0D
0B
EA
E0
11
01
FB
14
1C
EB
0E
F3
0F
FB
06
F0
F2
15
FA
0B
0A
ED
06
F0
0F
06
17
0F
0B
FC
F9
F9
1A
FD
F8
19
06
01
DB
EC
FB
F9
07
0F
F6
F5
19
0B
16
04
03
11
E3
E1
FA
0A
EC
33
01
02
F9
16
0C
D2
16
FF
F9
00
1B
EF
22
F2
20
04
F0
FF
0B
12
07
DF
19
12
02
DE
EF
0B
F9
06
EF
0A
F7
E4
11
F6
DE
F8
13
01
04
D8
FD
19
E7
FF
FE
13
FE
05
EF
C9
F6
E5
F8
F3
F8
05
F2
0D
0E
04
01
F9
E7
FA
EF
0E
10
DF
19
FA
FB
04
01
00
09
FE
12
0A
FD
F7
E4
F1
F3
F5
E0
17
B9
F0
05
11
FD
01
14
C2
EB
20
19
FA
E9
13
0D
16
FC
FC
E8
E8
07
F1
EA
F9
01
07
0A
0A
F7
0E
F7
FE
03
00
DE
0C
00
13
F4
CE
EF
11
21
0D
04
07
ED
06
09
D8
18
08
1B
19
EF
F7
FC
EE
12
FD
F0
02
08
E2
0C
EF
01
FF
F1
EC
F1
F4
05
06
FC
16
0D
F1
0B
F4
03
07
F0
F8
0A
BC
03
00
0A
0A
EE
D5
00
ED
EE
FC
E8
0C
E7
11
F2
FB
0B
F5
FF
09
F9
0E
F2
00
F7
F6
0E
F0
EC
02
FD
EE
00
05
FB
EC
F5
FA
00
F9
F3
F2
2B
00
07
14
12
14
F5
FF
0E
FA
E0
FA
06
E6
FC
09
08
F0
00
0D
10
F9
EE
05
08
0C
F6
FB
07
F9
EA
00
F0
E1
E7
DD
E5
09
D1
CA
0B
F1
F3
F2
F8
11
E9
0B
10
17
EC
00
0B
0E
13
FA
E4
F4
F1
04
03
23
FF
E3
F8
D6
03
0C
06
E8
FA
FB
FA
18
F8
ED
E3
FE
F3
E5
EC
DD
F7
24
F3
0F
E9
F0
EE
ED
D9
0E
0A
E3
06
F7
20
F2
FD
FB
19
07
02
03
14
06
FB
DE
E6
F3
D2
08
03
EF
02
04
0F
F4
11
FE
F3
F2
05
04
F2
F6
20
E0
09
F3
08
ED
0C
20
02
CB
F5
E4
17
E7
ED
FF
04
F6
02
FA
F5
E7
D6
ED
11
03
04
FC
1B
FA
F5
F6
18
F9
02
02
DE
00
11
E5
10
C5
FE
FC
F0
04
0B
F8
0B
FD
F4
2D
FB
F5
03
FA
E1
08
F1
F2
0A
09
05
13
2A
E5
F3
28
FE
01
FC
10
09
F3
11
D7
D0
0F
1E
F4
DD
0B
EB
0A
DB
E9
F5
D3
1A
0F
E1
FB
16
B4
FC
EC
07
0E
01
F3
E9
06
EC
0A
F5
FA
21
0B
13
09
04
FB
E5
03
05
06
F6
04
FF
04
CF
F7
0A
FF
ED
F6
02
F4
FB
14
F1
06
F7
12
09
02
F2
1D
05
10
EF
FB
E7
F2
05
EF
13
FA
E3
01
0C
ED
FF
EE
FB
F8
01
F7
15
FB
F5
F8
FC
EF
11
13
DD
12
E7
F1
07
DE
00
F7
F6
CE
EF
11
0A
EB
F8
10
F8
FA
F1
FC
EA
DD
02
FC
00
11
F2
00
F6
15
FA
01
EC
F9
FE
F3
00
F2
C0
FF
14
06
FC
F2
E8
F5
00
F9
16
0B
FF
F6
1D
09
F3
B4
0E
DF
FE
FF
00
09
E4
D9
E2
08
11
F8
1C
EB
10
F8
0D
F4
F3
0F
0B
F5
0B
00
F5
F2
ED
03
F3
03
EB
04
03
FF
EB
19
EE
08
F7
E5
F2
0D
09
0E
05
E3
EA
02
DD
FB
15
0A
F2
1A
0F
F8
E2
03
FE
F1
FD
F2
00
F4
ED
F4
05
EB
00
FB
1F
E0
09
EC
B7
11
10
07
00
FF
FA
DE
01
0C
F6
06
F4
FE
FD
0A
DF
0A
F9
F2
08
F4
13
F5
0A
E4
06
F8
FC
F9
FF
E1
05
E8
FB
E7
B4
FC
0B
F9
EF
14
0E
F0
39
14
F9
CB
F8
FB
16
00
02
0F
DB
00
FC
EC
E7
0D
01
F8
EF
FB
01
0B
1E
0C
05
17
F7
E6
BF
05
0A
11
1B
02
0C
DB
05
FD
EC
0F
F3
F6
F2
12
0C
03
E3
04
0C
D8
02
E2
1A
E5
FF
F1
D8
00
0A
FF
03
09
F4
0E
07
F4
FA
16
F5
FD
FE
FC
0E
07
F6
FA
E7
EE
F1
F8
1E
03
0E
12
EF
0A
F8
F5
17
FA
FD
22
F0
12
0E
06
1D
FD
EB
02
02
F2
EE
01
12
FC
F8
DF
F9
03
0C
F5
00
F5
DB
F6
F4
09
0B
F9
E0
F7
17
FF
F6
E7
1D
03
EC
EC
13
0C
09
0D
DD
FF
E3
DA
FA
04
01
FE
FF
05
F3
02
F0
FA
11
FE
EA
EB
0C
F6
10
11
F5
00
EE
E8
FA
04
F2
EF
FC
FA
FD
F8
04
0B
F0
FA
D5
03
0C
F5
02
02
FC
F8
E9
E9
08
0E
EF
F0
EB
F0
02
08
F5
FF
04
00
F6
17
FF
EF
FF
0B
ED
0C
E7
0D
E6
04
03
03
D6
02
EC
E8
D7
F2
F9
0A
11
FB
05
07
F5
0B
E3
EA
EB
1B
E7
EE
04
0C
E3
FF
F1
F4
05
04
09
F5
F9
17
F2
FB
FA
F6
17
12
0C
18
0C
03
08
0F
ED
FB
CD
0D
14
F6
EB
18
FF
FE
DD
00
E6
07
13
13
FF
ED
F8
04
E1
12
0C
03
16
05
E7
06
FA
B4
F0
FB
EE
12
F1
F8
0D
00
03
08
F2
FE
F5
11
08
03
FA
EC
F4
04
F6
04
F6
09
FD
F9
12
FA
FB
FD
FE
F3
04
FE
0D
F1
F4
F4
0D
FC
E8
0E
02
E3
02
F5
11
FA
00
0A
19
06
F5
02
07
12
EB
FC
01
0C
0B
15
F7
02
FF
C7
00
04
08
01
07
0E
21
F9
01
FD
F0
0B
ED
FF
01
CE
FE
FE
03
DC
08
07
0D
EF
0A
04
16
EA
1B
10
11
EC
F4
F5
1F
E6
E9
18
F6
1F
DF
F1
23
08
F2
D5
FA
09
11
0C
01
FE
0C
E5
05
F8
08
04
0F
DE
13
FD
1F
F6
1A
05
10
FF
0E
02
07
02
1E
F6
FE
04
26
05
F4
11
E9
06
24
02
03
02
0F
00
F8
EF
04
12
03
0C
D5
0D
E5
ED
07
F2
F7
FD
E4
04
FB
DE
FF
02
0A
0E
EE
03
01
F1
02
17
EF
F7
13
DE
12
D1
F3
14
F8
05
03
C8
ED
08
00
E0
EB
FE
E7
F6
0B
02
F0
08
00
03
F8
08
F7
1A
EE
14
0D
00
F6
11
FB
10
11
05
1D
17
F1
12
E4
14
01
0B
1F
03
0F
FA
17
09
0B
06
E7
E9
09
E2
12
0A
EE
E6
D6
F5
E7
04
09
F9
0E
E2
1A
E9
20
0D
F3
07
FB
0D
07
06
F8
F6
15
09
06
F1
0A
04
F2
04
FD
35
22
0A
0A
0B
0C
01
EA
E5
07
16
0C
04
F4
1B
F0
07
02
E3
11
FD
E2
07
1A
F7
00
FC
FE
05
02
09
FC
F9
12
F4
F1
F9
FF
FA
22
E0
FA
FA
0A
04
F3
01
F3
F3
F3
ED
FA
FA
F3
F8
E2
15
03
FD
0C
FA
FE
F9
0E
19
08
1F
FA
10
FA
02
16
10
EA
20
E6
E9
FD
09
FA
EE
FC
E7
17
FF
1D
4D
08
F7
EB
F9
DC
E6
0E
E2
FC
12
11
FF
F3
24
0F
FD
0E
F2
EA
FF
09
FE
F3
FE
10
F4
01
E8
FF
FC
FD
F1
E7
E3
EF
F0
BA
FD
EC
1E
DD
2E
4D
07
FB
22
07
0E
FA
EA
F8
E9
FE
F2
F6
FC
11
13
EF
E4
EC
F2
CB
F1
EE
41
00
FB
04
E3
E9
EE
07
F9
FF
FF
02
E8
1C
F6
0B
14
F1
E8
09
03
ED
54
F6
14
05
26
DB
F8
D5
0E
0C
F1
DE
F6
02
F1
08
F4
06
16
EB
19
F8
04
05
11
F7
11
0E
FA
C6
F7
F7
E5
0B
DE
15
F1
F9
19
ED
11
F7
FD
F1
02
06
1C
F7
00
14
0D
10
FA
0C
00
F5
FF
FC
FC
10
F8
03
E7
19
EC
F1
F1
08
14
0F
02
FA
FA
1D
00
FE
05
12
09
F4
01
0C
08
0B
01
FE
12
FA
0D
00
EE
F4
F8
03
08
E0
F6
DF
02
FE
0F
F9
03
E5
F2
0E
ED
05
02
0F
FD
E6
FB
16
0F
F5
01
FA
E8
F2
02
1E
FC
F8
15
0E
FE
04
22
F2
00
0B
15
F3
FD
E5
02
0A
F0
FB
F9
0F
FF
E7
F3
F9
DE
EA
1A
0A
03
F6
FB
F7
F5
FF
0F
0E
16
17
1B
F5
EA
E8
0C
0C
10
F4
EF
ED
06
14
F1
13
05
E8
F9
FB
02
F3
FC
08
02
F0
F6
ED
FE
18
E6
ED
24
FF
1C
06
08
0C
FD
20
01
06
11
1C
06
04
01
DB
F9
E9
F5
00
ED
05
FD
00
D6
0F
E4
10
18
F5
F7
10
FE
D8
EE
CC
00
ED
FD
09
0E
F4
18
F7
1F
FD
F6
06
FC
10
0D
E9
F1
F0
F7
FE
10
0A
06
0E
DD
F2
1C
01
F6
04
32
28
FC
0B
3D
FE
F2
F3
FF
02
FD
16
F9
FB
FD
DD
FE
F0
04
E7
14
08
E8
07
EF
0D
01
11
E1
02
DF
F6
EC
09
F4
E8
0C
0C
D2
FF
EA
DB
0B
CB
FD
1A
E2
FC
17
0D
1C
F8
06
F5
F9
19
11
FB
F8
F0
F7
10
FA
23
FD
02
0F
ED
1F
EC
FA
FB
F6
E7
05
04
F8
F2
01
0A
08
19
F5
15
F3
08
EC
04
ED
D2
F1
F9
00
09
0B
ED
0E
F3
0C
F6
09
DC
04
04
E7
F7
E1
FD
0E
09
18
F9
F7
FC
03
02
07
D1
01
FD
11
0D
DE
FA
FB
06
06
09
E1
17
FC
01
04
F8
FD
F8
F4
EC
ED
FE
F4
FF
FB
EA
E6
12
FC
02
29
01
0F
0C
02
06
15
FD
12
E5
07
0A
FC
0D
03
02
12
16
D6
04
30
0C
02
03
EF
1F
04
05
05
0C
01
0B
0C
E8
FB
19
F8
10
F8
00
EC
06
1E
EE
ED
14
EC
13
06
F3
FF
FD
F2
F1
02
FF
F9
D8
0B
00
11
0E
10
04
0A
0D
F3
0C
09
F3
D7
06
EE
0C
FC
EF
0B
0A
11
F3
10
EF
F6
10
08
F9
FF
04
04
10
FA
E9
DF
FF
0D
F8
02
09
07
10
F3
DA
0B
06
10
FA
F9
09
DC
07
FE
06
FD
E9
02
EF
F4
1B
F0
11
14
FD
FB
FA
FE
E8
03
0E
1C
07
F4
ED
FA
0E
0A
F3
EA
29
E8
E6
EF
F6
0B
F0
FA
09
2A
FB
C8
09
F6
D9
00
1A
DA
F6
04
06
EB
EE
07
17
FB
07
FF
F0
FE
F3
FD
04
0F
14
1E
18
FE
10
EC
12
FC
F7
06
F7
EE
0D
F7
E5
09
F9
FF
E4
E8
F1
00
09
18
19
0D
13
1B
0B
EC
06
E7
F7
EE
09
0F
01
F4
F5
0D
FC
DE
F7
DF
0A
08
13
EA
F6
EE
D7
00
01
E6
E7
F8
03
31
FB
FB
ED
E2
0E
09
03
1A
0E
06
F2
19
15
0C
00
ED
DE
07
ED
F7
09
F8
FE
FB
EF
C6
FE
CE
0F
06
07
0B
FB
0A
1E
F3
F5
FE
D8
EC
F8
14
F5
06
F6
CA
DD
FF
16
FA
07
07
1A
DD
F5
E8
04
FA
04
F1
F2
F9
F8
03
FE
FD
FC
FF
F0
19
07
DC
E3
F9
FE
F1
F4
FD
0B
F5
DF
FD
06
FE
DF
04
F2
05
02
ED
BF
0B
08
D8
0F
07
01
11
F0
12
D3
10
18
F6
FC
05
F3
FC
15
08
FD
0C
FE
1C
FD
05
05
E6
E8
E4
F8
EC
0A
FD
FC
1F
FE
F3
E7
EA
03
FB
DA
01
FD
F2
F2
F7
F2
FA
02
06
F4
F8
EC
11
0D
F0
FE
FD
FB
EE
0D
E6
08
CF
F1
FA
08
EB
FD
17
0A
F0
EA
F4
E9
FF
10
E9
08
EC
14
D9
FE
ED
EC
F5
03
EF
EC
C4
00
0D
15
0C
E2
FE
D9
EA
0B
F5
0E
0C
0A
F8
F7
E9
D6
22
1D
08
F8
EA
17
00
FE
FD
05
FB
0A
F6
0B
0E
02
10
D7
DE
10
F3
05
E7
0A
F9
0B
12
10
F2
0A
EB
D6
EE
F7
F2
F3
F6
FC
0B
13
E5
FF
FF
07
FF
0C
FF
F9
0E
0E
E3
17
F0
03
F7
FB
0C
06
DD
F8
F1
09
03
FC
01
0D
03
09
DF
00
F8
12
F6
EC
FF
0C
F3
0B
04
15
0B
0F
DB
03
EB
EF
FE
01
01
FE
FA
14
E3
14
EA
F0
13
07
00
F4
0F
FA
04
02
F7
E5
03
04
FE
DD
08
F1
1A
DC
0C
EC
FE
F5
10
E8
0A
EE
08
FA
02
21
CD
C3
24
F6
F3
0A
02
04
FD
08
F4
E6
0B
F6
E8
E9
F0
F4
05
05
FA
0D
FF
F8
F0
12
21
13
FC
F9
15
D9
C8
EB
04
C8
17
FD
DF
0D
FB
10
08
F6
EB
07
0E
FC
09
02
0C
09
E7
06
04
1E
E9
F8
E0
0D
04
04
E1
14
01
01
1E
18
0F
F8
13
FA
1B
EF
EF
1D
0B
06
E1
0C
08
F9
EB
05
23
E0
1B
07
08
01
00
01
0F
FA
DB
AC
11
DC
F8
04
00
10
F1
E7
22
CF
FC
FA
F9
14
FB
ED
BE
08
F7
F8
12
FA
02
E1
FD
F3
FD
01
08
EC
05
ED
10
04
02
EC
04
FF
0B
01
08
08
12
F2
05
04
F2
EF
11
FE
12
FA
EB
0D
FB
0C
11
07
0C
F3
D5
F6
F4
EF
12
EC
FC
0D
ED
FF
0D
00
0B
12
02
02
E3
05
FB
FC
1D
FE
FD
17
F1
01
F3
EF
F2
07
ED
26
09
FC
10
EE
07
06
E6
F8
00
FE
09
11
0A
F3
FD
0B
0B
F7
05
F9
FD
06
2C
FC
FD
F8
F7
07
08
F7
02
FF
0D
15
0F
44
00
E9
09
14
FA
0E
0C
09
1B
F0
FA
ED
03
FC
F0
EE
B7
07
F9
F2
13
F3
F7
E0
F7
F7
FA
05
01
ED
F5
FD
0B
E9
F9
08
F5
F8
F4
FE
FF
08
12
05
ED
04
FC
02
00
EE
0A
14
DE
FD
07
12
E8
FD
18
0A
03
0B
DE
E4
F7
0E
F7
11
0D
01
FC
E6
11
F5
0C
02
F3
01
03
04
E6
E8
F9
18
F1
F5
F7
04
E9
FE
F1
F2
02
F7
15
0D
0A
04
20
FC
01
03
E3
FD
E9
F0
F9
F8
F7
EB
EA
12
F2
0F
F8
F3
CE
19
0A
F2
F8
08
10
0B
E9
F7
18
37
F0
0D
04
ED
18
FC
FB
15
17
22
1A
DC
FB
0C
02
04
EE
E2
15
F2
FC
E7
F7
DC
06
00
F9
EC
0A
10
EF
E8
12
D2
C7
E0
FC
08
F4
F6
FE
08
E0
CF
02
06
06
F5
F2
01
FE
01
FF
DE
FF
0B
EA
05
EB
15
DC
06
F4
D3
05
EB
1F
FB
18
F2
05
D5
EC
CE
1F
09
E1
04
F5
0A
F0
FA
14
F1
FD
F2
10
F4
08
01
07
D9
FB
03
D5
0E
0A
03
E3
04
05
12
CF
DB
04
E9
0C
E1
F5
0B
FD
FF
F5
F7
0E
F2
01
0B
0B
06
07
F3
1E
01
EE
EA
D8
18
14
E5
0E
FF
E5
0E
EF
13
18
F9
26
11
F4
F1
F8
2A
3F
0F
EC
11
F6
F5
FD
F1
13
FA
F9
F4
0B
03
FB
07
11
1C
FF
E8
F3
F3
EA
F5
03
F8
06
D0
F4
F7
01
1D
F4
F4
13
DB
05
24
F4
EE
28
F6
19
0F
FD
03
07
0D
E7
FF
FC
FA
07
0C
EC
FE
F5
F9
FE
F0
0D
FB
FC
F8
D5
0F
05
F0
06
00
05
F6
EA
F9
F3
D0
C6
FF
F3
F7
05
FA
F3
F5
F4
EF
E9
F3
F9
19
F0
FF
FC
16
DD
07
05
11
F9
1A
FE
13
C4
FF
08
F8
FB
F2
09
E4
08
29
FC
FB
E3
EA
0D
EA
F7
11
25
D4
19
0A
FB
DC
FC
D5
F1
FB
EE
04
0E
12
EC
E7
02
F0
0B
06
07
F7
EC
F3
12
D4
02
E0
F7
F0
E3
15
FD
03
02
EE
FC
0A
F6
1D
08
F7
09
01
B4
F2
02
FA
09
01
1A
01
11
12
0B
FA
FE
01
02
CC
DD
07
E6
CB
06
F9
F2
03
E1
FE
FB
03
07
03
10
F0
F6
FC
EC
0B
19
F2
E7
2E
CA
01
F5
ED
07
0F
FC
10
F5
14
03
F7
F2
EC
FB
04
F5
1B
DA
F4
FA
D5
F2
FD
14
FE
19
FE
03
FE
04
12
FD
01
04
01
02
E2
F2
F8
F4
14
E2
F9
F0
F6
04
0D
08
26
EE
13
17
0A
0C
F2
01
FE
E7
0B
1A
00
05
F6
05
FB
F7
D7
25
E8
F7
DC
00
04
FA
21
00
0A
07
D1
0A
07
0D
1D
08
0E
0D
07
F4
0D
0F
E7
F3
EF
1D
F6
F7
01
08
E4
0F
F9
F7
FC
FB
F7
00
F7
0A
EA
FB
17
C9
02
F3
0F
02
F4
ED
FB
F3
ED
F3
E5
DE
F1
FF
FF
EE
FB
F1
18
FA
00
0D
10
FF
11
F7
0A
F6
F3
FD
F1
1F
06
FC
0F
FA
FD
C1
F1
E7
F9
0A
FE
04
E7
12
00
F8
0B
06
D1
0A
0D
F2
EE
EA
D5
14
09
D4
F4
F5
E5
FF
EB
F3
2B
B7
F9
10
EE
08
EB
14
06
17
00
08
01
03
FC
F7
FB
2A
0C
E3
D8
F2
F4
15
F6
F9
09
F4
0B
06
00
03
BC
F1
FF
EA
02
F1
F7
F7
FE
F6
FD
EC
D5
EC
0B
F1
01
F9
26
0B
F5
07
0B
EC
25
F9
1F
0F
15
34
FB
F4
05
F5
05
E9
F1
05
F2
EE
19
00
FA
00
CB
DE
04
FD
15
11
01
D9
10
FE
FC
0E
F4
00
0A
F5
FF
01
FB
0A
06
00
F1
EA
DB
EE
EC
1B
0A
08
04
F4
EA
F0
F0
EC
28
FB
12
02
09
0C
0E
0F
0D
0B
E9
E5
13
FA
14
02
F9
E6
03
00
E2
1B
05
FB
E2
E1
EF
03
11
FE
F7
0E
FC
02
FF
0B
F9
F9
08
F7
FD
01
00
03
E1
02
EE
09
DB
0B
03
0F
F8
F1
E2
26
F1
10
FC
07
F0
23
09
FB
0A
08
22
16
EA
EE
0A
F8
01
0C
03
13
03
03
04
F7
08
F8
F1
E4
12
10
0C
F7
14
F3
15
ED
01
EF
0B
F8
FD
00
03
D9
14
05
10
06
DC
F6
04
12
F6
F2
15
07
09
07
EE
07
DE
0A
08
08
0E
FB
05
FF
18
ED
F4
F2
B9
08
E2
EC
03
04
08
02
FF
08
EC
F6
E2
00
1A
F1
FD
D1
05
FE
02
0B
E6
0D
1D
DA
05
F9
01
F3
F4
01
E8
16
F9
0E
1E
03
05
F9
F2
00
0B
ED
E7
FD
00
F2
1D
FF
F8
FB
0A
02
BD
06
F7
03
07
E2
DC
05
FC
FA
F0
01
F8
09
D9
EC
FC
FA
11
FC
F4
F1
FA
12
FC
02
04
DE
F7
10
FD
04
02
06
DF
DA
FB
00
F8
E7
ED
0A
04
EE
F8
FE
FE
00
EE
F1
D7
F7
E4
06
EF
13
E0
E5
0F
01
EA
10
0E
1A
E9
14
03
EF
E9
00
F3
F7
0D
E6
15
03
CA
FA
0A
07
01
18
18
E4
18
10
DA
02
D8
F4
36
09
09
E1
F6
F6
1F
F4
ED
F3
08
11
E8
FD
FA
FE
EB
FB
18
FC
E1
0A
F3
F7
F7
02
10
03
01
0C
F8
0D
C5
FA
07
08
E7
D9
19
FF
07
EB
F3
E6
00
FB
0E
19
FA
E4
D5
FD
FF
FC
06
16
F9
FA
08
18
FE
F6
07
F6
0E
DB
F9
F8
E7
F2
F2
20
07
0C
03
CF
B8
BC
04
F1
07
06
F6
DA
FF
FA
16
E7
EC
EA
ED
07
0B
F5
FA
FA
0A
08
E1
DC
FE
15
E9
E4
0B
0D
FE
FC
11
09
11
F4
F2
18
07
05
00
10
DB
EE
FC
13
F3
1A
EC
0E
0F
01
F6
C3
0B
E8
22
07
F6
E5
FD
16
FB
02
08
0B
F2
E3
F7
0A
F7
F0
F6
F9
0F
FD
04
05
FC
1E
25
FD
F9
08
F0
FF
04
10
FA
23
FF
F7
0F
FC
F3
0D
02
08
05
F2
FE
12
00
10
34
F8
04
03
0A
0D
DA
F7
0C
F3
0A
06
10
E0
F9
E4
0A
F5
01
16
F8
ED
EA
F2
2B
14
F7
FD
15
FB
06
CA
F6
F2
08
E2
14
08
07
F9
11
F3
13
FE
F3
05
08
1E
FC
10
13
F2
0A
FA
F8
E1
16
EA
EF
DD
C7
E1
E1
EF
F3
23
0C
EF
24
CF
DD
D4
17
0D
0E
FB
CB
F1
08
EA
1B
15
F7
FE
DA
0F
F7
FC
0D
06
02
F9
19
E4
AF
E3
E6
F6
05
05
FA
03
FF
F3
F5
06
EE
03
E4
F4
FA
FE
F2
DD
02
0E
0F
0C
00
06
FA
0B
18
D8
F4
0A
FD
09
0B
FF
F0
E0
17
F1
23
06
E9
29
09
F3
10
21
FD
09
E2
E3
0F
0D
F9
EA
E7
E5
F2
D3
F7
14
04
F3
F4
0A
EB
FA
13
28
17
F1
CA
0F
0F
E4
17
FF
0F
FE
DC
E8
1C
F0
FC
07
09
F4
EE
15
F6
EE
0E
0C
33
10
17
FA
06
03
F7
EF
EC
02
09
EA
E9
FD
15
F4
22
1F
FC
0F
12
15
F5
FA
F6
E1
ED
FB
13
05
02
03
1E
02
02
1B
F9
EF
11
0E
04
FC
04
08
19
FD
00
0A
FC
FC
F4
16
F8
0D
41
F0
0F
12
07
1A
FB
EC
00
E9
10
EF
18
0B
05
FC
02
EC
F7
09
E8
01
EF
E6
00
05
FB
25
09
E7
1A
17
0D
FC
0D
00
01
0F
E0
41
FC
FC
0B
0A
FD
DD
16
03
EE
F0
10
F2
F1
F7
0C
F4
FC
E9
F9
FE
F2
E1
17
0C
FA
17
FD
03
00
15
09
F7
1F
F4
2D
FE
1E
FB
05
0A
FE
E7
F9
16
03
39
05
F9
E8
F4
2B
30
0F
03
F3
FF
FD
F7
03
0A
EF
FA
13
02
02
0E
F1
1B
F8
EB
FD
09
0B
F2
E6
FF
10
F2
FB
0A
02
02
0E
F5
04
0D
E0
0E
0A
F5
0D
FF
07
1B
04
08
0F
12
FD
F0
25
0D
E8
FD
07
F3
08
0E
E3
09
15
D8
01
02
00
19
08
01
1C
0E
0E
EB
2B
EA
21
F8
1A
1B
05
16
0B
FF
FD
32
FB
05
FF
E6
16
06
01
02
ED
11
EA
02
1A
FB
F8
F8
FA
F3
FF
FE
0F
F5
03
04
0C
ED
E8
13
40
03
FE
03
D8
F3
EF
16
04
16
00
09
1D
09
D8
FF
16
52
EF
EF
F5
F7
03
13
FB
F4
0D
04
0F
06
EC
E6
FA
09
E5
E4
ED
06
FB
FF
15
03
05
F8
05
E9
04
09
06
FC
F2
00
F8
C8
1B
FA
06
F0
03
EF
FA
0C
ED
E1
F4
01
16
F2
F8
1B
ED
E8
1C
F1
1D
E1
FB
04
04
09
07
F3
ED
F2
0D
FA
00
EF
E5
00
FD
CA
22
D7
FE
0A
16
05
01
20
02
01
04
2A
26
F9
02
07
FD
09
EA
ED
ED
08
F6
F2
E3
12
00
04
07
06
F6
09
F8
EC
FE
08
D4
05
F4
FB
F7
0B
09
F9
E0
16
09
19
11
0E
DF
FD
27
20
06
EE
08
0B
1F
FC
10
0A
FE
FC
0C
0B
FB
F5
13
E4
14
F8
F1
FC
11
02
F0
06
03
FC
F8
06
F4
17
E5
05
F6
0E
F0
EA
FD
03
F9
FC
0A
F9
20
F6
FB
FB
12
EE
07
F1
27
E3
FB
F1
10
F3
F2
11
F1
F9
07
08
11
E0
F9
F9
F0
F6
FF
01
2E
ED
EA
DD
F3
29
07
FE
F7
F8
F8
2E
08
F1
F5
E0
16
03
05
02
F6
06
EC
FE
0E
FF
FC
F2
05
17
01
FB
06
08
FD
0C
EB
FB
F5
01
15
FE
18
F6
F7
FF
FC
10
15
F7
FE
39
E4
F5
1B
02
0A
30
F0
03
F7
18
F9
EF
14
06
03
FA
15
08
E4
F4
F9
F1
05
FA
0E
0A
EF
FC
14
FB
FC
0D
CE
00
05
FD
EA
09
F4
FC
EF
EB
04
06
06
F6
F9
1B
FC
DA
EE
01
F1
10
28
F9
F1
F1
0B
F4
0D
F4
11
2A
03
E9
03
FC
06
F2
FC
17
03
F3
0E
0F
32
E6
22
10
29
1A
0D
19
F4
03
F4
20
13
05
F5
10
0B
FE
19
FA
E3
02
1C
F0
0B
01
03
DE
D8
D0
F7
16
0D
06
03
F0
FD
EA
FF
EC
01
F7
12
F1
F1
F3
F5
00
E1
DF
F3
05
03
01
11
0A
FC
21
F1
0A
EA
EF
F0
FB
FB
16
1A
FD
12
0D
FC
EE
0F
FD
13
F0
0C
09
0E
FD
1A
01
ED
08
FC
09
F4
1C
E2
02
0F
02
F2
2C
B9
00
FD
FB
04
FA
0D
05
EC
04
00
FF
2A
12
EA
E0
00
F5
ED
EB
F9
29
01
ED
F9
07
01
FD
E3
F1
F4
EF
FC
01
22
1B
12
ED
0E
E2
08
F9
ED
FF
08
BA
03
02
00
31
F1
0E
14
04
F3
FE
06
F1
F1
F6
06
03
03
F9
0C
F1
07
F4
FF
04
06
FB
EF
F4
FC
F9
06
FA
CA
E9
ED
14
F3
EB
FA
E1
19
EE
E2
0B
4C
1B
E3
F5
E3
FF
12
1C
0E
EC
16
FF
F4
04
04
E6
F1
01
D0
DC
CF
F6
FF
F8
0E
04
03
EA
C1
EF
F6
F9
F7
FF
0A
FE
D6
FA
09
05
FB
F7
04
F5
F4
11
F3
FA
FF
14
12
23
F7
F3
F4
ED
FE
F4
E1
EF
0C
D1
06
05
1A
08
FF
13
F9
FF
F6
0C
E5
0A
EF
0C
20
D8
00
E2
18
FF
F0
17
00
FC
F8
2E
22
FD
08
FE
F1
F1
06
EE
F7
FD
F1
F5
10
DC
06
E7
FA
FF
0D
14
11
0E
0C
F9
09
FD
EE
07
07
09
E7
DC
0C
F5
20
D9
12
F1
ED
03
EB
DC
04
18
13
08
11
07
E9
DA
FB
03
01
F5
E0
F0
F3
14
03
F9
E3
0E
10
0A
14
01
F5
11
D8
07
00
0A
DB
FC
F8
EE
F9
D9
E7
F2
08
E7
02
FA
0C
EB
07
E1
04
10
DB
E7
FD
F1
F8
FA
17
F4
E0
F9
F7
FF
06
05
00
E2
07
08
05
F8
F4
E8
E3
09
10
E7
30
DA
F4
F7
F6
F8
F9
14
0C
FA
EB
27
0E
00
EE
FC
01
FD
F8
14
10
FF
00
2E
FF
12
03
0A
06
FD
08
F2
21
09
EA
07
D2
11
10
FF
0F
0D
D5
09
E0
40
F6
E0
05
02
E2
0B
FC
B2
11
DB
D2
04
FE
19
ED
FF
1F
08
F9
FD
07
FA
10
19
EB
E7
02
EF
E3
EA
FB
03
F4
03
01
13
F4
03
F3
09
0A
05
DB
DC
E6
F0
E6
F3
F4
16
FB
F2
F4
02
FB
0D
1A
D6
EB
12
0B
13
F9
FA
1B
19
FC
DD
02
02
04
35
FF
13
EE
0C
EC
EE
07
E3
E8
FA
17
C3
EA
11
05
FD
FD
FE
E7
0F
11
D3
10
1B
F0
F9
F8
FF
DA
FF
E4
00
EF
DB
E0
F1
EB
22
01
05
EF
04
EF
04
0B
07
D5
F6
00
04
F8
EF
27
FB
F2
06
15
D1
E0
EA
E7
F3
C0
10
EE
0A
F4
F3
E2
1D
0A
DF
EE
0A
F9
02
03
03
FF
E5
05
11
08
F1
F6
0E
C8
00
F5
F1
17
F3
09
FB
19
04
09
F3
EC
FF
12
06
0A
EC
F1
0A
0B
25
06
28
E6
0D
2B
02
01
F6
F0
F7
FC
F1
EE
0F
09
E3
03
07
F9
DA
FA
CE
00
0B
09
0B
02
F8
04
FD
D3
D3
0B
1B
0B
ED
04
CC
0F
F7
FD
16
06
FD
E6
03
0D
0B
03
EE
EF
0C
D0
F9
18
CA
01
EA
F4
F4
0D
EE
F6
FC
00
E2
1F
EF
17
F9
F8
DB
FE
1A
FC
D2
12
D4
FF
03
C8
02
E1
05
E8
06
03
EB
E9
06
11
18
F1
06
02
F1
F2
17
DD
E3
1B
09
ED
FD
F8
12
EE
03
FA
E0
21
E6
09
0B
C7
FB
F4
FD
F5
F3
09
F9
14
DA
F1
E9
E7
1D
E7
1B
0F
FA
1C
FC
09
F5
F3
F0
0F
0D
E8
F1
FA
03
FB
F8
FC
0F
02
E8
EE
0E
FC
0A
06
E4
FB
DB
F8
21
FC
0B
07
F0
F6
B9
E8
FE
F0
BD
06
EF
F4
04
19
02
13
EE
EC
F3
F9
FA
11
16
EF
17
0A
F6
0D
13
F4
10
0E
EC
02
FB
DD
0A
08
EB
F3
FC
D4
F6
0F
02
E7
E7
E5
FD
2D
19
00
03
10
15
15
0F
17
F6
10
F6
00
03
EB
F2
16
05
15
12
1B
06
0E
04
F3
05
04
EE
FB
FB
F1
F8
E9
FA
01
12
F0
D9
E3
0C
06
27
F8
0F
05
04
EA
FD
0F
FC
FD
1D
F0
07
01
F2
F8
F0
00
F1
F5
06
FB
FF
F6
E2
E5
FB
1B
F9
F9
08
FB
ED
EE
07
25
E3
0B
15
EE
05
0C
15
0F
07
E7
27
0B
F5
FB
F4
F6
D6
05
01
08
F2
1C
2D
EC
FA
01
EE
F6
FE
0C
E9
F0
11
20
DB
D8
04
ED
0F
FB
F2
FF
1A
DC
0E
DF
D0
E6
F8
DC
FD
0F
0A
EF
21
F9
0D
0E
EE
F2
13
17
05
04
F1
05
F9
FF
07
13
F1
E7
F8
FE
01
D4
FF
F2
12
03
FE
02
04
F1
F9
F7
E9
2A
1D
E4
F5
02
F8
FE
FF
F9
00
FF
F0
FC
F5
F4
0E
F2
06
F8
F0
0F
10
E4
19
13
F1
FC
FA
EC
EB
13
F7
0F
F5
FA
F8
D0
E4
02
09
C9
3E
F0
04
FC
09
05
EB
19
01
00
1A
E1
EF
19
13
24
18
EF
1C
F8
0A
01
F3
10
CB
0D
F4
00
01
ED
0E
0E
F7
05
0E
F0
0B
05
EB
06
E0
09
09
E2
03
D9
C7
26
EC
E0
0B
DB
DB
FE
DA
0B
05
05
11
F8
09
FA
0A
EF
05
03
14
FD
09
15
00
0C
F9
FE
F1
0E
04
F2
03
E9
FB
06
0E
12
09
07
FE
FA
E0
F0
FE
F1
E9
F5
08
01
04
F3
F9
01
15
03
01
E8
FB
02
1D
EE
F1
13
0F
00
D4
09
F6
FE
DC
10
ED
F0
E7
04
E9
09
EB
DC
F3
05
1D
FB
00
10
FC
EE
2C
F3
F6
18
F3
09
08
DA
F8
13
F4
20
05
F0
F9
0C
EA
EB
0C
FC
05
FB
0F
0E
03
FF
02
E4
EF
CB
FB
1C
EE
05
08
DF
06
10
0D
09
18
ED
E7
05
F3
BD
CF
03
F9
FE
EC
17
16
FB
E8
03
00
F3
F8
08
EF
FC
E6
DF
00
26
0F
07
FA
0B
02
F4
04
F3
10
03
F8
12
FA
ED
F5
07
DD
DA
0F
03
F0
04
E5
F5
DF
F5
03
F7
F0
FE
CE
F6
0E
0A
FF
07
01
04
E3
01
F5
FD
F9
F6
0C
07
F3
FE
F1
0C
09
EC
FF
DC
FF
FF
CA
EA
EB
03
0F
F1
BC
16
10
00
C2
F5
F0
F3
F3
EA
E8
F9
ED
09
F5
EC
F9
13
2D
09
1C
FF
FD
13
11
0A
ED
EA
0F
2A
F8
F8
F3
0E
0F
FD
0C
11
D7
05
01
FF
02
FE
05
E5
C8
13
F5
FB
F1
00
FC
FF
E0
01
FF
12
07
04
DF
F7
21
08
E8
07
11
FA
FD
0F
03
03
DC
ED
01
F5
F4
08
FB
E1
0C
0F
DA
F4
FF
10
E8
FB
08
17
08
0C
DD
02
ED
19
02
1E
FD
F7
EA
12
07
09
19
0B
02
01
02
F7
04
F3
EB
15
0A
0F
F6
EE
13
EA
DC
00
07
FB
05
F4
0A
02
EA
10
08
ED
DF
FC
08
06
FD
02
E5
FD
04
19
FC
17
15
17
1D
F6
FB
01
FF
11
F3
EB
FD
22
F1
31
FD
F7
FC
15
FA
13
0D
0B
FE
01
11
FF
FA
1A
FC
16
0D
F9
E8
FE
05
15
E7
12
FF
E7
FC
0A
01
15
F6
07
22
0A
12
0B
00
F5
EF
0E
07
0C
04
D8
07
06
0C
16
FD
F6
09
FF
D8
F7
03
FD
11
02
FD
15
0A
FC
E6
FA
11
07
14
04
F8
F9
09
00
00
15
1B
0D
16
07
F9
07
02
01
0C
13
FF
F4
18
2D
EB
F8
F1
3B
EF
0E
00
ED
FC
F7
D5
15
00
10
C0
1F
F1
1A
0A
FE
FA
E9
F3
0F
FF
09
1B
FF
EA
04
03
F3
F9
FF
EA
F6
FD
FC
25
20
F1
FC
02
EC
25
04
20
0A
D4
0F
25
1F
FD
0B
FF
DA
F0
F2
0B
F5
18
FE
E8
C6
15
06
FF
0E
0A
EB
F9
01
E0
F6
F8
ED
04
13
01
06
08
F5
EA
01
FB
06
14
20
F4
F2
18
FB
F4
08
09
F0
0C
FF
F2
06
06
12
14
ED
09
25
F7
F9
0C
E9
FC
D8
EC
24
19
F4
FB
02
08
F6
C6
ED
06
EA
FC
02
E6
F2
DD
06
EE
01
EF
06
F0
02
FA
EF
D4
0D
EB
0E
2D
EE
01
FC
FC
0C
FD
D9
01
F9
FD
05
CB
F0
FC
0B
04
F0
0D
FC
11
F3
FE
18
ED
BE
FC
16
EA
FA
E7
F3
ED
0F
F1
0F
F6
F1
E9
E2
FA
E2
E0
FF
F8
E7
0A
E2
FC
DB
EB
0A
FB
F5
FB
F8
1D
15
00
E7
F1
0D
00
F8
FA
CF
FD
0F
EB
1D
FC
FB
00
EC
05
EB
DC
ED
18
EB
F4
07
F8
0A
06
0D
06
08
0C
F1
EE
16
EA
04
E1
EA
FF
EA
F3
16
DE
0A
0E
03
EE
05
0D
F3
06
FB
EE
F2
F0
07
FB
0D
F4
13
E5
F1
0E
03
03
05
D1
F5
0F
F1
E6
ED
11
EA
0A
00
15
E2
F1
E6
08
F6
E6
07
1B
09
00
03
01
09
13
ED
E5
23
28
EC
02
E7
02
E1
FB
F1
EE
FD
15
F9
D9
03
F0
DD
03
E2
33
0C
E2
09
11
07
04
11
F4
DC
02
0F
02
F1
1B
12
ED
F5
D8
00
00
06
ED
E7
05
FB
15
EC
ED
03
FF
F7
FE
05
FE
DE
0E
12
0C
0A
ED
F2
0D
11
F7
06
FD
07
06
0C
E9
EF
E5
F2
05
F6
00
F6
05
FA
17
00
FF
08
E1
F9
0A
13
E6
FA
11
E8
16
F8
0A
FC
FD
F2
EE
EA
04
F9
29
01
01
13
F2
15
FC
2B
FD
0D
FF
FF
F9
FF
0F
12
EA
D4
25
10
DD
FB
06
12
FC
02
FE
EE
1A
17
E1
EE
17
F0
18
EF
F3
01
0C
E0
2A
D7
0F
D8
FF
F4
49
F4
FD
F8
05
E6
F3
00
1F
14
0A
FC
F2
07
F9
FF
20
DF
EF
E3
03
F9
0E
EF
04
02
E9
07
FE
00
EB
E8
06
0D
13
E4
F3
E2
F8
09
01
0F
EA
F8
E7
E8
FF
15
1E
EA
07
F2
13
F3
E9
05
06
E1
0C
0C
EF
03
05
0E
2B
FA
02
15
0D
01
F1
E2
FB
13
F9
2B
C1
02
E5
E3
F2
07
C8
F9
F9
EB
D9
FE
E4
DF
09
10
F2
18
DB
0E
FD
10
1E
F4
EC
01
12
F9
01
E5
FC
F5
0B
FC
FE
18
0E
E7
FF
0F
0E
E4
F0
19
E6
18
0C
F6
F1
F4
F7
08
DA
0E
F2
F2
02
FB
F9
EF
11
F2
08
F4
F3
FF
08
05
E5
E7
16
01
0D
00
02
EA
FC
F9
0F
29
FD
04
0C
E7
FE
F5
F1
07
E8
1C
F4
03
E8
FB
09
EB
12
FB
0D
01
F5
D9
EA
0B
EB
F4
10
01
FC
EC
22
E5
0F
00
F9
05
EC
FC
FB
F4
EC
0F
FD
DC
F2
05
08
1D
DA
0E
E5
E7
03
FE
D9
17
FB
09
C6
F7
11
EF
F5
01
09
E1
0F
F0
FD
F0
E7
DF
FE
01
FF
F7
02
FA
E4
EC
F9
D9
DC
30
EC
11
F2
07
DA
FA
FE
19
06
F0
C8
06
FE
F5
FE
F4
9E
FD
12
14
E4
EC
FB
FB
FA
EE
FB
0C
FF
FE
F1
01
1B
F5
E5
0F
EE
0E
EF
E9
05
04
DB
11
F4
04
01
06
02
EB
07
16
FC
25
EA
05
10
F7
F4
EB
13
0B
0D
EF
0A
E7
0B
1B
EC
F1
F9
F6
FA
FC
E0
F2
E8
04
07
09
09
09
0E
11
07
0E
F3
DF
DC
01
F7
18
DD
0E
F6
FB
F7
06
D0
0D
09
E6
C7
2C
07
0D
FB
14
F3
11
F6
04
06
F2
F2
F4
0F
13
D2
F4
FE
05
17
E2
FA
15
14
CE
F8
0A
F8
FB
02
0F
0C
0B
18
F9
F3
13
01
E2
FA
F5
E4
09
10
FB
ED
02
03
0B
E9
F8
02
F8
09
00
EE
F7
1A
DA
F6
08
00
E9
F9
13
06
03
E0
0A
FD
0A
F7
0B
FF
FD
08
D8
25
14
F2
FB
09
00
12
14
FB
10
F4
16
08
D9
03
F1
E5
01
08
F4
03
29
04
07
F3
02
FC
E6
EB
0E
FB
FE
03
F7
E2
0B
0A
F0
F3
17
09
F5
08
FE
13
0D
1B
FE
09
F9
FC
02
FB
ED
F1
F1
04
06
F0
04
05
14
F6
F3
27
FF
EF
F0
00
FF
07
EA
05
12
01
16
15
F9
07
F5
00
F5
F6
09
26
13
35
2F
01
03
EB
21
51
0B
1A
09
0C
F8
06
F4
FC
1A
02
F9
07
E8
0C
F8
1C
B9
F2
11
F2
FC
E1
E9
FE
FD
0C
EA
EA
FC
F2
12
FF
03
02
E0
F8
EC
14
02
29
FB
F7
22
F8
01
16
FF
EB
ED
16
13
F6
F5
E0
EE
F8
21
05
F3
09
FB
06
FA
17
F0
08
01
E7
FE
F4
E9
EF
0E
1E
E4
EC
F5
F5
0C
FF
08
F5
0E
FB
ED
DE
FD
0B
09
FC
EE
02
FC
F7
02
EC
EA
13
12
EA
08
FF
E8
00
05
0A
D4
E7
F3
E4
13
0B
EB
0D
1C
F4
F9
FD
03
E5
F5
E2
00
00
FB
FF
0A
18
F5
05
00
14
F5
09
DC
F0
F9
FB
F2
03
CE
02
F5
E5
CF
F8
15
E7
F0
F3
02
00
0C
F0
F2
FF
F8
EE
16
03
03
05
F3
08
DD
EC
0F
E2
F7
E1
E8
0D
F0
14
0D
10
F1
E8
14
F3
F9
F5
F1
00
17
EB
EF
F6
06
00
F9
F9
0C
EF
F6
04
03
EF
19
CB
09
10
D7
0E
08
04
F4
FD
F9
E0
0E
FF
E9
F6
19
07
F5
08
06
0A
DC
FA
02
00
FE
16
F1
1A
0F
DF
F4
09
02
F1
E8
F2
0D
14
DD
F6
05
FE
F8
07
FF
0B
E7
EA
E2
EE
F3
EA
01
08
E7
C8
FB
F1
00
F2
E8
E5
08
E5
E3
FB
06
00
09
FD
0C
17
18
0A
E9
0B
00
02
F4
FC
05
01
0B
05
09
05
0E
FF
F0
F1
0F
0E
E2
FB
09
FD
04
02
13
F5
1D
04
15
0D
F5
19
14
04
02
0E
F0
0C
23
E4
FF
01
03
FC
FE
FA
0C
F7
FB
FA
F3
F0
22
FD
0D
09
E2
C2
0A
FA
0E
FD
03
25
F0
F7
02
FC
08
FE
F5
06
F5
FF
08
01
01
FA
07
E9
FA
26
15
F3
F5
FB
FC
0A
09
08
DE
FB
CF
F9
06
F4
FF
1F
E9
ED
C6
17
EE
2B
01
F0
12
0D
DC
F7
0E
E5
F8
EB
E5
DF
09
EA
14
FE
16
0C
F8
01
F6
EC
FB
F7
20
F2
F9
FC
05
08
F6
F7
10
06
F0
E1
03
09
FC
F2
FE
10
F6
04
F9
10
03
15
FB
E8
F1
09
09
F4
C4
0E
FC
F4
03
FE
02
10
19
09
09
20
FD
F1
EE
1F
F3
00
FC
EE
F4
D6
E6
D8
03
0D
34
AF
E7
02
ED
14
0B
3B
E5
FF
04
E5
06
FF
F3
F1
FF
F0
D8
10
0A
08
14
F0
FE
18
17
0F
E9
F5
F8
FE
09
11
EB
E2
CB
EB
12
F2
F3
FF
09
0B
FD
1B
12
27
ED
F9
31
F8
06
D3
07
E5
00
00
F8
FB
EB
1E
F9
06
F7
FE
E0
FF
FD
25
CD
F8
F9
FF
0D
F4
EC
03
01
F9
E2
F8
14
F4
1D
F4
F8
1A
08
E1
FA
08
08
ED
F4
07
0D
E8
EF
1B
0F
F6
18
08
F8
00
EF
05
E2
0E
06
FA
F1
EA
00
FB
01
E9
FF
EA
F9
F9
00
00
FD
11
07
0D
0F
1D
02
EB
13
F9
02
21
04
F9
02
00
04
1B
0D
FF
12
FE
00
EA
F6
FC
F7
02
EB
2A
EB
1B
09
03
06
05
FF
F1
F1
F4
F0
FE
FA
EE
F2
E7
10
EC
00
18
10
00
FA
0D
21
F4
08
02
13
F6
02
F8
DE
04
05
EB
08
FB
0C
07
DA
FD
13
EE
F8
E7
F4
0F
05
F1
03
01
0D
F2
EF
0F
F4
05
E5
06
FF
12
FF
07
29
FF
02
00
09
27
F0
06
0A
F8
FE
F6
1C
D9
E8
FB
F3
0C
08
FE
F3
F5
FB
07
03
FC
04
E2
FF
E8
10
FE
07
FE
02
06
F9
FD
06
DA
0E
FE
FC
F8
0A
ED
0B
03
EE
B3
0F
F8
0E
12
FA
0B
2A
11
F1
09
F9
0A
E8
06
01
23
0A
E6
09
03
ED
E6
02
05
2C
12
0D
FE
DE
F6
14
03
18
0A
21
E4
E0
0E
F0
09
F0
B4
EB
EB
F6
DC
CA
F3
E5
F3
F0
02
02
FF
07
FE
F5
1A
15
EB
D3
DD
FC
FF
09
FC
00
0A
CC
F1
F9
13
D8
04
F4
01
DD
EF
E2
FF
03
F6
FB
F5
D4
FE
0E
0B
F2
F3
F6
0D
16
05
FA
F5
0F
05
F7
0D
00
E2
09
05
FD
E9
FD
EF
04
09
F7
0C
FD
05
E5
C8
C4
F5
0D
09
07
06
FC
2F
EF
FD
04
D0
EF
F1
E5
15
06
F1
F1
F1
0B
06
F1
2A
F6
14
FF
1A
07
03
F8
E4
12
07
EB
EB
10
F8
FA
F5
E7
F0
E0
01
EC
FC
09
14
F0
FE
F6
05
F1
C4
13
EE
14
EE
FE
F5
EC
EA
05
03
07
05
12
05
F6
07
EC
F2
ED
EE
0F
F1
E1
06
FA
14
01
F3
F0
F6
0F
F8
0B
01
F4
EE
FA
10
0B
06
FD
1C
14
1D
18
11
14
1C
16
D7
0A
13
0C
EF
1F
F2
09
13
07
F9
FF
06
0A
04
F6
F9
0D
0F
0C
13
F3
04
F3
F6
ED
10
11
F0
15
FF
02
E8
13
02
FC
CC
0B
09
04
FC
EF
F8
1B
FC
FD
07
EE
F0
F4
F6
F3
F8
FA
FD
F2
01
0A
EF
F8
0E
F6
1A
0E
05
01
1C
21
01
E8
18
E8
14
EE
F7
F5
FB
30
36
0B
01
F1
DB
17
FF
FC
06
F9
F9
F7
04
0F
03
14
0D
06
1B
0B
FE
1D
F0
F6
FD
F9
10
F2
ED
04
02
07
07
ED
FB
07
2B
C1
F4
F2
1A
EC
00
03
07
F3
1B
12
F9
F5
FF
07
DD
03
E9
FD
02
17
18
00
12
F6
EE
F1
EC
00
D9
FD
0B
03
06
19
16
12
0D
08
F9
FB
E2
EE
F6
00
19
F8
EE
FA
F6
18
13
FE
05
DD
F6
1D
ED
D9
03
0F
F7
E0
F8
F3
02
08
F4
1E
FC
0A
FA
EA
0C
03
F4
20
00
0A
F8
D6
F4
0F
D7
01
F4
F1
FF
06
15
EE
10
FC
08
0C
EF
DE
F6
11
15
E5
00
EB
00
F7
FD
06
26
E8
E0
ED
00
0B
11
0B
09
EE
EF
11
EB
07
F5
1F
05
FD
09
08
D1
FE
FF
FE
FA
0D
EE
E7
DD
07
04
07
EC
E6
F9
FF
FD
07
F4
F5
06
F0
EB
0E
EE
02
10
00
24
ED
EF
16
05
FC
0F
E2
12
FB
E9
DC
92
17
FD
F3
00
05
13
0C
06
FF
CA
0E
F3
E2
01
0F
F8
1E
F1
20
09
F4
F5
ED
1B
F0
1E
06
F0
01
EF
10
09
FD
02
02
ED
FB
E8
10
01
FE
F2
E1
F7
14
CA
12
03
F1
0A
F9
07
FD
E8
FE
0B
F7
FA
F8
F0
10
FF
FD
F7
DF
1A
0B
06
F7
D4
02
F7
FA
F1
EF
FD
00
10
E2
FE
FA
11
10
FE
F5
FE
E5
E6
2A
0B
0B
F8
FD
F8
FF
EE
E3
08
FF
0A
F6
F3
06
05
E7
EB
F9
03
1E
EA
08
FE
08
0C
EC
F0
F7
F5
F4
FF
0B
13
15
16
E2
D5
EA
11
FB
06
FC
0B
09
E2
F4
F7
FD
0B
06
F4
EF
FC
05
07
E8
F2
F0
05
05
F6
F5
BB
EC
D8
02
10
F4
19
E6
F9
1B
FF
BB
F6
EA
EC
18
1C
25
1E
F2
E7
03
0C
1C
05
0D
0F
E7
4B
E2
0C
FD
EF
10
F5
E2
F4
F2
F8
00
0A
03
FD
F5
D2
17
F4
CC
F0
09
E8
DF
03
14
0B
F6
00
06
FC
EB
F7
FC
FF
E4
C3
08
F6
00
FD
EF
FA
17
EE
E5
E6
07
FA
2D
FE
19
18
FF
FE
F4
FA
20
EF
03
12
04
01
FC
EF
F5
1B
F1
FA
E7
DF
21
FC
F4
E7
F6
1B
F7
F3
EA
0A
08
F2
EC
FF
1A
1B
FD
E1
F1
04
11
02
0F
EF
F6
F4
09
EA
0A
F5
FF
E1
02
FB
0A
0E
FB
07
04
EC
DF
F6
E7
FD
FB
0E
E1
FD
0A
CE
F7
F8
17
F8
F2
06
D0
0D
FF
FA
12
15
EC
D6
E6
EA
10
02
F5
0A
12
00
F6
13
0F
FC
DA
F1
03
E8
CB
FD
F0
1D
F1
F1
F2
1A
00
F9
03
F0
F4
18
0D
00
FF
0A
FC
F8
F0
FF
FD
E2
FA
01
DE
F3
00
05
02
F6
11
03
E8
00
F2
15
03
FA
F4
F9
FB
F0
F3
09
09
FA
E5
11
ED
04
EA
F3
F3
06
0B
05
EC
01
DB
F4
11
02
16
EC
E1
15
E6
E9
DF
FC
06
07
03
F1
0E
0B
ED
17
09
04
01
03
FC
F8
FE
D9
15
F5
02
0E
F1
01
02
0B
E7
F1
03
17
F5
FD
17
EB
05
EA
FF
E4
F6
09
19
DB
EC
06
03
02
0A
06
EA
05
10
08
01
EF
04
F4
F0
06
0B
01
08
EC
E9
0F
FA
05
07
FB
FA
16
FB
F9
32
FC
0B
20
FD
03
0D
07
F7
FF
FC
0D
15
0D
11
F3
EB
F6
00
17
EA
12
FC
F2
FD
FC
F6
EF
F7
03
0F
F6
04
0C
FD
C7
0D
0D
15
21
F4
FC
09
0B
03
EF
04
F6
F3
EE
05
EF
EB
10
0F
0B
07
F3
FA
FD
10
FA
00
36
FC
04
05
F5
12
F5
F0
FA
02
D5
20
13
28
05
0C
17
E4
E7
F9
10
E6
F0
FD
02
FF
F2
0D
CB
05
01
17
07
0A
D3
EA
1A
D9
F8
00
F7
FA
0B
FC
F5
F0
FE
EF
06
FA
13
13
02
10
E0
E7
FC
FF
01
E8
07
FD
0B
1C
19
0B
FC
02
04
FA
18
FC
01
15
E5
0D
F0
F5
09
2E
F3
F4
F3
01
06
03
F6
F0
0A
00
01
06
E7
FD
0C
22
13
05
0C
0F
D5
FD
C7
EA
43
F9
02
F8
F3
FD
C9
15
EE
08
DA
DF
E6
EB
F4
E9
E1
22
E1
F5
FE
F8
BD
FD
DA
EF
F8
FE
0D
EE
0B
EE
0D
F2
DF
CD
09
E0
08
F8
07
FD
EA
FB
F7
F9
18
E2
E8
15
FA
F4
F8
FD
FE
E8
F4
09
FA
0C
D7
E9
08
09
01
FD
EB
03
DA
F1
F9
FD
05
05
EC
E3
FD
F3
11
18
F4
0D
F7
F4
F0
E7
EA
0D
EB
F4
F1
07
02
04
F1
F6
03
F1
09
01
0B
F7
07
F8
F9
F8
09
EF
01
12
EE
F1
14
07
F8
E7
03
F5
FA
F9
08
11
F9
F2
E8
E8
FC
D9
22
F7
10
11
0E
F2
2A
F4
0D
FB
E6
0F
01
EF
00
FF
FC
2D
17
F9
F7
F1
0A
DC
DC
F5
29
00
06
06
0D
F1
02
FA
2B
39
F9
1B
0D
08
FD
22
06
0B
E7
06
CC
2A
04
26
07
15
07
F6
EA
D5
DE
FB
13
E1
07
01
04
01
01
2D
1F
E9
FD
12
F2
FE
00
05
EC
20
FB
FA
0D
0B
06
F1
0A
37
0E
FF
0C
EA
EF
9D
FD
00
19
EB
E8
FD
00
ED
16
E8
16
18
02
02
D8
04
FD
FF
F8
F5
23
04
ED
F9
ED
FC
07
F7
11
0D
F9
DA
F3
19
17
25
04
E7
09
FB
F2
03
05
09
0E
EB
F9
0F
EF
12
03
E6
06
01
17
00
DC
FA
05
E1
F0
15
03
FD
E7
FC
02
12
13
F6
0C
0A
04
CB
00
00
F2
F7
E0
F3
F0
F0
09
F4
28
DF
07
FE
FE
DC
20
FE
EF
0A
FB
07
04
E8
D1
F7
FD
13
05
00
06
01
EC
FA
10
EE
FE
0B
F1
E0
FD
FF
F2
10
06
F8
06
0B
03
E0
11
07
F0
0C
F2
05
EE
02
F7
0C
FB
EE
07
10
07
06
EB
FD
FD
FC
09
E0
06
10
EB
09
F4
02
04
02
F9
E9
FD
04
F9
F5
F5
FD
E2
E8
F3
01
E0
05
F3
EB
0C
06
E7
FF
FE
02
CB
10
03
FE
F3
01
10
F2
13
0B
06
02
0B
11
04
0B
10
F6
07
0B
F2
ED
F1
12
1C
06
0E
FA
EE
E6
E4
1B
16
24
2F
F3
04
03
F7
E4
01
F9
29
07
0A
FA
0A
1C
0D
FF
09
FA
04
10
F8
E1
F4
F2
3F
E3
0C
02
FA
FF
EB
E3
02
06
07
F7
F4
06
04
2D
08
F6
FC
EA
F5
1F
FB
FD
12
05
03
13
E5
F3
10
25
18
FB
09
20
EF
F0
F4
FC
F8
F7
00
FA
07
FB
05
FD
ED
EC
13
05
F8
F7
F5
17
DE
05
EA
18
1B
FB
FF
08
09
04
FD
F4
F7
F2
E8
0C
F1
0D
FB
1B
F5
12
1C
0E
FF
08
DF
25
EB
0A
F6
01
F5
F8
E5
0D
F0
D5
F0
33
F1
E6
16
F7
07
05
16
26
D1
21
3A
07
00
FA
06
06
EA
F6
03
EE
02
F3
14
DD
1D
07
0B
FC
F3
05
EB
D5
01
EB
FF
F3
DC
F4
0E
15
02
FD
FB
2C
E9
FD
04
E4
02
0C
FC
D4
EC
0A
07
FF
F5
FC
F6
EF
02
F5
1B
00
0B
FC
EE
FC
16
06
F3
28
02
0A
EC
08
FF
FE
09
FF
1A
F9
0F
FC
F3
FD
F4
0A
06
15
11
01
29
FF
FA
00
08
02
04
F5
02
F0
21
FF
FA
EA
14
0F
02
18
01
FF
F9
F0
1A
0F
0B
EC
0B
F7
FA
0F
ED
08
FF
02
F3
EE
F6
1F
04
F2
E9
EF
0C
DC
25
FA
18
0D
F5
F1
01
1D
FA
06
F2
1A
0C
07
EF
F7
F8
E5
01
09
07
FC
06
FB
D3
F1
FF
09
08
01
F2
00
03
F8
E8
15
0D
0A
F8
E6
02
F6
12
0F
15
D8
04
07
F5
FF
03
05
FA
F0
00
FD
13
F4
06
0E
F1
FA
FC
05
12
0E
FB
F3
16
05
FD
EC
12
F7
F3
FD
FE
F5
F8
F1
E7
0C
FA
09
22
11
09
03
08
FE
09
0F
08
EB
DE
0B
EE
F1
0B
E7
0A
F2
18
16
EB
DB
EA
0F
FD
0B
0B
09
FC
00
FC
FB
FA
0F
FD
14
07
FE
09
FA
1E
E6
E6
EB
E5
03
E0
04
FC
FA
03
22
DD
17
0D
09
03
0D
0D
E5
03
13
F4
18
FA
11
F4
F8
F5
14
19
15
04
F9
FF
0F
FB
F3
FF
E8
04
EC
0C
EA
13
EF
F4
FE
18
FC
0B
05
22
F3
05
1C
15
15
F1
0F
0A
FD
E4
17
E8
05
01
F7
08
DB
F4
08
F2
04
0D
FB
D7
EC
EF
E3
02
E7
0D
F3
1A
02
FD
F6
D0
F3
FE
ED
FA
07
15
EA
07
01
DA
E4
04
F3
EA
0E
FE
0E
06
F5
FF
11
20
0B
0E
F5
FC
16
FE
04
0E
15
EB
0E
00
D0
EF
F6
F2
13
0A
01
ED
E6
C5
05
1F
0D
F4
FC
F6
EE
D0
0B
EB
F8
10
0A
0C
FD
02
E8
F4
F8
04
E7
F2
0D
BF
10
F6
D6
0E
00
ED
0A
02
04
0A
F8
07
0C
19
F3
F6
0A
14
12
FF
FE
F8
03
1A
FB
F0
08
F3
FC
DE
01
FF
15
0A
00
F0
FA
EB
FB
10
EB
09
F1
1C
0A
F6
F9
E2
10
12
11
F5
04
04
EF
06
FF
FF
2A
F3
FB
EE
06
F0
FE
3A
08
04
FF
0A
0D
E9
F6
0C
F1
F0
EA
15
09
07
DF
DD
1C
12
EC
FC
06
FB
06
0B
EB
12
1C
DA
08
F8
E7
03
13
F1
0F
18
FD
03
07
21
DB
08
00
FF
22
16
06
0E
F9
10
05
FF
04
EF
D9
F9
F3
07
EC
E4
FF
0C
0D
10
05
FF
F5
EC
0C
F9
FC
09
18
FD
02
06
1A
F7
F5
FD
09
01
07
F9
03
F7
05
09
07
06
FE
01
F6
F0
12
1E
08
08
0F
FE
F7
04
20
EB
FC
E6
06
0A
02
06
0A
16
03
0D
FF
13
E9
EE
0B
FB
21
1E
FF
FB
F4
FD
F4
FC
05
FE
0F
0A
20
0C
0A
FD
04
E9
04
FD
11
F1
16
E6
F2
FF
06
FD
02
05
F2
F1
F3
F2
F4
FE
EB
14
FB
05
03
03
EF
0A
FE
E5
16
FC
12
FD
FF
F9
EA
DF
07
D8
F3
01
0F
E5
1C
F5
25
0A
0B
05
EA
13
F5
1B
F7
02
FF
FD
05
F0
22
00
F8
01
04
EF
F7
02
16
02
06
FB
06
FB
04
02
FB
E3
06
06
10
FF
E5
10
FC
08
25
D6
1B
F3
02
F5
06
02
E3
0A
F5
19
F6
0B
EC
DF
02
ED
F7
F2
FE
04
14
37
09
E8
DF
FD
F4
0B
F2
F5
05
20
05
FD
E5
12
F4
F4
05
0D
04
0A
EB
14
EE
FE
FC
EB
19
EA
F8
1A
F6
EA
FD
ED
D4
F2
F3
02
10
06
03
07
04
12
09
0B
F7
D7
09
2C
EB
EA
F1
09
E5
2E
E4
21
02
EB
1E
EC
10
E7
E5
F9
ED
04
00
15
E4
1A
08
E0
DD
EE
F9
F3
E3
03
FF
D8
0C
E2
FD
FB
E0
06
06
FD
F6
00
00
F1
F8
F0
FE
E6
F1
1E
EF
ED
E0
1A
0D
19
25
10
EE
D4
FB
F4
0E
DF
FF
14
FF
FB
09
F0
0F
ED
02
0B
FD
06
12
13
16
FF
05
10
0C
05
FB
FF
06
F2
F5
FB
04
FA
10
F5
0A
F8
1F
01
EF
FE
07
FB
FC
04
0C
13
15
02
F4
04
F9
F9
FE
F3
FD
E8
10
EC
04
0D
06
09
FD
ED
19
00
1B
15
11
07
1C
F4
F6
E0
FD
07
12
08
07
03
0D
EC
15
F4
06
FF
E5
08
FE
0F
D5
F4
11
00
F5
F9
FA
FD
FC
05
00
FB
FD
0A
25
F7
06
0B
02
05
FF
FB
00
0D
0A
06
F7
F1
FE
EA
18
FE
05
08
FD
07
0A
0F
F6
04
1E
0E
F7
FB
04
02
E3
05
EF
EE
02
ED
FA
15
F8
EB
13
05
1F
D8
0B
11
09
F8
04
29
04
F8
06
2D
0B
F5
F6
0B
0C
EC
F8
0B
05
F6
03
0B
21
0C
0B
26
FB
07
09
E9
13
10
F9
FE
14
F6
14
1D
01
0D
15
EE
32
01
FD
CB
F0
12
08
FE
06
28
E9
F0
06
00
F3
F5
BF
F9
0F
05
10
FE
12
06
00
02
C3
06
07
FD
03
06
2D
05
00
0C
DC
0C
F3
1A
F6
F9
00
02
E2
C1
23
F4
FD
DE
0B
F4
12
1B
11
01
17
1F
23
05
F8
19
FB
00
0F
F9
0D
11
EA
E5
FF
03
F1
07
13
0E
E1
E9
FD
0F
34
EE
F1
EF
21
1B
16
23
FA
01
F3
09
04
03
12
21
07
EF
0E
ED
0D
F0
D5
0D
FD
03
FC
D2
F0
D3
F6
DD
FD
FF
EC
0B
EB
EA
0B
18
12
FE
F7
F1
06
04
19
0A
D8
1B
15
F5
17
F2
F4
0E
28
6C
F1
08
FA
01
E8
16
F7
05
05
FE
0B
FF
FC
04
F4
E3
E4
FA
E5
01
00
03
EA
FC
0B
0A
EA
F3
FF
00
0D
0B
0F
F9
DD
18
CF
0A
F6
12
09
E2
F3
02
F7
19
03
0C
1C
EB
02
16
09
0F
FF
FC
FD
F6
03
F5
FB
08
FF
E4
FF
11
0A
F5
0F
0B
1F
0C
0E
07
E5
33
F7
16
F7
0B
04
37
13
F0
FC
2E
FC
E4
08
06
05
10
FC
EE
0A
FC
1B
FC
03
FB
0C
E3
04
00
0C
F5
00
0C
1C
0A
02
F9
E9
00
0C
FE
E4
FC
05
20
15
28
0C
F4
F0
03
F7
27
EB
EE
09
0E
FB
04
19
F3
01
06
1A
06
00
F6
FE
00
0C
E0
F5
F2
04
FE
F4
01
FF
F5
0C
FA
FF
EF
CE
F6
FD
07
FF
E8
C5
05
00
EF
0A
0A
02
F1
FB
E1
DB
E8
22
04
DD
FC
F0
05
FC
FD
0C
13
02
ED
00
05
03
06
FC
10
14
00
F5
F5
2A
08
F9
EF
27
21
07
03
FD
FD
FE
50
06
FE
ED
DC
E9
F7
F6
FF
F7
13
04
DF
0F
04
ED
F6
F1
08
07
11
05
FB
05
F5
EB
10
0E
04
FF
0E
20
F9
FF
22
07
11
F6
F3
FC
F5
DA
0F
08
03
18
E9
F4
FA
07
F4
F9
FE
F8
0C
03
F6
03
05
F8
DD
0E
F1
B8
EA
08
E7
04
20
13
FB
0C
EC
D4
FB
F5
09
C9
F5
FB
02
F2
C7
06
ED
FD
0A
F9
0C
F9
21
14
EC
F2
0E
F1
03
F8
03
E9
EA
04
0D
0E
19
FA
08
02
05
14
0E
FC
E9
12
18
E5
09
F1
E7
FE
D4
E8
E2
08
E7
20
F4
F8
CF
13
FC
FA
21
E7
EE
DB
08
10
02
01
D9
F5
07
14
EE
F5
FB
F9
DB
FA
05
ED
F9
0E
0F
11
04
C9
F1
11
F0
FA
07
13
05
DE
0C
05
E7
F1
DA
01
FE
09
02
03
0C
03
EC
0F
0E
E7
DA
0B
F8
0D
04
0C
F5
11
0C
E9
EE
05
FD
04
FE
E4
FF
05
0D
F9
11
FD
07
F6
04
F2
E8
03
0B
01
F1
04
DB
FC
F9
FD
0B
1A
FB
12
11
DD
ED
08
0F
FC
01
0D
0E
FC
E3
0B
0D
FF
F5
F6
09
0B
00
EF
FC
F8
11
22
F4
02
E4
32
03
F7
02
FF
11
FD
EE
EA
FF
05
32
E6
FF
E5
E2
E9
F0
FC
0D
FF
F7
F1
1F
F2
FF
EA
04
F7
0B
FE
04
FE
0E
04
ED
09
FC
08
15
08
FE
0F
F6
1A
FB
1A
13
F0
FC
00
01
C7
0C
07
FD
00
E9
1B
E4
CA
F8
FA
F2
07
05
00
11
FC
F5
CB
FA
13
12
F2
F8
F6
03
0A
0B
28
0A
FC
02
EA
FF
FA
F4
EE
D9
FF
07
02
DB
F3
F0
F2
06
EB
F0
F4
F8
05
E1
ED
06
E5
19
00
0A
05
07
06
EA
FB
FF
F1
14
01
11
FA
F4
0A
12
0E
D7
FF
FA
3A
32
09
FD
F7
FB
FC
C4
11
F4
07
08
09
03
09
14
1F
FC
E7
0F
16
F2
21
CD
04
14
15
E8
F9
05
F9
FD
EB
E6
16
10
38
F3
1B
02
D3
05
F4
09
11
EF
FB
D6
0B
02
0D
04
3F
3C
E6
03
EE
F1
07
07
FC
13
F7
F7
F9
FF
F0
F9
EF
23
CF
EA
F0
EF
10
F5
0F
04
FE
EE
88
F8
FF
16
CF
F5
0B
0B
E3
FF
D9
FB
06
F9
FC
01
F0
01
F7
08
FB
F9
F0
1E
E5
ED
EB
FC
0B
EE
ED
F2
FE
E3
05
F9
1B
26
F3
FB
09
01
05
FE
2D
F1
E0
D2
D7
FE
0E
D5
FC
FB
00
0D
F3
FE
00
22
0B
22
EA
0E
EF
F6
ED
EF
11
FA
07
A6
0A
EF
EC
F0
0D
04
F4
09
F7
FD
D4
ED
CB
16
F9
10
13
E1
22
F3
09
D4
EE
17
F5
F8
FC
FA
10
EA
01
0A
04
F4
EC
F6
11
EA
F9
04
06
FE
FF
F9
04
EF
EC
EA
F8
FD
EF
17
14
FB
F4
03
0B
E1
0F
F5
03
F7
FC
FD
16
18
0D
06
E7
0D
00
03
CB
03
0A
11
F6
FD
E9
0B
FB
FC
EB
F2
F6
FD
ED
0B
0A
13
00
FE
F8
F7
10
EB
0A
02
F5
18
0B
1C
F5
F6
14
D2
0C
F7
03
EC
FF
CF
13
FD
EC
B1
05
F8
10
03
F6
F3
0F
F2
10
F9
0D
21
FB
E1
FC
27
04
02
FF
01
10
02
21
26
2F
FC
F0
F6
FF
F9
06
FE
07
F6
1F
D2
F4
EF
D1
FE
E4
63
F9
03
FE
0E
EF
0E
03
18
0D
FB
08
02
F3
E3
E6
DA
E3
07
0A
F8
07
F0
15
FF
01
11
EC
0D
F4
0A
F0
0B
F1
05
1F
F4
BE
0E
01
00
08
07
16
F8
ED
0C
E8
05
FC
05
DF
FC
FE
0A
EA
05
DB
02
F4
03
01
0D
F9
F3
E6
F4
E7
02
FE
FB
E7
20
F7
EB
F6
BD
0F
E7
F0
06
06
F3
14
02
12
1E
03
11
10
17
1A
EB
FC
EC
0B
01
E0
BE
EA
EA
F3
D1
0C
FD
EC
FD
10
E9
01
E0
F0
0C
E6
FC
EE
0F
F4
02
E9
19
E0
BD
EB
FD
12
00
23
A1
02
E9
E8
08
F0
F9
EB
F2
FF
01
EC
F8
EA
04
0F
0D
2B
DD
14
09
F8
F4
DB
FA
FE
0C
0D
03
07
F7
1B
FF
F6
0C
02
ED
FA
FD
09
0E
FC
0C
FF
15
E9
0D
EF
10
DE
12
E8
06
F4
10
EF
FE
F6
07
00
F1
04
09
0A
EC
11
09
F8
0F
F4
F7
15
E7
F7
15
C7
F9
0E
02
10
F7
F5
DA
F3
10
06
02
F8
02
EA
03
EE
FD
DF
0E
03
05
F0
01
E3
2F
06
EA
F0
02
E6
0F
E9
05
FD
EB
CD
F9
11
DC
02
11
E3
F5
0A
1B
E0
C9
11
EE
05
FC
16
F5
EB
E6
EE
EA
0A
19
D9
FE
23
FE
E1
FE
DA
18
1F
08
F8
28
E3
FD
05
F6
ED
00
F6
F5
15
F7
05
FF
16
02
F7
E6
1E
F7
ED
F9
F8
08
0C
1E
F5
F1
16
FD
FD
FE
ED
0B
FF
FA
EC
E1
09
FC
F4
E1
E9
F1
00
E8
0D
29
F5
FB
10
FB
04
F1
EA
14
0C
11
2C
FB
12
F5
08
07
00
FC
25
09
F2
D7
06
EA
0E
ED
F0
F3
10
0F
FE
06
