02
00
F2
D6
DA
FD
D4
18
D7
05
0D
00
FA
FC
F2
08
E6
F9
F7
0A
EC
F1
E0
07
0B
05
0B
F7
FF
08
17
F5
F0
D5
13
01
12
10
03
F6
F2
F0
FF
00
06
FC
03
FD
18
E9
D3
1A
14
13
0D
F7
FB
0A
EF
10
06
FC
07
0C
18
0A
01
F3
11
F9
0F
EA
E9
E7
F7
F2
12
DE
E3
F2
F0
F7
0E
16
0A
F6
F3
FD
E5
D7
F4
F9
1F
EE
ED
12
F9
F6
E5
FD
E4
F1
DC
00
07
E2
EE
E2
0C
E6
E4
0F
CE
F1
F8
D5
10
F1
12
EF
E9
0C
0C
13
24
FD
0C
FC
04
00
D9
E9
17
FA
FC
FB
CE
F5
EF
FA
F8
DD
F7
F1
F5
E2
F2
08
02
F1
F4
E1
FB
E7
0D
13
07
FD
EB
0C
FA
05
E1
E7
02
01
EF
02
0A
ED
09
DB
14
FD
FF
02
F0
F5
F3
E2
10
F9
0F
F8
F7
F8
0A
0D
10
E8
F4
09
F8
E9
DF
F6
FE
FE
EC
12
F0
15
02
18
E7
F0
FD
13
05
FC
F1
DE
0B
EB
FA
E2
11
17
08
02
F3
07
FE
EB
F9
FA
07
0D
07
E4
FB
EB
03
F2
09
01
ED
07
FA
0F
1E
05
FD
1E
12
F9
E1
08
F8
F4
0C
EA
E5
F6
F5
04
FB
EF
09
1F
E1
EE
F7
FB
22
19
0F
F9
EC
21
FF
FE
05
D9
1F
E4
24
EE
0A
EC
05
F4
11
19
EB
05
E8
19
E9
FF
FF
14
12
F7
03
F8
F2
0B
FF
F8
04
F6
1D
EE
F6
06
04
FF
F4
FB
E4
E7
19
02
18
E8
F2
EE
08
E8
F5
E1
03
07
ED
FE
F4
F4
05
0D
0C
08
EC
03
CC
FC
07
FB
E5
ED
E2
E8
06
03
13
FA
EF
0A
E7
E6
0D
04
F1
02
F7
FC
DC
FE
E2
D6
FB
D6
E1
F8
04
F8
D7
F9
15
15
02
0D
EA
FF
FB
09
EC
05
EE
F0
F2
F4
EB
FF
02
F1
F3
F3
0E
F7
F4
09
09
0D
FD
0B
F8
F9
04
00
F2
F3
F5
E7
FB
F6
FF
FE
08
0A
EF
FF
F5
D8
F8
F6
EB
06
F8
0E
ED
08
04
F8
FA
04
00
FA
00
FE
DF
05
FD
FE
F9
06
F7
D4
F4
02
FF
F7
08
F9
EF
F9
F2
08
E7
0A
FB
FB
FB
F6
E7
0B
05
06
F8
F9
EF
F0
0B
09
0B
F1
0C
EB
17
08
FE
FA
EF
FF
DC
FB
FD
FD
EE
F3
F2
02
F7
FE
02
F5
12
DB
0F
FD
FA
F6
F4
FF
FA
07
08
00
05
FE
EE
F0
DA
0F
09
FF
09
E2
FE
EF
03
10
02
00
F6
0B
FC
01
08
EF
FA
FE
F8
E7
F7
F0
EB
0C
FE
FE
07
EA
FA
F4
EE
F2
FA
FB
F7
07
05
F5
F3
FE
FF
F8
FC
EF
FD
05
02
EA
14
E0
FB
F1
F9
EE
FD
0D
03
08
F1
07
F7
DF
EF
05
02
E7
01
03
FD
EA
EE
FF
D1
D3
FF
07
0E
EF
FE
FF
05
13
01
02
DF
FB
F8
01
05
0A
F3
C4
F8
09
16
EF
03
08
DF
FC
C3
0C
F1
F9
EB
0A
F5
FB
1B
F3
F8
DA
09
F0
F5
09
F6
FC
F4
11
01
00
0C
F1
E8
F8
D6
0E
F6
EE
FB
C8
C8
FD
02
FC
F6
03
F1
D1
ED
F9
E1
FA
F3
F8
F7
F9
00
02
F6
0A
F8
03
00
00
0C
DC
D4
F4
EF
F4
FD
F4
0B
FC
F2
0C
05
F9
0A
E7
FE
04
00
0B
E9
00
F3
F7
03
F7
F2
FD
14
EF
E9
F9
0A
04
0A
F2
FE
06
FB
06
F9
FD
EF
FF
EE
09
F9
E4
ED
F4
F9
EC
FA
FF
ED
06
FB
04
FF
F4
04
0D
05
01
F5
EB
00
F6
EF
F2
FD
FA
11
07
01
03
05
EC
FF
DB
FA
F4
0D
FA
FA
E7
01
00
0D
FC
F3
FD
FA
09
08
FC
09
F1
09
EA
07
EE
ED
04
03
F6
F0
01
F3
0B
11
D6
F5
F5
F2
00
C6
F1
FB
01
17
04
19
05
E9
02
02
12
FE
0F
F7
EB
EF
F6
E6
D9
05
06
0E
EE
EE
EE
0E
DE
F5
FF
01
F5
F1
06
F4
DE
02
0D
00
FB
F7
F4
F3
FD
08
01
0B
01
FF
E4
FB
07
FC
01
F7
10
FB
0B
0C
DC
DC
F3
08
E7
DE
F5
FF
FD
02
0D
FF
EC
F7
0A
0A
F5
13
06
ED
FB
C9
D2
0B
D8
0F
F5
0F
10
F7
FB
F2
E8
F9
0C
00
1A
DB
06
0F
00
0C
09
F2
EB
C5
DF
FD
E8
E7
03
01
CD
FD
F0
15
07
11
E1
01
CA
03
F3
FC
FB
CC
F2
12
EB
F2
0F
06
0B
F2
01
FD
03
EC
EA
F1
F9
FC
07
08
06
F4
F4
0C
D0
FD
03
F8
00
EB
D3
03
E6
FA
ED
01
FF
F9
F7
F7
02
05
FA
FC
03
00
E6
0E
00
02
03
FE
F6
02
F7
FC
F4
01
04
00
FF
00
FD
F3
F3
FE
F8
EA
FF
04
FB
E9
05
F3
01
FA
04
05
FD
F8
F0
01
FD
00
00
F8
01
E8
FF
F0
FC
FB
0B
EE
F4
04
EF
FC
F8
01
F2
06
FD
00
13
F7
FB
F1
FF
10
FF
F9
08
03
FB
E3
FC
FD
F0
FB
F6
FE
E9
07
08
F4
03
F0
CA
E6
00
07
FD
BC
E7
DE
0E
00
F4
FA
F0
D8
E2
F1
0F
04
EE
CC
08
E5
F4
06
ED
09
02
00
06
F0
E8
07
F9
F1
EC
E6
F2
D9
F2
E7
10
FE
EF
0B
15
EF
CB
E6
EA
0F
09
10
D0
EE
EE
06
00
FB
EB
F1
FA
D6
F2
EB
01
EF
EC
FA
F6
0C
F7
0F
E5
FB
F4
E9
FE
1C
08
E8
03
02
E8
FA
E6
F5
02
FA
FB
F0
FC
04
08
FE
18
FA
F9
13
05
E2
F9
F7
F5
E3
0D
03
06
F6
F2
F9
FD
FB
FD
FF
FD
02
FE
D1
01
E0
FB
F5
EC
E3
F0
03
00
0D
F9
FB
F3
E1
FB
06
FB
EE
F3
ED
00
D8
02
FB
FC
02
FD
F2
07
05
0E
0A
EC
E5
0A
02
C4
0F
08
F0
FF
FC
05
E4
FA
04
E1
F7
F5
06
F4
F5
03
F7
00
04
05
F6
03
01
ED
F5
F5
FE
01
FA
FF
F4
EA
F3
FC
0B
19
FA
01
FB
E5
07
F9
EC
EA
02
FB
10
FF
F3
EA
EC
F2
0E
0A
F8
FB
E2
FF
EC
DE
EF
F4
0D
DE
DC
FA
F4
F5
F0
E1
DE
F9
09
06
E2
EE
FC
DF
06
F1
0B
FC
03
E1
F3
FD
01
EA
17
EC
05
FF
08
15
16
F8
F0
ED
E7
0D
FF
F5
DF
EC
F1
F6
E7
F0
03
09
FE
F3
04
01
E2
01
17
00
FF
0B
F7
FC
F9
F9
FF
CF
07
FC
E0
EA
01
F5
0E
04
F0
EC
0F
F7
F2
0F
F4
05
F7
03
EE
13
FC
E2
F7
F8
0A
F1
F8
FC
14
F7
08
F8
04
EE
FD
F4
E2
08
F3
FE
F6
F5
06
FD
FD
D8
E2
D8
1D
03
10
CE
FA
FF
08
EE
0C
EA
D1
00
C8
04
FF
00
F1
03
FC
F6
FC
EC
0A
EB
FE
FD
10
26
E8
08
2E
16
F2
06
1F
F1
CF
DF
D5
07
DD
FB
E6
EB
16
0D
25
EA
E9
05
2B
C6
FE
F3
F3
02
ED
F2
F1
E9
01
03
0C
EF
0D
FC
09
00
0A
F2
FA
0A
EF
FB
01
F0
02
FB
F2
F9
05
FB
DE
0B
E5
13
FB
E3
F8
05
F5
09
0A
FE
FE
FD
14
FD
00
EE
F3
F8
05
02
F2
F7
FF
FA
F6
03
FD
09
F9
F3
F0
FD
CF
0D
0A
FD
05
F9
E8
00
02
F3
FB
05
E5
F5
0E
0F
14
10
FB
EE
06
FA
F7
04
FC
0B
F6
FC
D9
02
EC
00
F6
EE
F9
F6
FD
F8
03
EE
F7
12
14
FB
04
0D
F1
EE
F8
08
FF
04
FE
F2
E6
07
F5
10
FD
DB
D3
0A
FF
FD
E4
EC
F6
04
CB
F5
F5
00
F7
17
00
0A
FA
FA
F0
06
02
EC
EB
FC
E4
FC
11
FB
22
F9
03
F9
FE
00
08
04
F6
09
09
08
06
02
F6
EB
F5
08
E8
06
F9
F4
03
10
00
01
00
05
FE
FF
01
EE
FD
F1
E4
F7
F0
F6
F7
02
F3
F4
FF
09
F2
F8
08
0B
04
0B
16
0F
E2
02
FC
03
FA
E4
F8
E5
F2
E7
01
EA
1B
FA
02
0B
E4
F7
F6
08
F6
03
12
09
FA
FB
F8
EC
00
F2
FC
F1
EB
0D
FF
FE
0E
09
E9
0F
03
D5
E7
05
01
02
08
E9
E1
F4
F6
FF
10
1C
FE
03
0D
10
0F
0E
F5
E0
F9
04
19
F5
09
17
FC
01
0B
16
0E
FB
F5
FE
EC
F7
01
EB
1D
F3
ED
FB
11
0A
0E
0E
EE
11
07
18
03
10
01
ED
04
16
FB
F0
FB
F8
F6
EE
16
FA
19
04
FB
08
1C
1F
1C
0C
1E
1B
F1
03
F7
F9
F2
F3
F6
FA
07
08
FE
F1
F5
06
FA
F7
F8
F2
02
FA
F5
F0
FB
EC
04
FF
F3
FC
F7
FB
04
F7
E8
F6
FA
FC
F0
F6
01
F7
F7
F0
F2
FF
01
F0
ED
09
E7
F5
00
FC
04
FB
03
F2
FA
E4
F5
F0
F9
F0
F3
F3
F5
FB
F9
FD
00
FF
D8
04
FE
FD
EF
FF
FF
0A
FC
FE
F9
F7
05
F7
06
FC
FA
FB
01
F6
F3
01
FD
FA
E9
F5
FA
00
03
04
F9
F6
00
F8
00
FC
FF
F1
FD
06
F2
FB
FE
FD
F5
FD
05
EC
F0
F8
06
EC
0D
0D
01
ED
01
13
EF
E9
FA
F9
FF
FC
FB
0A
0C
04
01
0F
EB
E8
F8
03
F1
FE
E7
EB
E7
E9
FF
FD
0B
FE
01
00
F2
F0
05
FF
E7
F8
0A
0C
F3
F2
01
E3
09
F0
F1
14
FE
07
F2
0A
0D
F8
05
13
04
00
E7
FC
F7
F9
F3
E7
02
F0
FF
FE
DE
DA
FF
15
FC
0C
F4
E5
1B
F5
09
0C
13
08
10
D7
10
E9
D4
C7
05
FF
0F
04
F9
FD
15
E6
BB
10
E9
18
15
14
F3
06
1A
FD
DB
D9
FE
0E
CA
22
DE
E9
19
E5
E9
14
20
E2
D2
F1
D3
EB
E2
07
FB
BF
D0
F7
E8
E9
F2
ED
00
03
24
10
04
19
0B
F7
F6
05
F5
F1
07
1C
FA
0A
06
F6
F8
00
0C
14
FE
0A
07
0B
F2
01
FE
0C
0D
F6
FE
16
F3
E7
08
F0
12
03
FB
0B
EA
FD
05
0A
19
03
FA
09
06
FB
EA
19
07
22
03
FA
EC
16
04
2C
F2
D6
EF
E9
07
FB
F7
0F
FA
14
FF
F5
04
E5
F3
0E
F3
02
DB
FD
FC
FC
09
09
12
0E
EB
02
ED
F5
16
FC
EE
D9
FE
09
F6
F9
D3
06
F7
FB
DD
FE
F9
04
C2
F4
12
0E
FF
11
09
EC
F4
0D
C4
F6
ED
00
FC
02
DD
0D
EE
F0
09
14
EF
F0
E4
05
FB
0A
EC
0F
F6
06
F7
07
04
F8
EB
E5
0E
06
F7
FE
0B
09
FA
00
F1
F5
F9
FC
00
0C
09
13
0C
09
FA
F8
EE
F8
F2
FD
ED
EF
09
0D
08
0C
FF
04
06
01
EA
D2
F1
0F
F3
04
E0
05
E9
FE
FB
F9
02
04
03
F9
E8
00
FE
03
F6
F3
FA
E9
02
02
F8
08
04
F1
0A
F9
FA
F4
02
FC
E9
FF
FC
FF
EE
F7
FA
F7
06
05
06
E4
F6
F4
FA
F3
12
12
F8
FC
FB
02
F8
FA
FB
01
EF
E9
E5
FF
F9
EF
09
F5
F3
EA
F7
FA
F9
00
FD
E0
02
F6
CE
16
ED
F5
E3
FC
01
F7
0E
07
E4
03
09
F2
06
20
E9
F9
F9
05
F4
F3
FE
00
0F
04
F5
E8
07
FA
E8
F9
02
FE
FB
F9
0A
F4
FA
0E
E2
FD
00
F8
01
05
02
F8
EB
04
07
F1
FE
FC
F6
03
F8
FF
FD
1B
FF
FD
0E
00
FA
07
CB
E2
E1
E9
06
F9
E3
10
F2
F7
FF
03
19
F3
CD
0B
E5
E7
F1
E4
FE
EA
F4
DD
F2
FC
F9
F2
E6
13
0E
FF
E9
F9
0E
DD
04
22
ED
D8
AF
F7
DF
0C
00
E9
05
E6
19
02
1F
03
03
09
03
12
DD
FA
FE
08
FD
08
F4
09
F7
0B
07
06
DC
0F
FB
07
03
08
06
EC
03
03
03
02
13
FA
E7
09
EE
E8
04
FA
F7
FA
F9
05
FA
04
0D
DD
04
0F
EC
F6
FC
FF
F3
05
FF
13
09
02
EC
0D
E3
FB
05
EB
ED
E4
FA
F3
EB
FB
DA
F3
FE
07
DC
FE
C3
07
00
0C
08
15
F2
12
FC
02
0C
04
ED
FD
02
06
F2
F4
0E
05
09
FD
ED
03
09
E3
EC
02
0B
F5
F2
F0
FF
E9
ED
02
E8
F4
E5
08
06
0A
04
06
00
09
F9
FD
FD
01
FE
FC
F2
F6
F4
04
FD
07
0E
FE
F1
13
04
09
06
15
F7
F2
0E
E8
0C
09
06
10
FA
09
00
F7
05
00
0B
00
FF
11
04
0C
0E
06
10
03
1E
FB
05
1A
FB
FA
00
0E
0F
01
17
09
09
05
07
08
15
0E
0A
FF
09
04
01
12
FA
05
FA
07
FA
1D
08
0D
E3
0D
E8
FD
DB
F5
FF
19
EC
CD
F1
EE
1B
05
0F
02
D9
F8
FB
08
04
03
E7
01
CA
FF
07
DA
01
22
04
E9
F8
EE
26
FE
18
E9
F0
06
FB
1C
10
14
E1
0C
F3
07
EF
EA
F5
F6
FE
0D
F2
EF
ED
10
F6
F4
F9
ED
24
1A
E8
0A
FD
F6
EE
F4
EA
08
06
01
07
FA
E7
F4
F4
02
F2
F8
04
01
FA
00
03
00
03
04
F1
0D
F6
EF
F2
F9
F8
04
F8
F9
ED
F1
FC
F7
F8
EF
EA
0A
FC
FB
E4
F0
F5
FC
F9
FD
F7
EA
F2
E8
F4
F1
F3
F2
EE
EF
F1
F7
FD
07
FA
06
F3
F4
D3
06
FE
FA
F0
16
FC
F4
EF
06
F3
09
FB
06
F5
E1
EE
0A
12
06
E4
F8
FF
F4
0D
F0
EE
EB
15
E7
E2
00
F5
03
EC
DF
E5
F5
00
13
F5
EC
00
0A
05
0F
10
E3
FF
FF
F9
E5
F6
10
F8
EF
EC
F7
FD
0A
F3
F2
EA
E9
F1
03
F3
09
F0
0A
FB
F4
FA
FA
FC
F9
FD
01
FA
F3
F8
01
FD
F8
F4
01
FC
F3
F6
FB
EE
F6
04
EA
F7
F7
08
ED
E6
EF
FF
F6
06
FD
00
FA
F7
04
FC
FD
0D
EE
FC
E9
08
E8
F7
F7
FB
EE
FA
03
EF
FD
F3
DE
EE
E7
02
EF
C7
F6
C4
FE
0F
E7
FA
00
DF
FC
07
07
E5
FE
E2
FB
F5
05
E5
DC
02
08
04
0A
F0
E9
09
F6
F5
FD
FB
09
12
08
F6
F8
04
DF
E0
0F
0F
E9
B5
EF
0C
F6
0A
0D
FA
F4
ED
19
15
F0
05
0A
F3
09
04
17
11
05
08
06
FB
15
0E
11
FB
0F
07
0B
01
09
02
03
17
02
07
09
08
15
FE
06
06
06
0E
F3
20
07
10
13
FD
F8
0B
FF
0D
08
0A
13
FD
0D
0C
07
21
0A
15
02
00
F8
FB
19
0F
25
0D
F9
00
10
16
1A
E1
FB
06
F0
EC
F8
08
D9
DC
E7
FD
F0
14
0B
15
F6
F7
F4
12
0D
06
15
FC
FA
F4
E7
00
EB
FC
06
FB
F8
08
02
1A
FC
09
F7
0C
F5
ED
25
0B
F8
00
FF
F5
00
E1
F4
EF
D4
F8
FE
ED
04
01
F3
04
01
02
FD
F8
F3
FC
F7
E0
EC
2B
11
F7
25
F7
E2
D7
D1
EF
D4
06
1D
E1
FE
EC
D8
FE
07
E0
FB
07
0D
05
CD
E1
30
FF
BA
07
E1
EA
12
00
E6
16
07
07
1A
0D
11
DC
17
D6
02
DF
E2
E3
11
E7
ED
DD
11
15
07
2C
C4
D4
F6
11
0C
F1
E6
F7
FC
FA
F3
CE
07
F4
1C
F8
0F
F8
ED
FE
07
09
1A
D7
C8
FC
01
E6
13
20
23
DC
05
D5
04
19
FB
ED
02
03
F6
DF
F1
F4
E6
10
04
DD
00
E8
0F
FD
22
1A
07
FA
03
EA
E5
C6
0C
ED
06
EC
F3
E5
F4
F1
00
EF
11
19
EB
03
FF
0C
F3
F2
F2
E2
E8
F7
12
EA
08
D7
00
10
18
17
E3
0D
FC
EE
FF
02
08
0C
D0
E4
05
FE
F5
E6
E9
DF
14
F8
21
EA
D8
12
F4
02
FB
ED
F1
B6
F5
F1
0A
09
F8
F9
F2
E0
04
2A
03
05
03
F6
12
E7
25
02
F3
05
F9
FA
FD
FF
07
F5
EB
FA
FD
04
14
0D
ED
23
EC
23
E2
EC
08
F0
F3
04
06
FA
D5
F4
F5
09
FA
C1
E7
00
15
0A
07
0E
F9
33
FF
12
08
0A
F3
E4
F9
E7
09
E3
E8
EE
F2
02
FA
2B
F0
F5
02
03
F1
00
FF
F6
ED
FA
F7
ED
02
03
FB
F3
0B
02
ED
EB
07
00
06
0B
FE
FC
FE
08
FA
06
02
E8
01
FF
F3
FD
F9
EC
F0
06
F1
DD
0A
F2
FC
F5
DD
03
F4
02
F8
F2
05
F3
F6
FB
02
11
02
01
F3
FD
F2
F2
FD
F8
F3
ED
06
EC
FE
F9
EC
F4
00
FB
F6
F9
F3
E8
15
FC
FE
0D
FB
F6
08
0B
FA
0F
1B
FD
F9
E1
16
0E
00
F7
00
EE
0F
F1
DB
0C
04
06
F7
0B
F6
22
07
F9
01
02
FC
F8
0F
08
D8
FF
08
FD
00
F9
1C
0A
FD
05
08
0A
FD
01
0A
F3
FD
0C
E3
1B
F8
D8
DC
FE
0B
F6
00
21
FB
2F
ED
F9
F2
02
E7
F9
FF
02
04
12
F0
04
01
EC
3A
ED
FF
FC
EC
FB
E3
EC
E3
FB
10
02
08
0A
2A
EE
FC
F3
FA
E1
F6
15
F5
F6
F9
F5
FE
FF
07
FF
FF
D5
F9
02
FE
F6
0D
06
D6
F1
F3
ED
01
D8
F4
F7
EF
05
FF
FD
FF
EF
DA
13
0D
05
F0
D6
00
EE
F8
FA
E7
09
FC
DE
FD
F8
F6
F4
E5
08
12
00
09
F9
0B
FE
FF
04
0B
FD
00
EE
DC
F9
F6
0E
F9
FB
EA
08
FC
FF
FE
FC
F4
0B
F4
FA
FD
03
FA
F8
F5
FA
03
FF
04
F1
FC
0A
F3
FA
F4
FD
08
02
F7
F9
EB
F9
FD
FC
F3
E7
03
F1
E1
F0
03
F8
F4
0F
FD
F6
01
FF
FA
F7
F5
F3
00
05
F8
F7
E9
01
F7
08
00
02
EF
04
F7
F6
EA
00
09
FD
FD
E9
F8
F6
08
0C
F9
DB
F9
E8
F6
F8
E9
E5
FA
05
F4
0A
0D
F8
CF
0E
04
11
04
ED
F2
E9
E2
F3
E8
03
FC
E1
FF
FA
06
01
11
FE
FA
0A
FA
FF
0D
0E
FA
0A
FE
FF
F7
FE
D7
DE
EE
F7
F0
06
EB
11
ED
06
0B
07
ED
FA
FD
05
23
08
0F
12
15
0D
FE
FC
DC
FE
EB
06
FB
EF
0C
FC
F4
FD
18
2D
05
0C
10
E6
0A
00
F8
0B
E4
D2
11
0D
F6
FA
ED
DA
FD
FE
18
E3
03
01
FB
0E
FA
F8
EB
DD
E5
F7
EC
18
E8
25
EF
08
0F
4D
25
0B
0F
0C
FF
01
F7
0B
02
1D
05
FC
08
F7
15
FE
0A
12
F8
19
11
F3
19
FA
F3
F9
0C
12
09
0F
31
01
FA
00
0D
00
E8
1B
0D
1C
17
1B
F1
0C
FA
0E
03
07
14
F1
17
F4
1E
15
F9
FF
02
FE
06
05
2E
15
0D
0B
09
F9
1B
02
18
EB
EC
06
03
EA
EF
F1
06
FE
02
01
FE
E8
FF
EE
03
0C
04
06
0E
03
12
FB
FE
00
01
F3
02
E9
EE
07
01
F0
0C
F4
F9
E2
07
04
DC
02
10
F4
FC
FA
FF
E8
FC
F8
FA
03
F8
F7
0B
F5
00
F9
EE
F8
E2
F4
F5
F6
FB
D1
F9
FA
EC
08
E3
D9
14
E3
F7
EA
F8
F3
F0
15
0E
E4
F0
E9
EF
01
15
ED
EF
FE
EC
F0
DF
E4
FD
0A
E4
E2
04
03
E2
06
F8
09
F6
F2
FA
0A
FC
E5
13
F7
FC
04
0A
FC
05
FB
FD
F4
FA
0D
E9
15
F2
DF
EE
F1
0E
0F
17
FE
08
07
03
22
03
03
0A
FD
ED
F2
E3
04
F5
00
0C
03
04
08
08
FF
0D
FA
05
02
09
08
01
09
07
03
01
F5
00
F0
F3
FA
1A
FD
07
F6
01
0C
01
F0
EE
F9
EC
F3
E9
EC
09
08
F7
F5
07
0B
05
08
FA
F2
FD
DD
FC
07
03
0B
ED
F7
F5
FB
02
F2
F0
DB
E9
07
F4
FC
05
FF
C9
08
0D
09
01
FB
F3
D4
05
F2
00
F3
0E
F7
F6
F5
F1
FA
DB
06
ED
08
12
02
0D
06
EB
F6
1A
F9
FB
02
E8
EC
D4
D7
03
10
F5
10
D6
F3
F7
EA
ED
EF
03
07
F5
F9
01
DE
10
F4
F5
F8
01
FD
EA
F8
03
02
05
FB
F7
F9
ED
F6
F3
03
F7
EE
FF
FA
E9
F7
00
FD
EE
F8
F8
F6
01
FD
F3
09
FE
FE
F9
FF
09
F1
FF
0A
04
FF
00
0D
F4
F3
0A
F5
F6
F4
0B
FB
F4
EB
F7
FB
04
FB
F1
FE
06
03
08
0A
16
F0
F4
E8
07
DB
FE
F6
06
0E
FD
F8
FA
00
FF
0B
06
F8
FD
FD
CD
F9
EF
05
F9
05
FE
F9
F3
07
EB
F3
DF
FE
E0
EC
04
F1
0E
0D
08
02
10
09
DC
F4
04
0A
F3
02
F6
F8
F4
E7
EE
FA
04
F7
EE
F8
EA
EB
FD
E9
F3
01
0A
F8
E5
F9
04
FB
EF
0C
F0
04
F8
CE
F1
F6
13
EF
EA
EF
EA
F5
F9
FE
0F
0B
02
E8
01
FF
00
EE
FD
04
EE
F6
09
F0
FA
06
DE
F0
03
0D
EF
F3
F5
0E
FA
08
0B
FC
FC
FF
01
03
F1
12
EA
F9
F8
D5
F8
DD
1B
F9
18
FB
FA
F5
0B
10
12
F0
F8
00
FB
F6
04
11
16
E9
F3
F7
F3
FE
06
EC
00
08
DF
CE
F8
FE
FB
0F
F9
E2
E1
F4
04
09
19
05
00
FE
01
06
DF
02
FB
F3
FB
02
FE
F4
FB
F0
0D
DD
04
06
1B
E7
01
DC
08
11
F8
0B
02
FC
FD
FA
13
05
F4
FD
F9
EE
07
05
FC
00
0D
DE
F3
F0
FD
F4
FC
FB
0A
06
FD
EC
FE
0F
F5
15
FF
01
FF
DA
0F
F4
0B
0A
FF
02
03
FF
E1
E4
0B
02
FC
FC
FE
ED
EA
08
11
02
FD
00
F1
FF
E7
EF
FA
F9
FE
EB
FF
14
14
03
FB
FB
F8
09
FC
0A
F9
F0
F1
0E
F3
FA
06
04
FF
EF
FB
00
DF
FB
D6
06
F4
FE
EF
F4
F2
F4
05
01
07
08
F0
D9
04
F6
F2
F2
F4
01
E8
00
E9
F5
0C
12
FB
EB
06
FE
0D
0A
F6
05
04
F2
F5
09
04
F6
0E
09
F6
FF
FD
FF
F8
02
F6
FA
EB
F6
05
F9
FD
F3
F3
00
F2
14
00
EB
01
03
FD
D6
FB
01
00
03
ED
01
CF
E7
06
F8
01
F4
02
02
FB
0D
E9
00
05
03
00
FC
0B
00
0C
F3
FE
E5
0A
F7
03
FD
0D
D4
15
FA
0E
F1
0E
00
E0
F6
03
E8
F7
F5
F2
F5
EB
09
0B
0F
25
EA
E4
FB
05
FE
EF
01
DD
0F
FB
DF
FB
0D
F4
2F
FD
05
F9
02
0E
DE
0C
3F
F5
F3
05
16
F4
07
46
0A
15
02
09
F9
F5
06
1B
CE
DF
0D
05
15
FB
FF
F3
09
1D
F9
10
D6
FB
D3
0C
0F
FB
E1
D6
E8
D8
01
11
21
13
ED
12
EF
DD
0E
0C
0A
EE
05
F2
0B
06
E8
05
F5
E9
CE
00
00
01
DE
FF
FA
18
F8
08
F2
F2
DB
00
ED
FA
E6
FA
FF
ED
EB
02
F5
FE
FA
D0
FD
E2
E0
02
E6
0A
E8
0A
0F
EE
F8
FA
E4
F7
0D
07
FE
FC
EA
04
F7
FE
E4
FF
07
ED
FA
F7
F2
FE
07
DF
04
04
F5
F2
ED
F1
EB
EB
02
FB
FA
01
FD
F5
E8
F9
15
EA
09
F6
F9
F6
F6
0F
F9
F3
FD
0E
F1
00
05
EE
EB
F6
F0
F8
EB
FE
F8
F1
00
00
1C
0B
F9
02
05
0B
09
20
04
F6
FC
F5
F7
F9
FA
0E
09
EF
EA
04
FF
00
F0
03
0E
FE
FC
13
FA
00
06
06
E9
F8
F8
0F
F4
ED
FB
00
06
0C
06
EB
FA
02
F5
E7
E9
FD
0A
F8
EA
E4
01
E7
04
FC
E3
F7
EB
F7
01
F6
01
0D
DE
0D
FB
05
08
F6
F8
FD
F6
0C
F7
E7
F5
09
F6
01
EE
D8
FA
EF
03
FD
FE
00
16
FC
0C
15
FA
F6
F6
F9
E8
05
E3
09
02
05
04
13
0B
F4
FD
FB
05
04
13
08
26
22
03
03
12
FE
0C
F1
F0
EB
E7
E2
11
F2
E3
D8
EE
FB
FA
0F
D1
F9
D8
0E
D4
E3
FF
02
24
F4
02
06
14
FE
E6
D6
D6
FA
02
FF
29
E6
F0
E6
17
D2
FC
07
EC
DE
D5
C9
22
04
18
E9
06
08
FA
17
19
F5
02
0B
07
08
07
DA
F6
F9
F7
08
F2
F1
E0
FB
0D
E4
09
F5
F7
EB
FF
F8
EA
0B
E2
F9
F4
DB
F3
FA
14
12
FA
F5
F5
DC
FA
FC
FB
F2
F6
04
F2
EF
EB
04
08
FE
F6
02
F9
E7
F1
F7
08
F2
08
DC
05
FD
F8
0C
06
E5
EF
02
FF
03
02
06
FB
FB
04
FB
01
F9
09
FC
EF
F6
06
00
FC
F5
05
F2
FC
11
07
FE
02
05
04
06
DF
F9
F2
FF
E5
00
00
04
01
F1
FF
F3
06
F8
05
07
F4
05
F5
FA
FE
05
09
03
ED
FD
F0
02
F6
F7
01
DC
E2
F7
F0
EF
F1
E7
F2
DC
FB
06
17
18
FC
21
0B
E7
E3
E4
E8
F1
F2
F7
FF
E0
DA
E4
07
E4
1E
0A
F9
13
F4
DB
EE
00
F5
FA
E6
FA
FA
FF
FB
0E
08
E7
FA
FE
07
05
E1
02
0C
0B
FD
15
E5
F5
E8
11
F4
F1
04
D9
FB
01
E3
F1
04
0C
04
FA
0A
F3
DF
F6
F8
0B
DE
F2
17
F6
FB
E9
DC
14
16
03
FA
D8
08
0F
EF
03
DB
01
FB
0F
12
05
F2
01
01
10
F6
F2
10
EA
F0
FE
15
F0
D8
E3
E4
01
FB
FE
F4
ED
F4
F7
09
F1
0B
0B
05
11
16
F5
EC
D9
0B
F9
09
02
02
01
04
F0
0F
F0
20
01
EE
04
F7
F9
15
DB
1B
F8
13
F9
EA
F7
E8
E4
1D
F0
E6
F4
D8
07
F1
0B
F0
00
00
E6
FB
03
05
F9
0B
E3
EB
F0
10
D7
FD
EC
0E
F9
0E
FD
08
02
01
05
0A
EE
FD
FF
0E
07
02
15
F6
04
1B
F6
00
FD
23
10
FF
E6
F2
06
F7
FF
0C
E2
FB
F0
F6
F5
E8
F6
F3
F2
00
FC
E6
EF
D7
FA
F3
05
EA
F7
09
00
17
00
FE
FB
15
FC
F4
07
0B
04
CC
1D
F0
01
E8
F3
F2
0A
0D
F0
FA
E9
F9
ED
07
0D
EA
F7
DD
E0
E6
F1
FD
FB
07
FD
F8
F6
FB
0F
03
E0
DD
E7
0F
00
FB
F8
F3
F2
E1
F8
F8
F0
03
05
08
11
F8
E7
06
F0
08
09
ED
FA
F0
06
09
0F
FF
F0
05
13
D8
E9
FA
DE
EC
09
F7
DE
F9
F7
EE
02
0F
F9
12
03
C7
ED
EE
10
05
F7
03
E4
12
05
01
F4
FF
FA
F4
ED
20
FD
F9
F9
F4
FC
06
00
F6
FB
F7
0A
F8
03
D8
0B
FE
08
FE
F5
0F
FB
0A
FA
FF
FC
F3
0D
FF
F1
E9
09
EA
06
05
F5
EF
02
E8
20
F8
01
E7
FE
FC
FD
03
11
DE
E0
FA
03
11
F7
10
0C
03
13
F0
0E
BB
FA
CA
FB
F3
FD
F7
E4
F6
FB
08
11
0A
0C
E0
08
DC
D5
FE
FE
F7
0A
F8
13
F5
F9
FE
E0
0B
E0
07
01
EB
F0
F0
15
FC
10
FF
0C
E4
FA
C4
20
00
04
EC
D7
DD
F3
FE
F7
F0
F4
FD
FC
C6
F1
E3
10
EF
F4
FE
F6
00
EE
FB
03
00
DC
0A
FD
F7
06
FA
02
F8
06
F8
F0
02
F0
FA
F7
EB
04
08
FD
F5
05
07
F2
0B
F1
0B
FC
00
06
EB
02
08
F4
E2
0E
08
EB
FE
F6
F3
F6
09
FC
FF
ED
05
0D
E0
EE
F9
FC
01
04
09
F5
00
0F
06
E6
08
D8
F5
02
FF
FA
FA
EF
F4
FD
00
FE
19
FE
EA
FD
E1
14
03
FF
11
09
FB
F7
F2
01
FC
F7
F7
02
00
FE
06
04
F6
05
04
07
08
08
E3
FF
E7
FC
04
F8
00
E1
F8
FF
F1
01
EA
03
F6
E8
0C
F4
06
19
F1
F8
F0
FE
10
F3
F3
0A
D2
F0
06
02
13
F3
07
0D
0A
10
F5
F1
17
F9
07
06
02
E1
ED
FB
F6
0C
EB
04
FC
04
04
F2
FB
14
FF
06
E3
06
DE
0C
F2
F3
FA
F8
FC
F1
07
F8
0A
EC
F6
04
F5
EF
0C
07
14
00
05
F1
0A
2B
FF
E4
0F
11
02
0A
FC
F9
EF
F7
F0
FC
FC
06
12
F1
0D
2A
FF
F6
DF
24
09
08
F3
FB
19
07
07
FE
1F
FB
E6
F8
0A
E6
1B
10
FB
13
02
0D
08
FB
02
1D
19
08
E1
11
03
0B
10
0D
0F
01
0D
E3
12
F7
FE
FD
E0
FC
FD
07
EA
FE
10
06
EF
09
F8
FF
03
12
E3
EE
DD
ED
10
D5
EF
18
DF
F3
00
DC
EC
F9
FB
F7
0F
09
DF
1C
0C
FE
F8
09
EE
F3
CE
E7
07
02
F3
03
F5
DF
12
FF
0D
F3
E6
04
1B
EB
E6
01
FB
06
F0
F1
E3
05
06
03
EF
07
E7
FE
F1
FF
FE
01
0D
F9
03
F6
F6
F9
04
0D
DF
FD
ED
EE
F7
F6
F6
FA
0D
FE
F3
04
F5
EF
F5
EB
06
F8
07
FB
00
03
04
0A
FA
FD
0B
E8
FE
07
FB
FB
EE
F3
FB
F8
F7
0E
DA
CF
F1
FE
F7
FA
D1
04
01
28
05
04
DB
E5
EC
FB
07
0C
DD
D6
EE
EF
F5
EA
11
19
EB
01
C6
ED
01
FA
F8
11
F6
FF
FC
0D
F8
E9
FE
FA
E6
06
F7
0D
09
0C
1C
05
09
08
EA
00
D7
0B
F8
FF
E3
C4
E4
04
E6
0E
07
FE
FA
EE
E0
EB
E2
0B
F6
F3
EB
02
FB
F8
F7
FA
EE
F2
0A
F7
F1
EC
FF
F5
06
00
EA
FF
F6
FA
02
FC
EC
ED
11
EB
F2
04
FA
F5
E9
FB
FC
F1
FF
FF
F3
F4
F9
04
07
0D
FC
01
FF
00
F3
EA
F0
0A
02
E8
ED
02
F3
03
F5
EF
F4
F6
E4
08
04
05
F9
01
F4
FC
00
F7
FB
F4
F4
04
F0
FD
F4
04
03
04
F1
FF
08
E4
03
FA
F4
04
11
E9
E7
F5
F6
EE
F4
F3
EB
01
00
06
04
FA
FD
F6
09
0E
0B
00
00
02
F3
F4
F0
05
F9
FA
E7
08
F4
03
06
ED
F9
EC
F8
F9
F1
F1
EA
EB
FA
F0
EE
07
F8
FE
FD
02
15
00
ED
F5
E2
F7
04
F1
F8
EE
E7
03
FF
01
F2
F0
FD
F6
0B
0D
F3
0C
04
D8
F7
01
FA
F0
F2
E6
EB
EE
F6
EB
08
E9
08
F8
08
08
08
06
00
F8
10
00
F3
05
08
F3
F5
EC
00
07
FD
F3
1D
CF
F7
00
F8
EA
01
04
EE
F5
06
E9
FA
F1
F0
FD
06
01
F3
15
EC
04
FB
F8
F8
02
F2
E6
F7
F5
F0
FC
01
F3
F7
09
F8
EA
F8
EF
F7
08
08
E6
07
EA
F6
FD
0E
F0
00
16
0F
08
E5
07
0F
EE
18
EB
F4
E9
F9
F6
FC
DE
EF
DA
F6
F9
F6
03
E5
04
E4
0C
D6
F0
09
00
12
F1
FA
F7
06
F8
03
E6
EA
ED
04
00
1C
EA
E2
E5
F7
D5
F8
21
F1
DE
EF
EB
09
12
17
EE
06
06
FF
05
09
FC
05
00
01
19
EC
01
0B
F3
03
EF
DC
E9
E8
E5
0F
DD
10
F2
F9
F4
09
09
02
F4
D4
F2
ED
E5
0C
EA
0A
00
E6
FF
FB
FC
F7
D1
FB
07
06
07
FC
06
06
F3
01
F2
FA
FD
E2
E5
DC
F4
07
FE
04
DE
FA
FF
0D
FC
08
FA
F9
04
ED
FF
E8
09
20
EF
07
0E
01
F7
DB
03
FE
F3
0C
0C
F8
0D
FD
06
1A
E0
F5
09
01
0F
F8
14
03
F9
F1
E3
F2
FB
08
03
F4
03
00
00
0C
F9
06
E4
E5
07
F4
16
1D
F9
D3
1C
0D
E3
F1
14
11
F5
19
F4
03
02
06
25
E0
D7
FB
06
F5
F9
E3
F8
06
FF
0E
FF
FA
0A
17
F7
F9
F8
F2
D2
EB
F9
03
F6
05
05
ED
F9
D9
14
03
01
04
09
F7
03
F6
EF
F2
C9
00
0A
F4
0E
ED
02
11
FC
04
0D
FF
05
E3
02
C4
07
00
FD
EC
B5
E3
FF
E6
03
05
09
FE
E9
EC
04
E5
0A
F4
0C
E6
03
FD
F4
FC
F6
E7
03
1D
F6
07
E7
FF
05
07
F6
EC
F1
06
F1
FC
07
FB
F8
F4
05
FA
FD
00
F6
EB
F2
0D
06
FC
F7
F2
04
09
EB
00
07
01
EB
FF
F1
11
EF
FE
FB
F5
F8
04
F3
F6
F6
F6
FB
F1
F8
D4
03
02
05
F4
16
F1
01
01
0B
09
F7
F7
F7
06
FD
0C
17
14
FD
EF
0F
F8
F5
FA
F4
FC
FD
FD
FF
F3
E8
F7
F2
0A
E9
F7
00
FE
FF
F5
FB
14
FE
0A
FC
10
F3
EE
01
02
F8
06
FB
EF
00
EA
0B
FB
FC
E6
D7
FA
FC
14
EC
DB
F3
F6
F7
10
04
17
E4
E5
F5
FE
FE
EC
FE
03
06
ED
EE
00
DD
08
25
FF
0E
04
DE
10
0B
16
FF
EE
F5
E2
09
F1
1F
09
EA
15
09
E4
D0
F1
E6
F3
08
FE
BB
00
FC
F6
0A
13
ED
01
D3
11
FE
05
FC
06
F9
FE
FC
E6
E1
03
F9
1D
01
F1
00
F1
15
FB
0D
34
00
F1
F0
E0
EE
00
08
15
ED
E0
10
FD
00
F2
F0
03
FF
FF
18
E7
E4
ED
C7
FE
0B
16
F2
E3
D7
EA
FF
08
E8
13
F0
0D
0C
03
16
22
03
F2
02
DB
03
00
0E
F5
F2
DD
FC
FA
F6
00
04
0B
E8
07
04
FE
E3
08
F9
07
0C
F3
F1
EC
DD
FC
ED
FC
01
FF
FF
E7
06
15
01
01
04
01
00
EA
00
05
0D
FD
FD
01
0F
F3
EF
F9
01
F8
FD
FF
E9
F7
F4
FC
FD
F5
EF
00
EF
F5
1A
0D
0A
21
FE
E0
02
04
05
09
0A
EB
19
F6
0F
FA
EA
0E
CA
3B
00
F1
01
04
04
0A
10
E8
F7
E3
E4
10
F0
CB
E9
F0
08
05
FE
F6
F6
13
FD
DC
1F
02
F4
EB
03
02
13
D8
EC
E1
05
01
0D
19
ED
E6
09
11
FB
05
F0
0C
FE
08
FD
F8
E9
07
0B
04
F7
06
FA
EA
E7
0E
14
09
0B
E6
C1
06
10
04
F6
FC
00
10
F1
13
11
08
18
F9
00
FE
FD
07
DF
EF
E5
06
D4
00
E9
E8
01
12
0F
F1
F9
0A
F8
08
05
00
FD
F7
06
10
00
E1
EB
EF
01
DC
D0
0A
03
03
E5
F2
0A
F5
F6
0D
FD
0A
07
F0
F6
16
12
01
D4
04
FA
E7
09
FF
CE
F2
08
29
DC
F1
F2
04
02
12
00
0E
F0
D8
FC
0C
0F
F7
08
F0
FB
DE
F0
F9
FA
FE
06
F8
F8
ED
01
07
0E
F5
0E
F0
0A
E3
01
08
05
12
FD
FB
EB
15
01
02
02
FD
F9
07
05
19
E6
F1
00
02
EB
13
FA
02
02
FA
05
00
08
E3
05
EF
F4
FC
F7
18
13
F8
0A
03
F3
F0
03
01
F3
FC
F8
F6
19
15
F7
F9
F7
FE
F7
F9
ED
FB
FF
03
07
00
F5
EA
E5
04
01
06
F5
F0
0A
F8
F1
FD
FE
DE
F7
F4
0C
FF
04
00
F5
23
1E
F9
EE
F6
FF
F7
FE
E1
F7
E3
F8
04
F9
02
02
DC
00
0F
F1
FF
FE
1B
FA
F7
18
12
00
00
ED
05
00
FC
EF
00
04
03
02
0C
F0
E1
F4
02
09
EF
F5
FD
FC
02
EA
F0
F7
04
18
03
FB
F8
EB
00
00
FC
E3
F2
E9
ED
FD
03
E0
15
00
EA
06
F8
F3
E2
07
E8
0C
FE
F6
10
0E
EA
FC
F5
FE
F9
07
01
03
02
0D
F9
06
F1
FA
F7
FD
F0
FB
ED
E6
F5
E9
EB
F1
F7
F8
F2
EC
03
02
EE
F9
DD
02
0F
0D
01
F9
DC
FD
FB
FB
0D
F0
FC
FA
08
F0
04
F4
0A
FD
F2
07
EF
E6
F4
01
E2
F7
06
F9
F7
FC
02
E7
F1
E8
08
03
F3
05
F8
03
F8
08
06
FF
03
F8
F6
FD
F6
F3
F2
F4
E9
F5
EB
FD
FC
01
FC
F7
F7
ED
F5
FD
F1
FB
0A
F5
FF
E1
FC
FF
07
F5
01
FF
FC
0C
05
E1
FC
EB
FE
FB
FF
F3
F6
FB
DA
07
FE
E8
F0
06
FB
F6
F9
F6
FB
F2
F1
FC
EC
F1
EA
03
00
F3
01
F1
0C
03
06
DB
FD
ED
F7
E8
FA
0B
E3
D0
E7
1F
EC
F9
F5
F8
13
10
FA
0A
FE
29
12
E2
F9
EA
CF
DE
E0
F7
14
FB
1A
01
00
03
C5
13
02
FC
ED
FA
DA
09
2F
E1
C1
EB
24
0E
F3
2A
CB
ED
21
EA
EC
2D
27
FD
E0
14
CB
07
C2
0D
CA
C4
C2
F8
12
01
01
0C
0B
02
0B
FC
F0
F3
07
FB
E9
09
09
FC
00
09
05
FD
FE
09
EF
0D
00
04
00
EE
EA
00
FF
EF
0B
08
F2
FB
FC
F0
E3
13
F8
F7
F7
FE
EE
EC
05
FA
E7
E8
EE
02
0E
F4
02
02
00
ED
02
F0
F8
0E
07
F6
E2
03
F9
F9
05
F8
05
FD
F4
F6
05
F7
F5
F6
FA
F3
FC
F9
F7
01
00
03
EA
FF
FE
FA
FE
F4
D5
11
FA
F1
01
0E
E2
F7
FA
E7
F4
05
F2
00
F4
FD
E9
EE
FC
F4
D4
F7
EA
09
12
F3
F8
FD
FD
EF
FB
D6
F3
01
03
EA
F3
EE
17
11
E5
F9
FD
F6
02
FD
00
E0
03
04
0E
02
DF
E8
EC
0C
09
0F
FB
E0
F7
06
00
F5
EF
F2
16
E0
11
17
EE
F2
F8
F5
E2
F9
F1
16
E8
DD
E9
EB
05
F0
E8
ED
F6
FC
F4
FE
01
EE
0E
F2
F0
F8
F4
26
1E
FE
F0
F2
00
02
EE
DE
F7
EB
F7
F6
FA
01
06
00
FF
F8
04
F1
0A
00
F4
03
00
F2
01
EB
00
08
FC
00
F9
01
04
F6
EB
0A
F8
F8
FC
17
FC
05
04
F0
ED
FF
FF
07
FB
FF
F8
01
03
05
08
F3
FE
04
F2
02
02
F7
F2
FF
FB
FF
FF
03
FF
06
19
F9
F7
07
EF
FC
10
00
EF
FF
CC
FB
00
FE
FD
FD
F5
F0
02
03
09
10
F0
FC
05
D8
FD
00
0F
E9
00
18
D0
D9
1B
DF
0C
C6
12
D6
F1
FF
F0
34
21
FF
F7
17
0F
D3
0B
1F
18
16
14
16
FB
F7
EB
0E
E8
FA
FC
F5
E0
FF
F0
F7
01
0D
F8
0F
E4
EF
E7
10
FE
06
FD
F9
F2
FD
FB
F3
13
F8
EC
00
FC
CF
02
04
FA
F1
F9
F4
D7
EF
FA
DE
0B
E9
07
F9
F4
06
F9
F4
FA
08
05
0F
F9
E6
FA
FF
09
F0
02
E2
ED
E5
00
0E
F3
EC
0B
01
FF
FF
E2
04
08
12
F7
F4
E4
F6
FC
0D
00
06
FD
F5
F1
00
04
01
01
FB
DE
0C
EA
E6
02
FF
EC
FD
06
FB
EF
E7
05
F0
FA
17
04
FC
ED
08
FB
FB
08
0E
FC
FD
EF
E5
F5
F6
00
F3
07
DC
EC
FC
F7
08
00
06
EC
ED
F8
FA
E5
05
F3
DF
0F
E9
04
F5
18
0A
0A
C7
F9
03
F4
12
EA
E6
EC
F9
07
FF
F5
F1
F7
E6
F5
03
00
FF
FE
0B
07
F0
F1
0A
F8
F3
F9
04
FB
E2
0E
F3
F9
04
F2
F8
18
FA
FE
03
08
E7
EE
0D
FB
0E
E9
F2
F0
FC
10
F5
F3
DD
0B
FE
14
E7
01
F2
FC
08
F7
04
F6
ED
EA
F8
02
03
E4
F1
ED
FC
EC
08
F1
04
0D
02
08
0E
FD
EF
12
07
02
02
18
00
FC
FB
F2
09
D5
07
01
F7
F2
00
EB
E9
14
02
12
01
F2
02
16
0F
E1
03
00
03
F5
F4
F0
0A
09
04
F8
F5
E9
FA
01
06
08
02
FA
F3
0F
02
FB
00
09
01
EB
F5
DE
0B
F3
EE
03
04
FC
00
F6
F5
0E
D8
0E
F2
F2
02
FB
06
FA
03
08
04
FB
FF
FB
ED
FC
0D
F9
EE
E3
EA
F5
01
EE
FC
D2
F5
0B
04
E2
EA
F4
F1
04
FA
01
0E
FF
FA
11
F7
FE
EC
F9
03
07
00
09
F6
FA
F5
0B
FC
FB
18
F5
F7
FA
05
FD
EB
11
F0
FC
07
F8
09
F7
14
FB
EA
04
F9
01
FA
14
EC
F3
0D
EE
F0
04
00
06
E9
F2
EB
FE
F6
AF
03
EF
07
FB
F4
F4
14
01
08
FE
25
DD
0F
05
07
00
18
05
DE
0B
04
13
1D
00
04
F8
F5
CE
15
08
DA
00
F1
FB
06
F6
06
F2
F5
02
F5
0E
29
E2
20
15
07
01
11
FC
1C
E2
DB
D8
1C
0A
13
16
E9
B1
0F
06
0F
EC
02
F8
0D
FD
FA
C8
0C
FF
F0
0C
04
F9
E9
FC
0F
0E
05
F8
EF
09
F7
F5
F8
F0
EC
FA
FE
FA
E3
E4
F4
01
15
0B
F1
F8
0A
04
03
0A
F1
0E
F2
F7
0B
F0
05
14
FA
F5
04
03
C7
F7
11
05
EE
07
F7
FC
F2
EF
03
F0
FB
01
F9
EF
EB
E1
0F
FF
08
F6
FB
FC
EE
09
04
F0
FC
FC
04
01
F2
FB
0B
FC
07
DF
04
FC
FF
F3
F7
F5
04
07
02
EB
FA
F7
E7
FE
F4
F5
09
FB
08
FC
F1
FA
04
08
FF
04
EC
F5
F8
0A
EE
F0
FA
F4
F8
FB
F6
F3
F7
0F
0C
DA
FF
CF
03
11
FB
13
FD
FC
0A
F5
08
14
D8
F1
F3
ED
00
F3
F7
FF
DB
10
04
F9
FA
FB
F7
01
FC
0A
01
05
EA
F8
07
F1
01
0B
F7
15
F6
09
F4
14
0E
F1
06
F9
F0
00
E5
F9
EF
05
FD
E6
FF
0A
FE
ED
F3
F5
E3
F7
F1
ED
13
E4
F0
12
DB
07
0E
07
F8
09
E9
F9
CB
F8
CB
E0
FE
FA
F8
0B
CF
E0
07
16
DE
05
EF
F9
03
13
16
F0
09
F5
0E
F5
19
BD
FF
F5
F2
F7
FB
FD
07
D7
0A
BE
F3
EA
09
FE
D8
EE
F6
01
F9
02
1B
09
F0
F1
F3
EC
F5
08
FF
E7
FD
1B
E1
13
E0
E4
D2
07
1C
E2
FA
0A
E6
F5
D0
01
FE
17
04
E5
0C
FD
F0
FF
FE
F6
F9
00
EA
E9
0C
DE
09
1C
D0
D4
E8
F8
DA
FF
E4
EA
F1
09
E4
14
FD
E3
19
13
F6
01
EC
FF
EE
EB
DB
F5
FF
EA
FC
F2
15
29
FA
18
FD
14
E3
DF
F5
FE
F5
FB
DF
D3
F0
05
00
F0
08
09
01
F4
06
03
EE
02
0A
FE
03
E6
0C
E7
0B
07
19
15
E6
F8
0E
DE
03
09
F4
F4
EE
00
D4
F2
0E
EF
09
05
07
DA
04
0B
1E
FA
E5
F6
EE
E0
07
CD
DB
DE
0A
08
F6
0A
0E
E9
D3
0C
F8
03
F2
E2
EC
EC
EB
00
C6
EE
11
F0
F5
06
F8
07
04
FC
08
FF
02
E1
10
FA
FF
00
00
E8
F3
FB
D8
C2
01
0F
03
01
EB
11
F3
08
02
03
EA
09
F3
FE
F9
FE
EF
02
04
FB
12
F4
FE
E9
09
0B
F1
FA
F9
F4
0A
FE
F2
E2
F0
F7
04
06
0C
E5
F1
06
FF
0D
FD
FA
F5
FD
F3
EF
07
FB
0F
03
F6
02
E9
ED
11
E4
07
10
05
13
1C
10
FA
00
FB
02
FD
FB
03
0B
FD
EF
1D
FA
0E
E6
06
EB
FA
0B
DF
F3
E9
D3
F7
11
06
FE
E2
E6
EB
18
2F
EF
00
02
ED
E7
E5
07
EA
1C
06
EF
1F
F9
E6
01
F9
06
FC
E7
0A
05
05
06
FE
18
ED
05
D5
EC
D5
EE
F3
0D
15
08
EB
ED
0D
EE
1B
19
FD
F9
FE
F6
0D
EC
F0
FF
F4
D7
0D
D9
F7
EA
FB
0F
E5
0B
20
F2
FF
04
F9
F6
E9
F1
F7
F8
F3
E8
DC
F7
F5
03
E9
FB
F7
03
E5
F3
F5
0B
E2
00
0E
F2
FE
01
03
DF
EF
07
01
F1
0A
FE
F3
02
0C
0A
EC
07
03
F5
EF
00
0C
1D
F8
CB
FC
DF
ED
01
EA
FE
D6
F9
03
08
F5
E8
D0
F3
F1
10
32
ED
E8
E8
FE
DF
E5
E6
DD
2E
F5
FC
17
FB
ED
F7
0D
FB
DC
F3
F4
E9
FE
E4
F6
2C
E4
F5
E7
FF
CE
E7
CD
05
FE
2B
F9
DE
FA
DA
1E
2E
0A
F7
D8
F2
19
EE
05
E9
F9
07
07
10
02
F6
00
04
D6
F7
EE
09
FA
0E
FE
1C
FA
EE
EB
F9
EE
E4
02
0C
F9
D9
0C
EE
00
DB
02
0B
06
0B
EF
F2
07
09
FD
0F
0F
02
EF
F5
FF
0A
F0
E2
F1
08
EB
1A
04
0D
0F
0B
F6
EA
08
07
F3
0E
02
D2
00
EE
00
0B
F8
03
1D
F3
05
FA
CE
F3
DD
EE
EC
18
02
0A
E5
0B
E1
04
13
E7
00
FB
00
0E
F2
F0
08
FF
FF
FB
F9
C5
08
1C
0A
0B
F3
04
EB
FB
0F
11
0E
DB
FB
F1
CA
11
FC
F9
E0
E5
F5
07
CD
FF
EB
EA
FF
F2
F1
EC
F2
0E
04
DE
F9
09
0C
00
F5
E5
F1
00
FE
F3
D9
00
EE
F6
F4
E0
F3
FD
FC
F1
0E
F6
FC
FA
07
0B
F4
EE
F3
EC
FF
EE
FE
FF
DE
F8
F0
F6
F8
F2
F8
FF
03
03
FE
ED
F3
ED
0C
01
EB
EE
08
FC
F1
E2
02
00
FC
E4
01
F0
19
DC
02
F8
0F
FF
02
CC
F1
EA
F5
E2
C9
F1
FC
17
F9
10
FB
10
01
FB
0E
F0
C7
23
F6
01
00
EF
06
FA
F3
05
1E
0C
01
01
ED
10
F8
D8
14
11
02
F7
0C
E8
07
DD
04
15
F7
FA
1B
15
14
FD
EF
05
F7
11
0D
05
F9
16
E5
F2
0F
ED
EB
EE
0D
10
03
0A
18
F4
14
00
1C
ED
FD
0C
E2
03
FA
ED
E4
00
EF
EA
E7
E1
24
F2
FA
EA
F4
F8
01
FF
18
EB
00
FA
03
05
01
00
04
D4
FF
14
F3
F9
F6
FA
EA
E7
17
FA
02
EE
FC
FC
FE
0D
E2
F0
EA
05
0E
E6
F1
00
D3
23
1A
F5
F5
DA
F2
D8
C6
02
D3
12
FF
DF
12
FD
ED
F9
04
FC
EF
0F
10
DB
ED
05
05
19
EA
FC
E2
E2
DA
D3
FB
0C
F4
11
C9
07
02
FF
FF
08
F0
05
F5
DB
F4
06
09
FC
E8
FE
05
FF
F4
06
17
F2
EF
04
15
16
0B
EE
DC
01
06
DD
F4
D6
E9
F1
EF
FD
F9
06
F1
FD
05
01
F8
E5
FD
F4
F7
1B
F5
05
EB
ED
0C
01
01
09
F3
EF
08
12
EE
DA
21
00
F0
F7
F7
FC
FB
03
1C
14
11
F9
DE
07
EF
02
05
05
F7
F6
E9
0B
F0
EE
E3
E7
F9
11
D9
FD
F1
01
FA
FC
0C
FA
EF
1A
E6
FB
F6
E3
F3
F6
FE
F5
11
E7
1F
0C
E1
FF
F8
F6
0E
F8
02
E8
F6
F9
E8
09
FB
F2
F3
E5
FC
0F
FD
0E
EA
04
07
0A
F7
F3
E0
E2
EB
FB
16
E8
E4
D2
F1
0E
F3
F1
EF
CB
07
01
22
E4
F8
F3
FF
F7
00
CF
0B
1F
09
14
07
F1
CC
0E
F6
FF
F6
CE
04
F6
EF
EE
FF
0A
FE
DA
02
03
F6
F3
0A
17
11
12
10
E6
0B
F1
17
15
FB
E5
00
FF
FF
FC
0D
24
08
FE
36
EB
22
E2
18
EF
EB
EE
0E
E7
12
F0
DE
15
10
0B
0C
1C
23
09
F6
DB
ED
F8
F1
FC
04
00
FA
0D
F5
0C
EB
0A
17
12
EE
DF
36
F8
24
1F
1C
FA
30
0C
F9
E5
25
0C
0A
16
E9
EB
0F
FE
13
13
0F
FE
04
04
F1
F6
00
FB
0A
09
F8
08
DC
FE
F2
0F
14
EA
DC
FB
E8
08
02
F6
0A
03
F7
E7
07
DE
0B
F5
E7
13
08
FB
DB
17
E9
F9
00
EF
0D
0D
FC
F5
FF
0B
FA
08
FE
F9
06
EC
FF
0B
FD
D6
ED
E4
FB
E3
F9
01
10
EE
F7
FB
F7
0C
E7
F4
F6
F2
F9
16
F3
F3
02
00
00
18
08
FE
EC
08
04
E4
DD
05
05
F2
F3
E8
03
F3
F0
EA
08
0B
FD
07
EC
0B
FB
16
05
07
FB
0D
08
CD
F7
FD
E3
FD
FE
02
DB
08
F4
0E
09
0D
FF
08
01
0C
09
FA
FA
F6
F8
FE
E8
FF
F1
14
01
04
DF
08
EB
17
08
11
FE
03
02
E1
16
F1
FA
F1
E7
05
0A
FF
F0
FD
F3
07
0E
04
0D
07
F8
0F
07
10
F5
F2
EF
FB
1A
08
DE
ED
E1
FA
F5
00
12
04
F4
F8
05
14
FB
16
FD
02
05
F4
F5
E9
0E
EB
10
00
09
EF
1B
DD
DE
EA
0B
EF
0D
09
EA
0D
E2
0A
FE
F6
F6
02
0D
FB
F5
F9
F7
FF
EB
13
0F
D7
06
09
07
F1
06
09
F3
00
14
0A
E3
25
E7
FC
1C
FB
F6
0B
12
0B
09
0E
FD
FB
05
FA
01
0A
0D
F6
EC
EF
F8
F3
FD
0A
F4
17
0C
10
0D
FE
E9
FE
E5
01
11
EA
00
FA
E5
15
DC
03
0F
20
07
FD
16
07
EF
FE
0A
19
01
FF
10
EA
0F
FF
07
08
E1
19
10
F5
FE
18
16
FE
0F
FE
F1
04
F9
F4
24
28
03
FB
E7
BB
02
09
EE
F0
FD
EC
29
FF
0B
01
06
F4
F2
F7
1B
F6
BE
0E
FF
01
F2
F5
03
18
06
05
D7
FB
F8
FD
F5
FE
FC
09
11
07
EB
04
F9
F6
F4
1B
0A
0B
07
03
0C
1A
0D
DE
29
06
F8
F4
E6
00
F4
FC
03
00
EB
04
FB
FD
F9
F2
FE
E8
FB
D4
F2
ED
F4
FA
05
02
14
F9
F3
E7
F3
0B
13
E1
F0
0A
FE
FF
09
01
EB
10
01
07
12
09
FF
FF
FE
15
F2
F3
E6
FD
06
EE
00
1A
F8
1A
ED
ED
00
09
F0
FF
EE
0E
12
FC
F9
CA
00
1B
04
0E
07
00
EB
F5
0F
FD
FE
FA
FB
13
0F
FF
03
09
E9
02
02
0A
12
E2
00
ED
F7
0D
08
11
F2
03
0E
18
F2
15
22
0B
FF
FB
FA
07
05
E7
F7
FB
11
06
16
1A
FB
F1
EC
17
12
FB
ED
0B
F3
FE
0A
E5
0F
D9
1C
15
06
03
05
FB
0B
F8
FE
FD
FD
00
0B
00
0B
0E
FD
FF
DF
17
E8
05
07
F8
F3
FC
E7
0F
00
0B
0A
FB
12
FB
11
F3
F8
FD
F1
00
FD
07
FE
A9
FD
FF
03
DA
04
FA
FD
FE
F1
12
01
0C
FF
08
F9
E6
FC
CA
07
0C
FB
EB
FC
E5
F3
F2
0E
08
EB
FC
EF
0A
FD
F1
00
E9
FC
03
ED
06
0C
01
07
1A
F6
24
0C
08
01
EF
F6
06
FB
E9
F2
D6
FA
F4
00
EC
DD
D5
F3
14
14
07
FD
10
E4
E1
FA
F7
02
F0
DD
FD
F7
E3
F7
F7
0E
0B
0A
14
F8
F8
01
FD
F9
F4
04
0C
E6
07
06
E9
F7
D9
E9
E1
E9
21
13
2D
FB
FC
F9
20
08
1D
29
EF
05
06
02
E5
F7
F1
0D
F1
F4
FC
07
05
EB
0E
18
08
F8
FD
38
10
F1
F7
16
F0
1C
DA
EA
E8
FC
F9
EC
EF
FE
10
02
19
ED
F1
FD
EB
E8
07
EB
02
0D
03
F2
ED
FF
0A
FF
01
F8
DD
0E
CE
DC
19
09
E8
1A
CC
F9
E7
0A
16
EB
06
07
19
F0
FE
0A
E9
EE
02
E6
07
F8
02
E7
11
E5
03
D4
02
ED
04
10
10
16
F4
FD
00
EE
13
02
F2
F8
F1
14
FE
FB
03
FD
C7
F0
18
09
12
13
0D
EB
03
EF
FA
D6
15
0C
4A
05
02
19
F5
F6
08
1F
FE
19
E8
F3
ED
F7
E0
F7
0D
FB
0D
FE
FB
DF
F8
14
0D
F3
13
4F
FB
D2
EE
06
EF
1A
C7
F6
E7
E9
CC
DF
FA
F2
0B
FF
FF
E6
FB
02
04
DE
02
07
F9
F5
E7
F2
E8
FB
FF
FC
03
F0
0B
F4
EB
FC
01
FD
FE
F3
F5
F3
00
F6
F9
04
F8
FE
17
F8
EF
F1
F1
12
13
0B
07
FC
06
E4
F4
FB
EF
0A
FF
F4
00
FF
F5
F6
02
02
0A
F4
13
F8
F5
FA
FE
FA
12
EB
F5
FF
F3
FE
12
14
E2
FB
F8
08
01
07
08
08
F5
11
E6
23
04
FB
03
0B
05
E1
D2
F6
0D
12
F9
EE
00
FE
16
00
F3
FD
FB
F7
FA
F2
EB
04
05
E1
0C
F0
F1
0B
02
18
26
0A
F2
11
1C
E8
F3
0A
F0
F1
07
0A
EB
08
02
18
0D
1A
EA
F7
F5
FE
F6
FD
F6
EB
DC
01
FF
E6
E3
FB
ED
08
13
2C
F0
FE
F5
F0
F7
FB
EE
ED
11
D5
01
0D
02
F0
F9
01
EC
16
FB
EB
F1
F9
FF
DE
23
FC
EC
FA
01
FE
F2
01
37
F9
20
F9
00
FA
F0
07
16
F8
FD
FF
0E
23
FF
07
0C
0B
F0
03
FC
E9
FC
FA
20
E0
F0
FF
F5
06
05
0F
EF
FC
02
FD
FB
F0
F6
F6
30
F2
19
0E
07
EC
0C
03
CF
12
0A
01
12
F5
04
EF
EF
FB
E6
EE
00
13
F2
E7
1B
13
0D
1D
03
10
00
1E
29
FB
D9
FD
00
F4
D4
F2
FC
F4
FE
FF
00
F9
F5
07
14
E7
FD
FD
E9
05
FE
12
F3
05
02
FD
FA
0C
05
FF
07
F3
E1
01
E6
D5
16
0E
08
00
F2
01
F9
08
00
04
0D
F9
07
EC
EF
06
FB
EF
12
EA
F8
FF
F6
F5
03
0C
FF
FE
FD
F9
CB
09
17
F8
20
01
EE
02
F2
ED
F7
E1
E6
F4
30
0A
F4
F4
F2
EF
08
25
F9
0B
E3
F1
F2
00
FE
FC
F6
F5
0C
F8
C9
E7
DE
EB
0E
08
08
21
FF
03
ED
10
CB
1B
ED
E5
00
0B
D8
F8
0E
F0
08
FE
19
F1
D9
F8
0B
F5
ED
13
11
17
FB
F6
F3
F6
1A
01
1A
ED
DF
05
DA
FC
0F
F2
0C
15
EB
13
1F
05
02
E7
FA
04
16
CD
04
18
FF
03
F8
E6
E6
F2
FE
1A
E1
F2
00
F1
18
E7
17
0A
FA
0E
F4
FA
11
F6
1D
DC
ED
FC
FB
0B
FC
F2
01
E5
DD
11
1B
1A
00
0F
FB
0E
EF
17
F4
E1
E0
16
00
13
13
0E
FF
FA
18
15
0A
FE
13
14
F9
18
EF
EA
0C
E7
02
0C
03
FB
ED
02
03
04
F8
1F
03
EF
E6
04
FB
22
FD
18
EE
10
F1
F1
FE
EF
09
ED
22
EC
C6
F2
FA
F2
04
FF
0C
06
F7
ED
F1
0B
02
FD
FB
10
01
F3
FD
10
17
0E
F1
DB
E9
EA
FD
EE
08
07
DC
05
FA
FC
08
F5
01
EB
05
ED
0B
E6
E9
F1
0E
F4
D5
0C
FB
03
EC
05
23
08
02
09
0D
0F
F6
06
ED
F9
FE
FA
F8
F7
F8
06
0E
0F
F3
03
02
09
F4
E9
F2
DB
03
F3
0C
F4
FF
09
F9
F7
0D
02
F5
02
F6
EC
DF
EA
FD
01
1F
13
19
1D
0A
FF
21
16
EF
F3
F7
08
F1
09
FF
FC
16
F4
DF
E9
FE
DC
F5
ED
16
09
1D
E8
F4
03
F9
1C
14
01
FB
00
D9
0D
FA
02
0A
EF
DF
0A
F8
14
D0
14
EA
03
ED
11
FC
FA
F9
FC
06
E7
03
FF
06
07
E9
EC
F7
D8
04
E8
E9
EC
F6
01
F6
E0
FA
EC
17
F6
F4
E4
E9
FF
E2
09
FA
1D
F5
00
F6
F1
F0
F7
02
F5
07
FC
E5
01
F3
0B
F0
F4
1C
02
DC
FB
E6
E8
0E
EF
FF
03
15
E3
36
F1
EB
FA
00
FD
EC
26
0E
13
F7
E2
01
FD
0B
24
17
0F
F4
C9
05
0C
03
F5
FC
EA
E2
2A
1D
01
F9
01
F4
EE
E6
FF
17
F8
EA
07
E9
D9
FD
F4
EC
FC
12
E3
EA
F8
0C
03
F8
19
F9
F4
11
DB
F3
E8
10
07
29
F1
FB
F4
15
DB
02
03
E8
C4
E5
D6
DD
04
F2
F1
0D
03
F6
2C
F7
0A
16
06
10
01
E7
0A
11
F3
01
05
12
F0
08
FF
FB
0E
FB
E7
20
F8
0B
08
DB
00
D5
2D
24
EE
04
06
E7
F9
0B
0D
03
10
E7
1F
F0
FF
05
00
D4
01
CE
26
1F
20
EE
DA
0E
0B
E2
19
0C
08
08
FE
F0
EF
17
BE
03
11
E8
F6
ED
F3
12
FE
16
00
0B
F2
CB
22
EC
0E
10
07
01
16
0B
0F
DC
1D
0B
11
1E
CD
D2
02
0B
11
12
19
DD
D9
EE
FF
EB
F7
F8
E9
E7
02
07
EF
F5
05
FE
E2
0B
0B
E7
D6
DC
D7
FC
E4
F5
E9
17
17
12
FD
F6
FB
09
1D
02
E9
EE
FE
E1
F7
F0
08
16
FF
F7
E2
1B
E2
EC
07
1C
0C
24
F7
FD
FB
EC
1F
0C
FF
07
02
F3
14
F7
01
15
EA
03
0C
00
01
FD
05
0F
08
08
03
F9
1E
08
FF
03
0D
04
16
F9
07
D9
00
01
F1
06
E4
03
EF
05
DE
B9
20
0C
F8
F6
13
03
D3
D8
1B
EF
1C
E7
12
0C
06
E3
EC
04
F6
0A
08
13
F3
0A
F6
F8
F6
EB
0A
07
0D
1F
F6
F6
07
01
05
15
E6
F1
FB
DC
13
13
1E
09
F4
19
FE
E5
0E
06
0B
FA
F7
F3
E2
05
CE
FF
13
F9
F1
D6
F7
F6
11
06
03
11
D4
CC
1B
EA
1C
08
E8
F2
F6
EE
EB
CF
13
F3
FB
13
F9
F1
FD
00
0F
F2
E0
04
15
E5
F4
F5
FA
FC
15
EC
0D
F2
06
F0
EE
E6
00
E6
E6
F4
C7
0C
0B
07
07
D6
03
E8
EC
0C
0F
EC
DC
00
0A
F7
01
DB
05
E8
FE
ED
FF
E7
FD
FC
F8
0B
07
00
0D
05
FE
DC
07
D2
F6
E4
F2
F6
03
F9
EB
F6
E6
0A
F2
E2
FC
F8
11
EB
00
09
04
F0
0C
DC
13
FB
FA
FC
0C
FB
E3
05
0D
0A
03
FC
EF
F6
EA
FC
05
F2
ED
08
F6
04
02
DE
F3
F0
F3
F9
F5
FB
0F
1C
F0
02
02
F6
10
FC
F2
F7
0D
D2
F2
EF
FB
FF
ED
E6
03
FD
16
F9
F5
F9
03
F5
F6
FE
FE
E4
F4
0E
0D
1F
FC
E1
01
15
F2
03
06
0E
09
FE
03
E4
05
F7
08
E1
03
FF
E3
09
E4
02
05
F7
FF
E9
01
F4
F9
05
FB
F3
03
F0
12
18
06
FF
E5
0F
FD
00
F6
1A
02
0B
E8
D5
0A
EA
E5
EA
17
00
07
09
DF
0E
D6
EC
F2
10
19
12
D9
13
D7
EA
12
F1
FE
09
D0
DC
C4
12
1E
05
0F
F1
03
08
F3
E2
F9
0B
C5
EF
EE
EB
09
F5
1F
EE
F5
09
D7
D5
E6
F2
E8
DC
08
F2
F4
F5
10
FF
00
F5
FB
FA
D2
05
0C
F2
F6
06
F6
FB
10
E6
1B
06
FA
03
EE
FF
F9
FB
18
F2
0C
EE
14
E5
0B
03
15
FC
D2
FF
FE
17
E4
00
ED
15
06
0C
F8
0E
06
1B
DF
0E
F3
FD
3C
FB
2B
06
0C
D7
09
2C
F0
15
02
FE
FC
03
FD
D7
EC
FD
28
05
0F
10
FF
0B
F3
ED
FA
FC
0A
1A
03
FF
FC
DB
FB
08
E6
19
FE
FE
00
F3
E7
FB
05
05
F4
FC
DD
F5
03
F0
04
E6
FC
FB
E6
FA
FA
08
E7
07
E2
06
04
F4
23
F5
ED
F8
04
04
EC
06
11
F5
F0
10
00
03
FC
11
F2
F6
0D
02
FD
F0
05
E0
FF
0A
0A
C1
F7
1E
ED
FC
FF
EE
00
05
FA
10
FD
07
0B
09
F1
CB
04
F8
FF
F4
01
06
DA
EE
F6
F9
F1
0B
E9
00
F7
F4
01
04
F9
DA
F0
EC
0F
F5
F7
F8
FA
09
FF
FF
00
11
FC
19
EE
F2
F0
E8
05
F4
12
01
F3
02
EB
06
0C
E1
07
FB
07
15
17
E9
DF
02
FB
2D
E3
0B
DE
02
DB
1B
29
FD
1A
EC
17
F9
FD
FC
FB
13
E4
1F
E8
EA
0C
0D
17
15
07
25
E8
DA
00
16
F5
DB
08
F5
E0
0E
FC
04
ED
05
FE
FA
DE
05
0D
06
0B
FB
07
F7
F6
0B
F6
F5
0B
0A
11
EF
1E
00
05
13
E6
19
F1
11
F4
FA
E4
F8
13
07
F9
29
1A
FD
FD
DD
08
09
11
0E
0F
FD
ED
F8
F5
07
F4
F4
E8
F4
09
17
F7
13
12
F1
DC
0A
FA
27
20
0D
13
FC
02
E1
EA
F1
F1
1C
0D
03
22
FC
2C
01
20
C1
EA
D1
33
03
06
E3
D8
21
EA
FF
04
1A
18
F3
07
DC
BD
04
D3
FF
09
F9
F0
F2
0A
09
F7
08
C5
13
EC
D5
29
F6
15
1D
13
11
22
1F
F1
D4
23
04
07
1E
C9
DE
EF
0E
29
18
FD
F7
F9
0C
F9
EC
FA
FE
FA
05
FD
08
04
F6
F2
0B
06
E9
EF
02
E8
FA
01
F3
FB
02
01
0F
FF
F5
0A
F4
06
0F
F7
0F
F0
DF
06
F3
EE
F1
F5
08
F6
F1
FA
F7
EB
F8
0C
17
F9
19
06
EC
06
E5
09
05
EF
F9
0D
06
17
1B
F7
12
11
F3
F3
06
09
03
FA
E3
FE
16
FC
0D
FA
12
F1
1D
14
13
FA
00
E0
E6
11
01
2E
E6
12
12
0A
EE
16
19
0B
08
FA
E3
0F
07
15
02
08
13
F0
E9
F7
11
F8
F8
F6
FB
E6
0E
10
1A
F6
F9
00
F4
E3
02
DD
E6
08
23
FA
06
0D
FA
02
FB
2A
E4
FA
E6
07
E2
F5
F1
F1
F7
E4
F1
0A
0D
21
FE
F9
EA
F2
25
EC
FA
09
03
05
0D
07
E0
E0
14
F9
F1
EC
D9
01
F6
03
05
1E
FA
12
FD
0B
D9
0F
E2
05
EC
E6
EF
0C
F1
08
FB
EE
DD
FD
B0
F4
DA
F8
15
11
1B
00
E9
21
EB
F8
FC
DE
F5
FE
F2
E3
03
EA
1A
DA
01
1E
FD
ED
FE
1E
FF
03
F3
13
0B
01
F7
FB
EA
FC
02
0B
0B
F3
20
FB
05
0F
19
04
FA
EF
F5
ED
FE
02
F3
F4
04
07
FC
00
F3
00
F4
0F
21
0F
02
05
FA
FD
07
18
02
EF
FE
1F
04
11
F6
F2
F5
F7
02
11
07
00
FC
E5
02
0F
F9
EA
FF
F0
07
07
FF
0A
04
FB
0A
F9
F5
F6
E9
01
FF
03
12
FA
EE
0B
12
FE
F4
1A
0E
05
00
F7
F9
FD
04
15
EC
12
F4
FA
0B
ED
EC
0D
E7
FC
F1
F6
07
EE
FB
0F
FA
FD
16
EF
14
05
DF
F3
FC
06
FB
DE
FF
D3
E6
FC
FE
F4
05
E1
D7
05
05
02
10
FF
FC
CF
FA
0F
EE
F9
F9
EA
E0
FA
10
00
FC
0E
0C
ED
11
F9
FF
FF
F2
14
FC
F2
E1
FF
F2
00
04
24
FE
10
F1
1B
E8
06
DB
09
04
EA
EE
FA
03
DD
F0
EA
08
F4
F5
18
07
E4
FF
10
00
FD
F3
F8
0F
E6
FD
DB
FD
EC
F4
E6
0F
0D
11
06
2A
12
F2
1A
0E
F5
0D
09
F3
0D
07
FC
FF
0E
EC
0A
0C
02
04
DD
F3
00
C7
02
E0
0A
F8
F6
01
DF
F4
03
06
F3
05
F3
02
02
D9
F8
FD
10
01
EF
0D
E5
0A
04
FD
0A
EE
F0
D0
08
09
FB
F6
FC
0C
D9
FC
03
FA
0A
0A
F4
E8
02
09
F0
05
08
0E
F4
FE
10
F1
FF
F4
0E
20
13
19
00
00
FB
07
D0
16
FD
F8
DC
ED
EC
FB
F9
11
05
F8
26
DF
1D
1A
04
E0
E3
0D
13
11
0C
F8
14
F4
FF
F6
EB
07
02
F8
FB
F9
FE
F3
FC
15
E1
E5
F8
D4
00
16
D6
FA
00
1D
E3
05
09
08
03
13
F1
F9
E8
F8
D6
F0
FF
F6
07
F1
EF
0E
F3
F0
E6
1C
25
1E
F0
EB
FE
EE
81
05
E2
F8
10
02
FA
FA
38
AC
21
E2
E4
03
02
05
F1
1D
FD
11
D5
D5
20
FE
34
C4
DE
00
D8
D3
05
12
E5
BE
FD
D8
E5
0D
FA
F2
CE
C6
FE
D7
E4
F1
E8
FB
FA
FB
F4
0B
04
E6
EB
FC
F6
E9
00
11
F4
F8
07
ED
04
FB
08
EA
07
F2
FC
07
F2
F1
FE
E7
07
06
F0
FF
00
02
E6
03
04
13
04
03
0B
03
F9
02
F0
FE
09
F4
F8
05
FD
EC
0B
02
04
0A
ED
04
EE
0C
FD
02
04
FB
05
04
F9
E8
05
00
FC
FD
09
FB
EF
F2
18
13
0C
FD
FF
1A
F9
F8
F3
FC
F5
06
05
F0
FD
E7
DC
F8
02
06
FF
E8
F3
0A
E7
02
01
F5
FA
EB
FB
04
EA
23
08
01
14
07
E5
09
1F
01
05
0F
F9
FC
13
EF
15
08
E6
F7
EF
D1
04
E8
D1
FA
E0
F7
F0
1B
00
03
E5
F2
ED
08
0C
E3
11
0A
FB
DD
C7
FC
0B
1A
FB
06
12
0A
F4
F0
01
FB
04
F2
DD
FA
1A
FE
FA
24
E6
F0
E1
E0
E2
FA
F3
06
F4
11
CC
1D
0B
E7
13
16
F7
15
E2
0E
01
DB
F9
E5
F3
E8
08
09
03
DD
F0
FB
F9
E8
E4
F7
EC
FF
F7
FB
E3
F0
EE
02
EE
F9
FA
0B
FB
D3
05
F1
DC
0D
0A
F6
E8
03
EE
FF
F5
F9
04
02
EE
02
04
12
EE
F8
08
F7
F0
01
18
F6
EF
F7
01
02
FE
FC
F2
04
0E
F3
F6
E4
05
F9
EC
00
CC
F5
F1
22
ED
14
FE
04
0E
FD
08
FB
3E
F7
0C
DB
E4
EC
00
04
FE
08
14
FE
F7
E1
01
E9
03
0C
FC
F4
0F
E3
FF
FA
ED
F3
CC
DF
F0
03
E7
F3
2E
EE
DD
05
08
FB
0A
1E
E3
08
D4
E6
FD
ED
00
FE
01
FA
FA
09
F9
01
0B
0B
00
FD
FD
05
EF
04
0A
02
F2
F8
F5
08
F9
0D
05
01
EE
FE
19
F9
D8
03
E6
05
FE
F1
F9
FE
FD
F9
0C
18
FF
02
E5
FB
02
FF
EF
00
F5
06
FA
F1
00
F8
02
0A
F4
EE
FB
E8
E4
1B
FA
19
FB
01
FC
09
1A
13
13
D0
07
F5
10
16
19
DA
D3
DB
0D
F2
01
14
F8
F8
F5
E2
F7
10
EE
FB
0B
E5
07
E4
F1
07
EE
0E
1D
F6
DF
EF
FD
CC
22
EF
0E
01
06
D5
F7
D0
F4
01
08
00
DA
C2
E9
00
F8
00
01
F8
F3
E5
EE
E7
F7
04
F7
05
F5
01
01
0D
07
0B
F8
14
F7
12
03
FE
EE
EB
FF
FD
F2
F8
FD
E4
F6
E5
0E
F4
06
F8
F5
02
F9
F1
06
FE
03
F8
FD
0B
EE
F6
E5
02
05
01
F1
F9
03
F9
00
07
FE
FA
FF
FE
08
0F
04
D7
CE
1A
00
08
F4
E2
F5
E7
14
0D
F5
EC
0A
F5
1D
F3
19
0F
FF
DD
FC
DB
FC
EC
E5
FD
E6
15
FF
F1
FD
0A
F5
EF
01
F8
F3
26
FD
0A
DE
F8
00
0E
FD
0B
EE
06
0F
1D
05
11
01
EC
12
09
1D
14
04
F1
15
09
FE
05
F1
F9
EB
F9
ED
04
F5
D4
FC
04
F2
FA
0F
E1
F9
06
FB
E8
BD
F9
03
FC
0A
E1
F6
0B
FE
1A
0D
F8
FD
1A
09
05
03
D8
ED
EB
FF
D6
EF
19
FB
F3
04
FA
07
EC
01
12
F3
0D
07
D6
F5
DD
05
13
04
FA
11
07
09
FD
01
04
06
11
2A
C6
ED
D1
C4
08
E5
D4
F7
DF
1B
04
26
E6
0B
E5
06
EF
0E
06
D8
29
F4
04
DC
FB
07
19
0D
F7
02
0B
E5
1F
0B
09
C3
0C
1F
F4
E5
F6
F7
C4
0D
26
F5
2B
1D
05
04
00
08
04
FF
F7
0D
D6
0B
F8
F3
CE
03
E9
0A
02
07
00
F9
F3
F6
EE
00
F7
C7
01
1B
F5
00
FB
E6
05
FB
F7
DC
FF
F7
F5
08
FF
EC
13
FF
13
E7
F5
10
CC
EE
04
FA
13
F3
00
D6
09
F9
E5
04
FF
07
05
EB
0C
E7
0D
08
05
EF
0D
ED
F0
FF
F4
F7
FF
F0
02
FC
02
08
F8
1A
11
FD
1B
E1
0B
E7
E8
04
F0
E6
FA
16
F7
FF
FC
F6
EA
10
E6
FB
06
0A
0B
09
07
04
F6
09
03
00
0E
09
00
FC
11
FF
05
01
0C
05
F9
F2
F4
FA
0A
FA
ED
F2
E4
06
F1
E6
27
1F
08
FE
0D
01
02
0A
C9
F8
E3
C6
03
E6
FD
05
E5
10
07
0F
F7
05
ED
E8
DE
0D
EE
D9
18
04
2D
DC
03
E4
EA
17
F0
FC
F3
1B
08
F9
05
DB
F1
0A
EF
F5
C2
F8
E3
EA
0B
05
09
FE
EC
F0
16
03
23
F8
F6
F6
F9
0D
FE
E9
11
FD
02
17
E9
EC
FB
D6
21
FA
0F
20
11
D8
08
EF
10
E8
E9
F8
09
F4
F9
F3
F7
FA
25
EA
FF
05
00
01
13
04
F8
E2
E5
12
06
EE
DD
2A
02
EB
F5
11
ED
08
F9
09
EB
00
08
FF
0F
FA
0B
01
FA
EE
FD
F5
E6
FB
09
05
E8
05
DA
FC
F4
01
F2
F2
FE
06
20
0B
F8
F8
0F
ED
D2
ED
ED
10
FE
DE
03
FA
F3
DD
F2
13
21
EF
DC
FC
22
F0
11
EB
F0
F9
E6
0F
FD
FC
19
CC
F8
14
05
FE
F2
3C
26
06
10
F9
EF
F3
07
1C
D8
EA
05
0C
FE
E7
F6
06
10
22
01
00
E8
10
01
FC
09
FE
F6
EF
10
F9
0A
12
1D
03
0E
0F
DD
F7
ED
F5
EB
E8
FB
F2
20
DB
02
01
02
09
F8
0E
FD
09
11
EC
F0
0B
08
F8
F1
E5
DE
0C
F3
F6
EC
D9
D6
F0
ED
0F
EF
EA
0E
EF
1B
EC
ED
FD
07
14
DF
FD
F0
0B
F7
05
0F
08
FC
CF
0C
02
FA
09
05
FD
EA
0B
DA
EF
0F
F5
03
FC
F3
E9
D0
10
08
01
FB
FF
1F
DD
E6
1C
F0
F4
E5
04
01
04
05
04
DF
01
15
F3
0E
F6
EA
E4
E5
0F
FA
E7
00
FA
02
F5
E1
0B
04
11
F1
04
FB
11
17
F9
0C
F7
E4
AF
1E
FD
EB
F5
07
EB
FA
0D
D2
11
CA
EA
FB
F1
07
09
0E
F3
1D
E9
F7
18
15
0D
E0
0C
16
04
F1
FA
08
04
DE
E0
D6
08
12
E5
11
E4
D9
00
F0
E3
08
FF
F5
FB
FC
01
04
0F
F7
0D
F2
13
F2
EF
C9
2A
D4
04
F8
F9
17
FA
F9
07
0B
22
02
E7
F2
D2
E7
EF
02
15
09
00
DB
F5
FC
0A
1B
ED
13
FA
EF
03
E5
17
FE
04
04
0D
22
0B
FF
1B
F4
01
00
E7
FC
F3
F7
0E
0A
FB
FF
F1
EC
EC
04
EE
08
EF
0F
10
0E
F7
10
04
0D
C5
F2
E6
05
F6
09
01
F7
E6
F6
ED
F6
0C
EA
FB
FA
25
FF
F8
F3
FC
04
02
F6
F4
04
14
ED
DD
F1
FE
04
06
01
EB
F6
FD
E1
E1
01
0C
08
F3
FD
F7
ED
07
E9
01
EF
FB
F6
F2
F1
E6
ED
FD
D5
FD
14
0F
07
EF
EB
F9
06
2D
EC
E3
05
07
F8
F7
F9
01
14
02
F3
14
F9
E3
08
F4
24
FF
EC
04
E7
FA
FB
F2
10
E9
00
D4
EC
EF
EE
DF
24
FE
1E
E6
EE
FE
EA
1C
0D
F3
F8
F7
FC
E8
0F
0D
11
FD
FD
14
0A
14
E3
F8
D4
0A
D2
0B
01
0E
F3
C0
00
FF
07
31
14
02
F1
1A
F1
EB
0F
04
FF
F5
FB
F0
FC
E1
DC
06
F5
F2
EF
0F
F7
07
FC
FE
FE
FC
02
07
09
F3
E5
F7
DA
15
F6
E7
E7
F9
EB
EF
F5
14
F3
D3
E5
FD
CE
00
DB
D3
D6
E3
0C
E8
10
F7
FD
FF
0B
ED
0B
00
05
EC
EF
EA
F5
F8
0F
FF
D4
F3
0D
FB
11
10
08
08
11
E9
EF
08
08
0B
F0
11
F5
E0
11
D0
ED
04
0C
E7
0A
FE
1B
F9
03
FD
04
0B
01
F8
F3
03
16
F2
E7
02
0D
F6
FC
F6
00
EA
0A
EA
17
1A
F5
06
F7
E3
1F
19
02
02
F3
F7
EB
FD
00
03
E7
F3
FA
EE
FF
01
06
15
FC
00
0D
05
10
FC
F1
13
FB
1B
F4
0A
FF
E4
EB
1A
F0
09
11
0F
14
F1
09
07
FC
FF
FA
10
01
F4
FA
F7
EF
D5
EC
F8
F0
20
19
11
F8
CA
F8
F5
08
17
25
FC
FA
F6
E1
EF
07
01
00
00
E8
17
0A
00
FC
12
04
0A
0E
0E
F1
0E
07
04
29
F9
2F
E6
EC
E7
EC
D6
0C
F4
02
F7
09
01
09
15
0A
10
F8
F3
F7
14
11
EF
1B
FB
FD
D7
11
FC
F9
F4
02
DB
ED
E5
12
FF
0F
EE
04
D9
18
03
07
03
F1
0C
05
E4
F9
10
F0
FB
ED
07
EB
16
DE
04
06
E2
0C
08
20
F8
F2
F3
D5
0C
0D
E4
26
FD
0A
E8
F6
08
FF
14
07
F9
00
F5
14
05
EF
E4
08
FD
FE
05
F7
ED
07
FE
EF
ED
ED
13
07
F8
FF
F2
E4
E6
FA
F1
01
28
F8
D7
12
F6
1C
F5
FF
09
F6
FC
F9
FE
EA
00
1B
E7
FF
F5
F2
18
E9
17
0D
F5
F9
10
2B
F9
1E
0B
ED
0F
06
11
07
F7
1A
21
0B
1A
F5
DF
E0
EF
FA
F5
FE
E2
EB
F4
0F
FB
01
C4
EF
FD
0B
09
E1
F7
02
E3
E6
05
EC
FD
1A
02
F0
03
EE
E4
1A
F4
FB
F6
FA
07
FB
05
E2
06
09
F0
E3
FF
00
EB
ED
F1
17
07
1E
F6
F2
07
D9
24
2D
00
FF
DB
C9
FE
01
0B
FE
01
D6
43
EB
11
CC
FD
EF
CC
14
26
F9
12
EF
F2
26
F3
EB
FE
FF
10
01
F1
D2
08
DD
E2
FD
E9
11
14
14
CA
1D
DE
16
10
03
F8
E1
26
0B
F6
37
F4
EB
36
D7
E8
E0
39
06
FF
21
E6
E9
F6
EE
08
D6
F6
14
FA
1A
FC
E0
F6
E0
F7
E7
EC
0F
FE
3B
03
05
1E
F1
ED
02
11
F0
0A
E7
09
EC
F7
EE
1E
EA
E2
11
DE
07
F1
FD
F7
02
E1
10
28
0D
0F
D0
0C
E1
06
FF
E7
E6
DA
EC
ED
F2
07
0B
FA
18
DF
DB
F3
F9
07
22
00
F0
F2
F4
08
F1
F4
ED
E5
ED
08
1C
D8
E4
F8
FC
16
E9
16
D3
FE
FE
0A
FD
F5
F4
E1
29
FF
28
13
F1
F4
12
07
E1
0C
E9
02
F5
FB
01
E5
0F
E1
F0
FA
16
11
E2
F6
37
FC
2A
09
EF
FC
DE
21
24
F2
E1
06
EC
F6
F7
FB
08
EE
FD
DE
ED
F0
E3
E6
02
18
F8
F5
F5
EA
F4
1A
15
06
06
E8
E8
E1
0E
10
00
06
F6
0A
05
FE
F8
F6
14
E3
F3
F4
FF
11
09
06
0A
F4
1A
E2
E7
EA
FB
09
E7
FE
0A
E5
EA
1B
F0
03
F0
0C
EA
DC
D9
F6
10
01
0C
FD
01
06
04
F4
FB
E6
FF
FE
17
FA
F4
14
ED
E8
E7
1A
FC
02
00
03
EB
04
DC
E0
FB
E8
F5
EB
FC
F4
EF
FB
00
EF
FC
0E
ED
D1
D2
FB
DA
29
05
12
F9
00
E4
03
E1
0D
F8
F4
0D
CD
FF
01
F5
F8
E4
06
0D
01
06
03
EE
D9
07
FD
EE
EF
2A
F3
27
0B
F9
03
DF
F1
01
27
00
14
13
0F
10
0A
F8
2A
2A
0C
FF
0B
06
0C
FE
F5
F3
E7
F7
34
05
1C
13
FE
F8
01
FD
F7
DB
EE
ED
01
F4
E4
04
10
EE
0C
E9
0B
EF
CE
0B
08
F1
D5
FA
FF
FF
D7
D8
F6
F5
04
06
0C
EE
FB
EC
FC
EF
30
FF
E5
04
0C
E9
CE
F8
D7
18
E7
FF
21
04
EE
DC
03
FB
F9
E8
E6
E7
FA
E0
ED
1B
FA
0B
0B
CC
ED
EA
D1
1A
F8
32
E6
E2
FA
DF
24
10
00
F6
F6
0A
07
F9
FE
FD
E3
0A
F9
DB
0A
0B
EE
F3
E9
DD
15
F9
07
0A
13
0B
F5
0C
09
09
26
06
D5
F7
E2
FB
FA
05
0F
00
D8
E7
FB
F5
20
11
F8
11
F0
F1
08
FD
0B
FE
04
F7
0C
17
E4
0A
16
F0
FE
08
03
F9
0A
E6
03
12
02
0A
E6
F4
EC
ED
03
D6
09
D8
F1
09
D9
F5
09
EC
07
00
00
FF
FD
EC
FE
19
1B
F8
E3
FF
EC
10
FC
EC
F1
FD
04
F0
DF
FB
F0
F6
09
0D
D3
00
16
EE
01
07
03
E0
07
FB
EB
FF
F9
03
F3
01
0F
FA
07
06
F9
02
10
F5
EB
00
F8
14
FF
17
13
03
05
EA
0A
ED
FD
F4
FA
17
FD
0B
EF
06
E7
0E
F4
F2
0E
01
F5
E3
12
F6
E8
EA
10
F7
EE
ED
15
FC
FA
EF
0C
03
EA
07
00
F1
02
10
FB
FE
F4
FA
EA
ED
F5
16
EC
F1
FB
03
F2
F6
F0
EF
F3
16
07
FD
25
1E
15
EA
25
E2
ED
2A
03
DE
1E
F9
E5
0D
0B
16
07
20
EF
09
19
DC
04
EC
09
02
EB
01
0B
11
EB
01
EE
0A
2C
20
0D
EC
0D
06
26
F7
F5
21
11
D5
F8
DC
FD
0A
FF
17
DA
E0
04
EE
FD
E5
F1
EF
FD
EB
FF
F2
03
04
22
F2
16
EE
F0
DA
1E
F5
0D
EC
EA
0B
E6
00
E3
13
07
DD
05
E7
E1
05
05
F0
0C
F6
F0
FA
FD
F9
E1
FB
E0
F9
FA
F9
FC
06
09
0B
0A
03
0F
05
EE
FD
0F
E9
F8
FF
F1
09
ED
E9
0D
CC
F1
09
FE
06
0B
F4
04
12
FA
06
0C
02
1A
20
0E
0B
F8
F6
FA
0B
F8
F6
0C
04
01
EF
F6
D9
24
F3
F2
15
CD
F2
FE
F9
01
C1
0E
E0
01
0A
05
01
10
07
F2
F8
06
08
07
00
F5
F8
F7
AF
00
00
F7
E3
F6
F9
FE
0B
06
FD
01
07
01
EA
F2
0D
0A
E5
07
24
ED
FD
08
00
F0
FF
0B
F3
05
FC
F1
00
F4
F9
EF
11
0C
F4
21
F4
F6
ED
FC
FB
02
FB
EC
01
FF
E8
F5
FB
F4
F6
F2
FD
F7
F8
EF
03
0C
0E
05
F3
EE
00
19
1A
FC
04
10
E6
07
EC
F2
E5
FF
D5
04
14
FA
F2
18
F7
12
FD
13
EE
F2
F7
EF
09
DA
FE
FE
00
E6
F6
03
E8
0A
EF
FD
02
EC
F8
03
00
E7
01
FE
E4
F4
E2
0E
00
0F
F9
EB
03
F9
1C
1B
EB
02
F4
F8
F7
02
16
F1
FE
EC
ED
F1
CB
00
1B
0C
F0
04
16
F9
15
E8
0B
E6
E5
FD
0D
ED
14
E8
FD
01
ED
19
FC
EF
FC
04
EE
15
F7
F6
F5
11
0B
ED
11
00
09
EB
06
FE
E3
07
FF
F7
0E
FA
ED
FC
EA
F9
FA
EC
E8
F1
F5
E0
F0
FD
F4
DE
F2
F3
ED
E9
0D
FB
E7
EF
E6
FC
EF
0B
F5
F9
E0
0D
F7
FC
F5
04
EB
F1
FF
FF
02
05
F7
05
F8
F9
12
E8
0A
01
EE
12
04
C2
14
E9
FE
F4
F6
0C
FC
06
FB
FC
05
F9
FC
FA
FC
F4
E9
03
03
F9
07
12
01
04
F5
0D
19
07
00
05
05
F8
DB
E2
EB
FC
F2
FD
FA
0B
04
0E
FF
F0
06
F6
F9
DF
E9
FF
EF
DF
DE
DB
02
F4
05
F6
FF
13
E8
F9
FD
EA
1A
10
FA
FF
F5
F0
ED
05
FB
FF
06
04
F7
ED
1E
E5
EE
15
F8
FF
05
0E
F7
F3
F1
03
12
ED
E8
F4
09
07
FB
FE
E4
02
EA
F9
EC
EA
EE
FC
04
F3
E8
04
F0
E2
0C
03
E8
F5
0B
E6
E9
F2
F8
D6
0A
FA
F6
0F
ED
EE
06
FA
F7
FA
FA
F2
F2
01
0B
F7
07
EF
EC
FF
00
EE
DC
F3
25
02
07
FC
F1
ED
F6
08
0A
F9
05
0F
EA
0C
03
F2
0B
06
EE
22
EF
EA
06
09
F9
0E
FC
FE
FC
06
E4
E8
2C
F9
E9
0E
FA
25
F0
F6
DA
07
F5
E7
04
DE
FA
02
1F
17
FE
12
FF
08
14
E4
E8
20
FF
25
FA
00
F9
13
FF
E8
F5
05
EF
12
27
F8
E8
08
FF
F7
EE
07
F4
FE
09
FE
DC
FA
EF
FF
D9
06
FF
FA
F9
12
ED
1A
12
EF
FB
EF
FD
F0
E9
FB
02
ED
F2
13
F2
EF
F2
08
0A
F2
05
04
10
EA
03
0A
01
F6
E9
07
01
03
FE
F2
DF
F4
11
00
F8
03
06
F4
0A
F6
F5
ED
FE
06
FD
16
03
FA
F9
F8
DC
0E
F8
F3
0E
0E
FD
F8
FF
0E
F3
F0
0C
F2
11
F9
D2
0E
F0
E9
F5
F6
06
EB
EE
FB
F8
06
F6
E8
FE
EE
13
FD
13
E4
FF
F5
F6
04
F5
0E
09
E7
FA
11
0C
ED
F9
04
12
F2
16
14
09
E9
02
0A
00
E0
FA
EC
19
05
F3
07
E8
05
FE
F6
EA
F1
18
23
FA
23
FC
F0
FD
16
EA
0C
02
14
01
FE
03
FA
05
F5
0C
01
22
FD
16
F6
08
F5
F8
1C
17
DC
E8
FF
F3
25
13
F8
D1
06
19
E8
FF
25
22
17
10
F9
02
FD
FB
0D
E7
07
06
03
0F
FE
EC
FC
FC
07
F5
F5
E7
10
FF
FD
FF
0C
13
F0
09
06
DE
F4
ED
00
F6
F6
F5
08
E9
EA
FB
EF
03
F3
09
DA
FD
F1
0D
FD
E2
06
FE
00
0C
FA
00
E1
EE
FF
F1
FD
DC
14
04
07
FC
DE
F1
FB
EB
18
E1
DD
0D
0A
F5
EF
EF
0A
FB
0A
EF
FB
DB
F0
B8
F2
02
FC
E0
FC
E7
E0
05
FB
17
05
E0
0D
D9
D4
0C
FF
01
F0
0B
07
06
EB
C8
E3
06
D4
DD
FC
FD
FC
F1
FC
0C
20
EE
14
F8
03
F1
0F
E4
F7
B9
01
EF
01
F7
FC
F4
EE
0B
FE
05
FD
06
F2
FC
F9
08
DF
00
01
2E
FF
02
24
02
05
12
1A
FF
0F
F9
FC
DE
25
F1
EC
F2
F1
F9
05
F6
D0
E4
06
F5
03
00
1C
F2
00
EA
F9
F2
F8
E2
F7
03
FB
D6
FE
DD
F3
05
F2
0E
FB
E2
FE
00
E8
F5
E8
26
FC
EF
F2
F2
E4
12
EE
12
EC
05
F9
F0
ED
FE
FA
0A
EB
28
F4
12
0E
03
FD
0B
17
F9
EC
F6
15
04
02
ED
F2
04
13
F8
0D
02
13
08
F3
EA
E8
18
00
EE
0A
19
03
D5
EF
F3
CF
F3
04
05
D0
F2
10
F0
E6
F2
FB
F8
FC
00
E2
EF
FE
FD
0B
03
F7
F5
FD
F0
17
FB
08
F0
D3
0D
F9
F9
01
08
F3
F3
0D
F1
E3
03
F9
00
FE
F5
ED
F9
09
10
00
F2
F5
01
FB
F5
09
F7
07
F2
01
0C
0E
F8
FF
D6
EF
0C
F5
FF
E8
F1
E2
FB
FF
FB
08
FF
FE
F7
FC
FC
DA
EF
EA
F4
FA
0A
F6
FC
F5
DB
EA
08
1F
01
03
EE
E8
E2
F2
0B
ED
0F
EF
F7
1D
00
F5
F5
0C
08
FB
05
ED
E1
F6
04
E6
2C
E9
06
F4
E1
E4
E5
D4
1A
EE
18
DC
00
E8
E0
FF
0D
F7
F7
FA
E6
FC
F5
F6
F2
00
E1
FB
F2
F9
FF
0B
FF
09
04
1D
00
FD
07
F7
08
F8
09
03
E9
E8
0F
E8
FA
FB
FF
FB
F4
FB
FD
0F
0B
0A
05
F9
01
01
0D
E7
06
17
F0
00
FE
EB
E4
FE
0F
FC
00
FA
0B
F0
09
0C
F6
E3
00
07
FA
03
0F
EE
00
05
01
EA
18
EF
02
E3
06
09
01
F4
F3
F4
F2
11
19
F7
F9
0F
F3
FA
F1
08
0F
14
0B
13
01
F8
FF
0B
0A
0C
F3
1C
02
FF
F8
05
16
F6
E9
06
E2
FB
02
DC
E5
E3
36
E0
F5
02
EB
0B
F2
F0
E4
F4
F1
08
F4
DC
EE
02
F8
0B
F4
00
FA
05
F1
F0
E0
13
DB
09
F7
08
0B
FF
0B
F6
F3
FC
FC
F9
0F
D6
02
01
F9
D0
F8
0E
FA
F4
04
16
03
F1
0C
ED
03
07
ED
01
FB
05
05
FA
00
FB
FA
FD
09
05
13
0A
F1
F8
F1
09
04
0C
02
EB
F0
02
F2
E6
DB
E3
F6
00
01
F3
10
FB
CB
D8
11
C6
D7
EE
1D
F1
11
F0
F5
06
EF
08
28
00
F2
E9
FE
05
07
F7
D4
00
D5
0A
E0
19
FA
F0
E5
EA
BD
0F
07
00
EA
07
0F
C9
E4
01
EE
18
0B
F8
EA
E9
1D
FC
F4
E4
09
F7
0B
F2
EE
02
F6
0B
FB
12
FB
05
DE
F5
07
11
F4
08
1A
0D
05
FE
F2
05
06
E4
FE
0D
F0
E7
04
F4
F1
F6
EC
01
F0
F3
E7
DE
FC
F4
D9
0B
E7
FD
08
01
0D
D8
05
F2
F3
F2
ED
16
12
F4
F5
10
EF
F9
29
0A
17
ED
F6
FD
01
F7
03
FD
0F
06
0E
DD
E0
01
E9
17
0D
1A
D1
0D
EC
01
F5
FC
E3
06
FA
F8
FE
FB
06
22
16
1F
14
02
11
18
FC
17
09
07
F4
05
DB
F3
FB
FD
0C
05
06
F6
16
10
FC
EA
06
00
EF
FF
F5
17
FE
03
F7
E9
0F
18
ED
FC
F7
FC
01
E7
02
F6
F8
FC
0A
EE
20
20
F0
E1
01
00
FC
FA
E5
0F
E7
E5
03
FC
09
E6
FA
06
2A
F5
07
0D
08
FB
FD
13
F9
F6
0C
05
06
0C
EC
E5
F8
F5
17
06
1B
F7
E1
EB
06
F8
E5
04
00
00
F1
0B
FB
01
EC
F4
12
F7
FC
0A
EF
0B
05
F0
0A
10
EB
0F
F0
11
F0
0D
0B
EF
12
F3
0F
E6
FE
EE
14
0E
03
00
FA
03
0D
00
0E
F5
04
0D
FF
0D
F9
00
F0
02
03
F8
0C
F9
04
12
02
0B
13
FC
FD
16
F0
F2
FF
FF
06
10
DD
0D
FA
F5
02
ED
FF
13
00
22
FA
FD
0C
EC
0A
EE
FC
0A
00
DF
11
F2
ED
00
F3
F6
FD
F1
05
F7
03
FE
07
E6
09
FE
FB
FD
EE
04
14
02
F1
FE
EC
F8
07
04
09
F2
12
0B
01
0A
04
01
F2
0C
02
00
EE
FE
EE
EB
F4
FE
DD
FF
01
04
11
10
FF
11
06
DE
F6
FB
EF
D7
EA
EE
09
F5
FB
F9
00
F5
04
F6
FF
14
F8
11
F7
06
F0
01
F5
F7
06
EB
EE
FA
EB
FA
E6
F5
01
F2
F2
12
F9
FE
E2
E6
0F
06
02
F1
FA
0D
FD
FF
E4
F8
03
F8
03
E5
E2
F6
D0
EB
00
EB
1E
FA
D6
E5
FE
FF
E5
14
E6
06
F1
FB
F5
E2
06
FC
17
07
FE
F3
13
0A
FD
F2
F1
FA
0B
07
FA
DE
01
D3
DC
FE
F4
FE
00
E7
05
F9
06
FC
EC
12
F2
0D
FB
02
FB
02
15
11
25
E7
F3
EE
06
EB
FD
05
F0
FB
0F
09
F7
DF
11
F5
04
26
DB
0B
FC
FE
EA
F0
E8
1E
36
F0
FA
26
FE
FF
11
2B
F4
1F
E7
31
EE
EF
E0
10
2A
E8
E5
F6
E7
00
FE
DB
0D
E7
2A
D8
DF
04
D8
24
11
F2
F9
0B
04
0D
F9
F4
ED
07
F9
FA
E7
FD
EC
F7
00
EE
0B
01
E7
E1
0E
E9
F4
D9
F3
F4
F6
EF
0E
FB
ED
05
06
E9
EB
E8
01
04
05
F3
09
FA
F4
F4
E7
FA
F9
0E
12
E3
F9
08
EB
0C
03
04
FB
00
06
09
FD
F9
0A
F9
FB
F9
DB
04
0F
01
F9
04
F9
F8
0C
0B
F6
02
F1
FB
EB
FD
0E
EE
08
0D
06
FA
F2
0B
03
0A
0F
0C
0E
F1
11
16
0D
F5
EE
0F
05
06
04
FF
F3
FA
FF
EE
17
01
10
FD
F2
F5
0C
F8
EE
F3
07
16
09
F9
0C
01
09
0B
FA
F2
1D
F1
EB
F3
0B
04
05
FF
09
F6
16
F6
FD
00
EB
CE
0F
FD
F4
DE
DE
F7
FE
FF
0E
02
F7
16
18
E8
11
F5
F9
04
FF
F5
EA
10
DE
0F
07
EA
09
ED
12
FF
EA
0A
F2
1D
FF
01
0D
E5
EA
EE
D3
F8
DF
08
04
06
F7
E4
E0
0B
EE
FB
FB
0D
08
E2
0D
09
1A
FC
02
14
F9
C1
04
F1
06
11
F2
EF
D8
1A
02
0C
03
E9
07
0D
F5
00
F8
08
DE
0C
0D
02
06
07
EC
ED
F6
FF
05
0A
FD
F6
E4
17
0C
DF
F2
EC
13
D5
05
01
F3
04
FD
05
0A
CB
F6
FC
D9
FB
F0
09
FC
18
FD
04
12
FC
0C
0E
F8
0E
FC
EA
00
04
1C
F0
F7
F0
01
EA
02
02
0C
17
EE
14
FF
0E
FF
14
1D
0A
04
EF
15
F0
0D
1D
17
0B
FC
F1
12
EB
0C
04
F1
F6
04
18
02
FC
FD
1B
FE
09
EE
13
F8
FE
F6
F4
FC
F0
05
02
F7
02
FE
06
04
08
10
F1
F9
EF
F2
FE
E8
ED
FC
E2
01
0A
FE
EF
0D
0F
03
0A
F8
F3
04
05
0D
F0
F9
0E
F2
17
D9
0E
F7
FE
0F
F7
FA
F3
F2
07
03
ED
FD
FC
FF
01
E8
08
02
01
EF
FE
FD
ED
EE
DE
FD
F1
F8
09
F1
23
FA
00
F5
F8
ED
12
01
06
F3
E8
FE
12
F1
F2
00
FB
09
DC
F4
04
15
E8
01
F0
FA
03
02
F2
F9
F8
F7
FC
2A
04
D7
FC
FF
F0
FC
F8
FF
16
FB
0C
E9
03
FF
FB
FF
F8
F9
F5
F3
F8
02
04
F9
00
FC
FE
FD
12
FE
05
FA
F3
FC
FB
FC
F5
00
13
0A
07
F6
0B
05
03
0A
FB
F8
0A
09
DC
F2
F8
0A
F3
00
F8
F5
EB
F9
04
0E
0B
16
F7
F3
0D
F2
0F
0F
0C
0B
02
08
E8
14
0E
07
F6
07
06
04
F7
FE
07
14
05
F0
F3
F0
FF
F6
07
FD
ED
FD
EE
FF
FE
27
FF
F3
14
F1
07
10
14
D7
07
C7
F3
0A
01
06
1C
E8
F5
FF
0D
11
0D
2C
FA
FD
17
03
20
E5
17
0A
F8
F8
0B
EC
EE
E7
FD
08
10
08
07
03
01
F9
10
15
00
E1
0E
FC
F9
04
E5
E7
04
FC
F5
FE
0E
1D
0C
F6
D7
01
FA
08
D4
F6
00
F8
DE
FD
FB
FD
E8
FF
03
FA
0B
12
03
EA
F6
EF
17
0C
19
00
F5
EC
F7
0E
FA
0E
FF
E4
1A
E4
0F
21
05
00
02
FC
DD
EF
04
0B
03
01
0B
F0
08
01
F0
F9
09
1D
FC
F4
10
07
0E
0E
02
EE
04
0D
06
FB
FC
DE
F7
FF
F7
04
DA
06
FC
12
FD
04
FA
14
F1
F6
FE
FA
09
02
EC
F0
E8
FD
07
11
1E
00
FC
F8
EE
FF
FE
12
15
EA
F2
DA
E9
F9
EF
F1
E8
E8
F0
01
0C
FD
01
FD
04
F8
0F
F0
0E
E5
00
E0
F5
02
EE
15
10
E8
09
E7
F9
11
FD
15
29
F7
02
F3
0A
F2
16
11
E6
F9
E1
11
18
10
FC
0B
02
12
10
01
FD
CB
0D
FF
03
0C
F1
E7
EF
12
FB
FD
13
04
14
11
FE
F0
0E
E6
06
10
0A
0B
16
17
F4
16
06
07
F3
E0
15
F8
08
D6
0A
04
0E
FB
26
17
14
FE
F0
07
06
EF
0A
16
C9
DB
12
0B
00
DC
FA
EC
F0
0C
0F
FA
F9
1D
F4
1F
06
07
08
FF
F1
FF
FF
FC
ED
1F
00
10
0D
F5
FD
18
03
07
0E
FD
FC
EA
02
FE
07
FB
FA
FD
F6
F1
F8
0F
F3
FD
EE
F2
E2
03
06
0F
FC
DC
0B
E5
05
0A
F0
02
FC
F8
EA
0E
F3
E9
1F
00
0E
FE
F6
FE
F8
1E
04
04
00
EF
19
DB
F8
F0
DD
03
EF
0C
F3
0A
02
FB
07
24
0B
EE
0C
14
1A
F8
E9
10
F8
22
F4
EE
F4
E6
F9
12
14
EA
E3
E5
F3
16
03
E1
F7
FA
0E
FF
0A
F0
F1
1B
FA
07
0C
EA
DF
FB
0B
04
01
FC
00
02
08
EB
EB
0B
FF
02
13
EB
F9
F5
00
FF
F9
02
0A
F4
FD
F4
23
09
F0
07
F0
EE
09
06
08
FF
06
F7
ED
FD
05
06
0A
04
19
01
18
15
FC
0D
FD
20
F7
08
2C
FF
0D
FB
FA
00
FF
FD
F4
09
00
04
08
00
1B
10
F2
15
EF
F9
FF
04
10
1A
02
FD
F8
F3
F2
07
06
0C
03
0C
01
26
11
09
11
EF
1E
F8
03
EA
EE
EB
10
05
E7
EA
F8
FF
F7
02
E7
FC
F3
FA
EB
02
FE
F8
FD
EF
F0
16
FA
07
ED
12
01
18
D7
05
F0
06
14
0B
FE
EE
04
03
F6
09
EB
EF
F3
D5
DA
E6
FA
F2
F5
01
07
02
EC
EB
01
FC
FB
11
09
FA
EA
FD
F4
0A
0C
02
05
F3
E9
0C
F2
15
F8
01
F9
11
01
F8
FF
F2
18
01
15
0D
FC
F7
0B
E5
0E
FA
F5
FF
0F
05
E7
FE
02
04
FD
F4
EF
DB
0F
ED
F6
11
05
0A
0D
E9
03
10
EF
02
0D
FE
E7
F7
03
EB
01
FB
04
E8
EF
07
F8
03
FD
19
FD
EE
12
EE
07
07
14
09
15
E5
1D
FD
FF
F8
FC
FA
F7
F3
FA
13
10
FF
CF
0F
E2
1C
E3
0A
F0
13
07
03
F1
F8
11
19
04
05
E4
F6
14
F8
10
19
05
03
16
03
10
04
1C
FC
01
16
0A
10
06
0B
1A
03
06
E8
0C
F4
FE
F7
E9
FF
0E
12
03
03
EC
06
0F
FA
EE
FF
EA
00
FF
0E
EE
FB
F2
F6
02
FF
0E
1F
FC
FB
01
07
F3
1C
F7
FA
FF
D8
01
01
15
EA
02
FC
F3
07
02
05
0D
01
12
01
F7
08
EE
FF
F2
FD
F2
FC
FD
F0
02
0D
1C
12
F3
02
F8
1E
FB
08
F9
01
15
FF
EE
18
02
0C
F6
00
FD
08
06
13
EB
D1
1E
EF
F0
05
04
04
11
FA
CA
00
03
0C
FC
E2
03
FF
EF
F9
08
F6
0F
F4
23
03
10
F2
04
F4
DA
F2
01
F9
EE
F8
ED
0B
CC
08
03
00
E8
F9
FB
08
02
E9
FE
0B
FF
03
FF
FE
0A
F5
DB
12
10
EF
00
00
EA
03
F3
02
EF
08
F3
FA
13
F0
EF
F0
0A
F5
FD
F2
1A
FB
EF
05
08
13
F1
EF
FE
F4
FF
04
00
03
12
0B
E4
F4
F1
01
03
13
EF
FB
09
E8
08
01
F5
FB
F4
EA
00
F2
05
F6
F2
01
EE
08
03
03
11
02
05
01
F9
00
0F
FC
F6
04
FD
E7
1A
03
F2
FF
F7
01
00
11
E8
00
F7
FF
07
09
01
07
0A
E6
07
F9
F5
ED
F3
EA
03
F8
F8
FC
F4
F4
F3
FE
F9
E3
E9
0E
00
E8
F5
FD
F3
F1
F7
ED
FB
01
FF
17
EA
0D
F0
ED
D9
05
F1
F8
F7
14
F4
FF
E4
E5
F9
05
08
F9
15
F3
FC
F9
ED
09
0A
F7
11
E2
FF
0B
02
02
F2
E5
F7
E8
10
0F
FF
FF
05
01
E8
E3
05
F1
22
0A
F6
FD
F8
DD
11
FC
07
09
02
F1
FA
FE
E1
07
08
FA
07
0A
0C
00
F8
FF
0E
0C
00
0E
0E
F5
ED
08
F1
03
04
F7
EB
01
EF
0E
09
FA
F7
09
11
07
0B
12
00
0C
F9
EE
0A
01
EC
0E
F0
FE
0C
F8
17
FD
01
FC
00
13
F7
08
FD
FF
EF
F9
F5
F6
F1
EF
F6
FA
14
F1
22
F8
FA
09
15
03
E7
FC
F6
F4
EB
16
E3
0B
FC
F3
FA
02
06
04
FC
FB
E6
05
FA
F6
E1
01
E0
DF
FA
F3
12
FD
07
00
0A
FD
FF
FE
18
09
EE
F9
FD
F5
EF
00
01
F2
FA
05
08
F4
F6
0E
13
1D
06
F5
D7
1D
FE
08
12
0C
09
0A
01
20
0C
F7
1A
E7
12
04
EB
0A
F8
F5
0E
12
F8
0C
18
14
0C
0F
13
1A
0F
F0
FC
05
00
F5
EB
02
F7
14
FB
FC
09
0B
DC
FF
06
1B
FB
F1
19
F5
1F
1A
14
13
ED
F6
02
01
0B
F4
F8
FE
F4
FF
FB
0C
E8
17
FB
0F
EB
13
FC
0F
05
E2
0F
01
18
F8
E1
F5
22
12
02
07
03
F2
E3
E9
E9
02
EA
F7
E7
DD
E9
FA
E6
05
07
E7
FF
EB
24
19
E8
02
EE
0C
CF
07
00
EB
00
FC
F7
0F
DB
FB
F7
FE
FD
FE
08
EB
FC
03
F9
F3
FD
08
FC
F1
F8
11
0C
05
0A
0C
F2
F0
1C
FC
07
FD
06
01
ED
FC
F7
FE
0C
EE
FF
E6
17
FF
FB
13
E8
06
F8
07
17
E5
F2
F2
0E
05
0A
04
E1
01
01
FE
12
0F
09
F8
07
0B
F1
1B
0E
0E
06
13
02
0D
EA
1E
EC
F5
F4
09
F8
F2
E5
06
06
F0
2D
EA
F0
E9
E1
F0
F3
01
12
25
E1
FE
28
09
F5
0A
18
F9
0C
F7
04
11
F3
F1
1D
20
EE
EF
01
FA
FD
F6
E5
11
FA
24
04
F8
F6
DF
18
03
F7
08
0C
F8
0A
EE
FF
E9
F7
FD
EF
02
08
F6
05
FB
FB
07
00
F7
FA
03
F3
00
EE
FE
F3
F1
EA
07
FF
0E
07
14
09
0A
F5
F6
02
07
F6
02
F5
02
09
FB
07
0C
EC
0A
00
FC
FA
F9
F9
09
00
F8
FC
00
F9
04
14
0E
FF
07
19
02
11
FC
15
FF
EF
F9
EF
06
06
13
0A
FE
0B
E5
00
FA
FC
12
F9
13
EA
FE
FA
F8
F5
FF
FA
0B
DC
EE
FC
06
15
EF
DF
F2
17
1B
F3
01
F0
03
EA
05
F2
EB
11
E3
00
04
F7
F8
EF
0B
FE
19
F5
18
1D
16
FB
FA
FC
08
FE
EF
F7
F9
FD
08
FE
CC
0C
E7
EE
09
DF
0E
13
EF
F5
FB
D5
10
0C
ED
14
F9
0B
ED
DE
E7
FF
2E
04
EA
E4
0D
14
05
07
F8
F2
0E
04
F9
F0
FB
11
F5
08
06
F0
EC
07
00
0F
09
0A
D1
00
16
01
F5
F2
F6
0E
DC
F8
E1
EB
FF
FD
09
ED
FB
10
08
05
F5
F2
06
01
FF
E7
FF
10
FD
D0
EB
E8
FD
05
04
E3
01
1D
03
F1
FE
17
F8
05
02
FD
FF
03
0E
FB
FD
29
01
F0
F8
C8
FD
04
0B
05
01
09
09
07
01
E3
F6
FF
F3
09
F4
02
F4
0C
03
F4
F8
0E
FD
F4
01
F5
F9
00
D9
FD
D7
0D
FA
12
14
0A
0D
F7
03
FE
F6
0B
12
01
F8
D2
FB
F8
0B
EF
EE
EC
E7
E5
26
14
0C
D7
0E
D1
02
0E
FF
11
0C
E8
FB
F7
F9
DF
07
16
22
0F
1F
15
E8
FB
12
FB
05
F3
E5
DA
00
FD
0F
0C
E5
0B
F6
04
FD
00
F6
02
E5
DA
01
F5
ED
DC
EF
E8
0C
FB
0D
E3
04
01
0E
02
04
F6
FA
02
00
F7
FF
0D
0A
EC
FC
DF
F4
FD
FB
F6
0F
0A
EB
FE
01
FA
05
1A
F2
FD
FF
07
F4
FC
F0
0E
22
F6
F0
FD
13
04
0F
FD
E6
ED
F9
FC
12
F2
EF
0A
F2
FF
FF
E5
06
05
01
0A
FD
FF
F3
E6
04
E2
0A
07
04
F0
F5
E9
DD
FE
09
F8
04
0B
01
DB
E1
0A
DE
22
EF
03
29
14
0A
15
F4
E0
14
FD
FF
06
01
FD
02
F3
06
F9
F8
FC
EF
FE
13
09
E7
E5
ED
F2
06
F6
F5
F1
F2
FC
FF
FC
E7
00
F8
06
FC
0E
EE
F8
04
11
F0
01
02
FC
0A
F6
FE
EF
EA
EE
0A
07
FD
F2
04
05
EE
18
0C
00
EC
FD
05
0B
FB
08
FB
EA
E5
FE
FB
F2
09
F8
05
03
DD
D9
FE
0B
F4
06
F3
06
EB
09
08
0E
FE
19
E1
F4
00
F8
04
ED
DA
F4
07
02
14
E1
05
08
EB
F2
F8
ED
00
08
05
F4
01
F9
0E
F9
11
FF
F2
06
19
02
06
F0
F9
0D
FE
FF
E6
2A
07
F4
1A
F7
08
F5
EA
0C
1C
0E
EF
04
15
F1
FD
EA
FD
F1
F3
E9
16
0C
06
F4
08
F9
FB
EC
F2
0E
00
03
FE
F9
F8
FC
07
FB
DE
05
F6
E4
FA
E8
08
07
F4
F9
E6
FC
14
01
F3
EC
02
02
EC
F6
15
E2
FF
FB
0D
00
F8
07
F2
09
03
FE
EC
02
F7
FF
F7
F9
0B
11
08
F2
0D
FE
FE
05
18
F5
F8
0C
04
03
0E
F3
E5
F5
EB
FF
06
F2
FC
E9
09
FC
2E
E3
00
F9
11
21
10
F6
FC
E1
05
0B
0D
08
EC
F8
DE
04
13
0B
F3
E9
F0
0F
EB
0A
F3
0B
FA
07
08
F1
F5
FE
D9
0C
FF
13
01
06
FC
08
EA
07
0E
01
ED
FA
F1
2A
07
FD
FE
00
0D
04
FE
1E
F3
08
FF
FE
D7
06
0D
EA
08
06
FB
0C
F7
1D
1C
F6
19
FA
31
0C
F3
28
05
15
0E
E4
0B
1D
F5
E9
F2
1A
0E
F5
2A
13
DF
F3
EB
07
22
EF
E5
D9
E8
06
F4
F6
0C
04
FD
0D
FB
E8
07
FF
FD
EB
FB
F6
00
F8
0C
F6
08
0A
04
FF
05
FE
0D
0F
F1
F3
F7
FE
0E
01
10
FC
F2
0F
05
FB
03
00
D4
10
E9
18
0B
ED
F7
04
06
D3
19
F8
07
01
0B
00
09
E7
0D
F5
01
EF
04
05
01
FC
ED
EA
F6
05
05
E2
F1
03
EE
FF
D6
0E
E2
FF
F0
0A
DE
FD
05
EA
01
FB
25
F9
10
09
26
26
FA
13
F8
15
0A
F7
D9
EF
E8
FD
E4
F1
ED
03
E1
E9
07
1C
06
DD
E4
10
EF
FC
04
07
F6
FE
0C
FE
F2
F5
FE
F7
FD
FE
D4
FD
F2
EF
09
EF
1C
EE
E8
FD
EE
DD
F9
FE
EF
F8
F5
FA
01
E6
00
1D
FC
F5
0A
EF
1D
07
1C
FC
FD
E6
04
12
EF
FE
E4
11
E0
F1
FF
EF
E6
FE
0A
09
F2
0C
EA
1F
EB
08
09
FA
04
1A
F6
FC
09
FC
03
12
F1
F4
11
E8
DA
0C
E9
F1
F4
00
F9
F8
04
06
F2
05
04
15
F6
F9
EF
2D
F7
00
0D
08
FE
E7
F9
15
F9
02
15
07
FA
FB
03
FB
04
0B
04
1D
FC
FF
23
F3
F9
F9
04
F1
17
0B
FF
F9
09
0F
02
25
03
F6
04
17
EB
F6
12
F3
FC
EF
FA
0B
FE
F5
F9
10
F8
CF
F3
FD
F7
F3
05
F6
F9
FE
0D
F0
02
1D
FA
05
06
F2
03
14
04
0A
01
14
FA
FD
EA
FE
F8
FD
0B
EC
08
FD
FB
F5
01
02
FE
15
03
F1
0E
11
F8
04
E5
01
08
16
F5
E1
F9
02
FF
F1
07
F8
0B
F5
FE
1A
EE
F7
02
F8
14
1B
0B
E7
FF
E5
EF
F2
08
F5
12
DF
E4
04
00
FC
E8
E7
FC
D4
0E
FA
14
02
20
F3
18
02
17
06
06
EC
05
ED
08
F3
12
0E
0F
EB
00
1A
FD
EA
16
F7
0A
F7
03
E5
0C
F1
0D
FC
FA
0F
FB
F9
0A
16
00
F5
FF
09
01
1B
E7
EE
E9
DF
0F
F5
FE
EA
10
EA
FB
FC
F9
EB
F0
FD
06
EB
E9
04
04
07
EB
0C
08
F7
00
FA
FF
F2
F8
E8
00
0D
12
10
F8
EF
F0
06
02
E9
09
F9
FA
E3
02
00
06
06
FC
04
FA
DD
D8
06
00
DF
03
2C
DA
11
F3
F1
06
08
1B
01
F8
FE
F7
1C
F2
0D
35
E5
11
F1
27
19
F9
0C
08
E6
0E
06
EC
10
E6
F2
E4
F0
0A
F5
10
EC
FD
F6
F9
F6
F4
17
FD
EF
E3
01
F8
18
EB
06
F9
02
0A
F5
FE
09
F8
FB
FD
01
F7
FC
FB
02
FF
0D
FE
F7
05
EB
08
F0
F6
14
0B
DC
F7
F3
EE
F8
03
F7
05
03
00
02
09
14
0F
0D
0D
00
F4
05
FA
F3
05
FD
F8
02
00
EF
FD
19
0B
09
05
F7
F0
F6
FC
18
1D
0C
09
F9
FE
F4
F1
FC
DD
FE
0E
EF
0D
FC
FA
0E
F7
E3
06
E3
0A
F1
01
EF
FF
F9
FB
D5
F6
EC
10
07
06
ED
FA
09
FB
11
02
F2
05
F2
F7
E2
F2
F6
F5
F5
04
ED
09
0A
0B
05
01
02
F8
F8
FA
19
08
06
F3
FF
FB
04
F5
10
07
F7
00
09
FA
F1
08
F7
0C
FA
08
F6
03
0F
EC
02
F3
01
E4
F7
10
08
FF
E9
10
08
FF
05
09
0D
0A
FE
07
05
F4
0D
0A
04
F0
09
F5
03
F5
0F
18
FE
ED
F8
07
FA
FC
14
F7
01
F0
F8
14
10
F6
22
F3
1A
0F
EB
04
07
FC
F3
E2
EE
EC
FF
FF
FF
02
ED
F7
08
18
35
E5
0B
11
0D
EA
0B
03
05
18
F9
02
0D
0D
ED
06
F5
FB
F6
EC
FB
F7
02
E1
EC
20
02
03
06
F1
FA
EA
F8
11
18
22
E0
F7
1F
E8
23
0F
F5
11
F3
10
00
E9
08
FC
00
0A
EB
F6
05
F7
02
07
EF
FA
0A
DC
DF
00
EC
07
F3
0F
10
0B
1C
04
00
06
E9
14
00
F6
ED
07
20
01
FE
06
F6
FF
EA
FA
FF
FF
0A
F4
06
F6
0F
11
F4
FA
F2
05
F4
03
11
FE
17
FB
F4
F6
15
F7
F4
12
04
0D
04
EF
FF
0A
06
FA
F5
0E
FF
38
EE
07
FB
F5
00
FD
02
FC
0C
08
09
0A
F1
E1
33
15
12
10
02
16
21
25
02
02
F0
FE
17
FC
1D
09
FB
13
E8
F5
F1
F1
F9
F1
F4
06
08
02
FF
F4
FA
01
F8
03
F0
FA
05
08
ED
DD
02
D8
F3
17
00
ED
EC
01
13
22
F1
F7
16
05
E3
01
19
0F
FD
FA
D6
ED
1A
F1
0D
FF
10
05
F5
E3
FB
17
FB
FA
EF
F3
23
FE
11
0A
F8
E9
01
DB
05
18
03
E3
04
EC
CF
0A
03
01
E5
FD
FB
F5
D0
F8
FA
FC
E5
F2
07
00
04
07
00
E3
0F
FA
F8
0A
ED
E2
1C
03
10
E9
19
07
10
FF
F8
E8
1E
09
1F
0E
03
0C
EE
29
FE
0A
F0
F2
13
F8
21
EA
FA
FA
F2
F9
0A
FF
0F
F9
E9
14
06
01
FE
E6
0A
E7
F9
1B
0E
FB
0A
E6
0A
03
10
07
ED
F7
0B
F6
E7
00
07
F9
EA
FE
FF
03
FA
0D
01
FA
07
01
08
F8
06
EF
ED
0C
EA
F1
FD
F8
F2
FE
EC
02
02
F6
04
07
F7
08
E8
F8
FA
FE
F6
FD
F4
06
FD
FF
EF
FE
F6
FD
03
05
11
FB
F8
EB
FC
FE
17
16
03
08
04
F0
F2
12
03
00
F2
F6
12
FE
01
07
0A
0B
0D
09
07
13
28
01
ED
15
15
00
F1
FD
18
00
10
F5
03
FD
EC
00
0A
F8
00
FA
F5
0E
FF
0F
10
02
00
06
EF
05
ED
19
03
11
1C
FD
1D
FD
02
0A
F0
0E
0E
06
E2
FF
E4
FD
06
02
F9
EC
EA
FE
F0
02
01
F1
F4
02
E4
01
2A
F9
0A
04
FB
F2
06
E0
F2
04
16
EE
F3
01
0C
16
FF
E9
12
F4
06
02
F4
EF
12
E6
E8
FA
09
09
15
08
F5
EF
EB
F2
EB
02
F2
02
F1
06
07
F7
11
FA
0C
F3
00
E4
F4
05
18
FC
FE
ED
04
FB
0D
FF
05
05
06
FE
F8
04
07
F5
F7
17
1D
E7
FF
00
F0
FE
01
0E
00
F8
07
FC
F6
0A
0A
1E
01
E9
FA
FB
19
0C
07
02
08
16
F0
00
1C
01
0C
15
00
07
09
F7
09
0C
13
08
FB
FF
FC
1A
04
E8
FB
FC
F3
07
02
10
F2
E5
09
05
D2
12
06
F6
F1
F1
FC
EE
FA
F7
F7
FE
0D
E8
E3
01
01
04
11
0E
14
01
FD
FE
EB
F2
F3
F3
0E
F2
0E
E0
F3
FE
0C
FC
FF
04
0C
13
F7
04
EE
EF
0D
10
14
E3
0D
06
09
14
19
E8
D2
06
F5
17
F7
FE
0D
EA
07
07
E9
08
0F
E2
03
EA
FA
F9
D6
F9
FF
F6
D8
FF
FE
0A
F5
F6
03
19
17
1F
FB
04
F6
E6
0E
F0
0B
F7
DA
F4
EE
16
FD
F7
07
1F
FD
19
0E
1F
F5
F9
12
16
04
E5
D3
04
F4
0C
F6
F4
11
06
02
E6
FF
F9
06
00
00
04
E4
0E
F4
EC
E5
FA
0C
14
F0
EF
0A
FF
F2
07
06
F0
F8
F2
FD
06
FE
08
F2
F7
F3
E5
11
05
07
07
F5
F3
0C
EC
F1
F2
07
05
E9
FC
EE
F7
07
F4
02
F0
00
E9
E3
DC
F1
E3
00
DC
05
FE
FF
00
F1
0B
19
F3
EA
F9
F2
09
07
FF
02
04
F5
0A
E3
F5
14
05
F0
EF
FE
08
06
16
14
0A
F8
0F
09
F9
03
F4
0D
08
FB
F6
09
FE
14
07
FB
F9
02
F6
01
FA
E0
FF
01
E5
05
FC
F4
F3
03
1A
0D
E2
F1
05
09
0D
1F
04
11
FA
07
F6
00
DD
09
F3
17
F4
E6
00
FE
F2
09
0B
08
16
12
FC
05
16
0B
FB
14
EC
EB
14
17
F3
02
16
FA
ED
E9
0F
10
F4
F3
01
01
08
0C
E2
FB
E9
F9
02
0B
EC
1D
1C
F6
F3
DE
F2
F0
12
F8
E0
FF
00
FE
13
F9
FE
FC
F5
E6
0D
EF
0A
EC
E5
EA
EE
F0
F6
F7
05
14
F9
03
FB
EC
F0
F2
0A
00
04
FB
10
0B
04
FF
EF
EC
F8
EA
F1
EC
EA
FA
09
07
F6
F0
08
EC
F8
0B
0D
ED
F6
09
11
04
E4
F1
EA
FA
04
EA
FD
F4
07
F1
FF
F8
FE
F1
0A
EE
0C
F9
F5
E4
15
0B
09
F1
00
0F
10
05
09
14
F4
06
0F
0B
0C
F1
FF
FB
E5
06
F1
0E
FE
FA
F0
07
FB
FD
FA
FD
0A
07
FB
E7
F8
FE
06
14
03
FB
FD
FD
E5
07
0D
08
FF
F0
EF
F9
EE
F3
EF
F5
06
04
F3
E4
E6
F5
13
0C
FE
FF
00
13
F0
1B
F8
E8
11
E9
0F
EF
0E
E6
EF
07
F7
0C
00
03
0D
0A
F0
E2
10
01
E8
1B
EB
08
EF
EA
03
08
17
E3
01
0E
F6
1F
00
FC
01
EC
06
E6
04
ED
15
0A
FC
02
FD
04
06
F6
10
E7
F5
09
04
ED
03
05
F5
FD
09
FB
25
F7
01
0B
EB
06
22
07
05
15
03
0C
EE
17
D2
09
DC
F5
EA
02
F0
F4
C4
DE
00
0E
01
05
EF
FB
F5
EA
DA
F7
07
EE
E2
03
F9
F9
FB
E7
10
E4
E9
00
E6
0F
F3
12
FC
1A
EF
FC
01
FC
F1
04
EE
DD
F1
17
09
0C
18
01
F6
FF
F1
09
10
EE
06
FB
0C
0B
0B
F8
09
F7
FA
F8
01
EC
F9
03
0A
1D
09
0B
08
1E
04
F3
E3
F7
FB
05
F0
E3
F5
FF
EC
08
ED
EC
00
EA
FB
07
12
F9
EB
14
FC
26
EB
09
1D
03
DF
FA
01
04
F5
02
F7
FA
0A
FE
0D
E8
EC
07
0C
F6
F7
E6
EE
0E
03
E3
F0
01
12
17
0A
0B
02
FC
0D
00
FF
02
06
02
FC
0A
FF
F0
F0
F4
F6
F3
F3
F1
FB
0A
E2
07
15
F2
0F
FA
EF
14
07
0F
FF
0E
E7
02
F6
F7
07
FA
08
0A
0F
0B
0A
FB
07
FA
30
07
FA
FF
FE
FD
0B
FE
F1
07
06
F8
09
FB
18
FD
0F
F5
07
0E
1D
FE
02
03
04
10
F4
FF
01
20
15
08
1F
06
EC
FC
17
FA
16
03
04
03
0E
FF
E5
E5
0F
F1
F1
05
20
20
FE
D0
08
13
FE
0F
E0
0B
08
F3
EA
DF
F4
0A
0B
14
E4
F9
0B
FB
03
0D
0A
FF
FF
E8
01
0E
0A
F9
0A
D8
0A
FC
F4
F1
FC
EF
EE
0B
1D
F5
FB
FD
E0
1A
12
09
03
DB
FF
FC
D4
02
EC
F3
0A
F3
02
10
F9
14
06
F4
F6
F3
FB
F8
FA
00
FF
E6
F1
F9
F1
00
EF
E0
07
11
F7
F9
F2
0F
EF
0C
0B
EE
07
F7
0C
04
0A
02
FF
FF
07
E9
06
07
00
03
F5
F1
F5
E9
F0
EA
EA
F2
F7
02
10
05
FE
0C
DC
E7
E6
F8
02
05
FC
F9
EB
0E
F9
E2
FD
0D
E5
0B
06
07
04
11
F7
0B
F4
F5
0A
E9
1F
05
01
F7
01
F5
0B
FC
13
08
FB
F9
00
FE
F8
E9
0B
FB
F1
11
FF
EC
00
03
06
F9
08
F9
F9
FF
F7
20
22
02
FC
1F
00
FB
FB
FB
0E
F7
05
F1
03
05
02
F8
FB
0C
E7
FD
F9
F7
F9
18
F0
FA
F4
0F
FB
0C
E9
0A
0D
E4
F1
01
F4
F2
FC
01
FF
ED
FB
FF
F3
FC
19
E7
0E
0C
FB
F7
05
F4
F0
F7
FC
F5
0A
04
F6
03
E8
06
05
EA
02
FC
E6
FB
ED
F0
FF
09
FD
0E
F8
19
11
F7
F6
ED
FD
E5
F3
02
F4
F2
F8
0B
EC
FF
08
10
FF
F2
F3
F2
05
0E
FB
08
14
0B
00
11
FB
F7
EE
07
F0
0B
F4
15
EE
FA
FC
FF
F7
0B
E7
F8
02
F0
FA
FF
FF
F1
CB
ED
EA
E4
0A
F3
F8
14
F6
08
DF
FD
01
0B
EE
FB
18
FB
09
01
03
0E
F7
FD
EA
F6
E6
1E
EB
F4
F1
FB
FC
0B
F6
F2
F3
F3
15
FA
03
FF
F2
0C
F9
19
08
F4
F2
EB
F9
FB
FC
20
FC
F8
08
0D
01
F1
EC
00
FC
EE
0D
EB
02
EE
0E
F0
09
09
F9
F4
07
EC
07
FA
F9
0A
07
17
05
F9
FF
12
02
EF
F2
11
0D
FE
E7
F8
F3
FE
FF
FC
E7
07
08
F6
19
E2
0A
EF
10
04
0C
0E
02
02
0A
F3
17
0B
18
EC
0B
DA
EC
EE
F9
0A
05
F5
EB
08
10
F2
04
10
05
FC
10
03
EF
10
F2
02
F1
FA
00
08
04
0F
07
14
02
FF
14
EF
10
0E
FB
0B
F2
FD
FC
0A
03
03
FB
05
FF
0A
FE
10
0C
FA
0D
0F
16
07
09
FE
05
08
18
0B
04
EF
F9
F6
00
D6
FC
02
15
17
12
0E
0E
10
F5
15
F4
EB
EC
03
07
09
0F
1C
EC
FE
F9
21
EA
0C
0C
F4
F3
21
FC
0A
F2
03
EB
10
FE
02
02
0B
0D
00
F5
F4
09
F2
FE
09
F1
FF
05
07
07
16
0F
EB
E8
FB
F7
FE
16
06
E9
0F
FE
F0
F0
FE
F9
0C
F9
18
10
FB
09
04
0C
0B
06
FF
07
01
0E
F6
FB
FC
EE
06
12
15
FD
03
F0
04
00
01
F8
E9
E4
18
EC
0B
02
FE
FD
0F
3C
F4
16
FF
FD
2F
F3
21
0B
05
0D
03
F1
06
03
FC
08
F4
FE
EE
0E
F3
00
16
19
E1
0E
09
FF
06
00
05
14
EA
FB
07
EF
F2
05
01
0C
EE
FF
0C
E8
08
ED
FD
0D
FD
F3
E4
06
15
F2
FF
0C
ED
FC
EE
FD
08
06
F4
0A
07
FB
DB
0B
13
F7
EA
EB
04
EE
F6
F3
FC
16
F5
0D
05
F9
FE
07
F3
05
01
0B
00
F0
FB
F2
0C
11
FF
09
09
EF
FC
E9
EA
15
ED
FD
F3
F3
0C
F9
15
F1
0C
F6
09
01
EA
FD
0C
FB
DE
F0
E6
08
F6
00
E9
09
04
EF
F9
F9
FB
E9
04
F5
E5
03
01
0B
0E
FB
F9
F4
FB
FD
FF
F7
0A
05
FC
0F
07
03
06
FA
F5
FF
FC
E9
02
01
13
F8
00
E6
F1
ED
08
F3
E0
F7
0E
FF
09
FD
0E
02
09
0F
F6
02
E6
F3
E8
03
FF
0A
EF
0D
E2
04
07
2D
E8
FC
07
FB
17
F6
F3
E7
F1
11
FF
F7
01
E1
E5
EF
02
04
16
0B
09
FF
1D
F4
F4
F7
0E
F6
FC
F3
00
F4
09
05
FD
13
16
E6
04
0B
FD
04
DB
F0
07
15
EC
FF
05
01
EB
0C
06
E9
01
FB
1E
DF
F7
F1
FA
0E
05
10
12
FA
07
03
01
F3
03
19
0D
F4
0C
15
F7
F4
04
F8
F1
DB
EF
04
EC
08
06
16
C9
0E
04
00
00
0A
FB
14
01
22
FF
14
1D
E5
FB
FC
FC
FC
FA
02
14
0C
06
F4
14
0B
EC
13
03
01
F2
14
FA
15
16
17
10
07
0C
00
22
13
1E
F3
13
0F
F8
00
F1
13
FF
EF
16
F4
FB
17
F4
F3
12
08
FD
06
16
18
D9
0C
FA
F3
FB
0F
02
03
FD
FE
F6
03
FE
0F
04
05
04
07
F5
F7
1E
FF
16
11
F9
F1
F1
FF
06
EA
03
01
0C
F5
F6
08
F6
04
0F
F6
EF
09
E5
FF
06
05
EC
07
EC
0D
0D
0E
F5
F2
F2
ED
F9
FE
0F
FB
FF
0B
F7
E4
0D
06
0C
03
EB
FC
F2
03
0C
F6
0C
F1
12
08
F6
F2
01
FB
F1
FD
E8
15
FF
E8
FC
05
E9
0B
0C
FB
FA
FD
04
E3
EA
06
FA
10
F9
FE
F4
F8
00
00
0A
FA
08
08
0F
04
E4
1F
FE
F9
FB
FA
19
05
FC
FF
FF
FC
F7
10
07
04
02
1D
FF
11
F5
FB
FA
FA
F7
04
09
FB
F8
02
F3
01
E8
0F
05
08
EF
F6
F7
09
02
10
0E
F9
00
0E
18
06
FA
DE
06
08
E4
0A
11
F0
FA
E4
0B
0D
00
F0
FC
E9
01
FA
DC
FF
FF
DC
FE
E9
0E
08
FE
18
FE
F4
D3
E7
0F
EB
FE
1A
0D
0C
FC
F8
F2
1D
F3
0F
00
DD
F1
01
F1
F9
E6
0F
02
20
03
F4
08
F7
10
D2
04
E8
FC
0A
07
FA
09
F1
1C
1B
16
03
07
09
0F
0C
19
F2
06
0E
0B
EC
10
08
F0
02
DD
E3
ED
01
D3
EE
07
09
E9
F3
15
EC
0D
13
17
E7
E0
0B
06
FC
ED
ED
FE
FB
02
F9
F7
09
E9
26
F6
01
F7
EB
F8
08
ED
F8
01
FC
0E
F5
F6
FA
05
17
10
09
09
03
F3
FB
14
0F
07
F0
0D
F0
02
02
0F
11
F3
F5
01
F2
0E
15
F4
FB
13
09
CC
05
0E
F6
22
19
06
EB
DE
13
02
FF
EF
02
EA
FF
FB
F7
F9
F5
F5
F9
0D
F5
F4
06
17
FD
0B
DC
01
FE
FC
05
0E
FF
05
F8
FC
D9
F4
02
F8
10
E3
03
E1
FC
F3
FE
FA
04
F8
00
F9
0C
0A
FB
11
F6
FD
05
E7
01
FC
F7
F5
D8
04
F8
07
EE
F5
13
0B
04
02
FE
F4
03
F2
06
F3
FE
E5
0B
FB
02
FB
F4
F5
09
09
F3
05
FF
F4
03
FC
F0
F9
17
ED
E6
03
04
F5
EF
E7
ED
DC
C4
04
F2
03
EF
0F
FD
FA
E7
09
FB
FB
02
F0
00
01
07
04
E0
F5
F1
04
0F
E5
EA
F9
ED
FF
14
EF
F4
00
FB
12
01
EF
04
EB
0E
EB
0F
03
F5
EA
F7
D8
0F
F3
03
0B
02
F9
EB
08
03
FC
21
F3
FE
F5
EF
0E
0D
03
0F
F3
01
0E
12
F6
F7
E7
E8
FB
00
18
F4
1F
FC
F5
EE
F0
F8
04
1C
F9
E2
FF
08
E8
16
F7
03
04
FA
01
01
FD
F6
EA
F1
10
E8
FD
DC
FA
05
09
E1
F4
DC
01
E4
10
FD
0F
EB
F4
01
DB
1C
FA
05
F4
1F
10
FD
0F
DF
13
01
FE
F6
EA
F1
01
E5
04
FB
F4
F3
FB
1A
F5
F9
F5
DF
05
E9
16
06
10
06
29
FF
0E
EC
0D
F1
04
EC
EF
F7
E8
06
F1
08
06
F7
F2
FD
03
02
02
FA
FB
F2
EA
F2
F0
00
0D
0D
0D
E3
FE
F4
16
02
04
F7
10
05
E4
05
F3
FF
10
10
04
04
FF
ED
ED
E7
E5
FF
F7
01
F8
FA
0A
F4
00
0A
03
F0
FE
06
EB
F1
07
07
0E
02
18
F1
DA
EA
FC
08
E9
08
23
E4
FB
FB
E3
1B
05
FC
08
FD
00
FD
FF
F3
0B
12
DD
11
F2
1A
19
05
08
2D
E9
09
F8
F9
F3
E7
01
EB
09
16
FE
EF
14
0E
F8
01
09
10
FD
F9
01
F3
14
F8
05
04
EF
F2
FD
05
08
FB
01
EF
0B
EF
0E
08
F2
12
09
E8
06
FC
E9
FB
0F
EF
FC
F8
06
0E
01
FA
0B
04
FE
EE
EA
0F
F4
0B
F9
06
F8
0E
15
F4
FD
EE
07
FA
05
FA
0A
DE
07
FA
07
E9
FA
F2
F4
F6
FD
FF
E6
01
00
13
04
FE
F9
E8
03
13
F2
F3
DB
D4
FD
14
DE
03
00
F5
05
05
E2
F0
F5
E6
00
FC
09
08
F2
11
12
0F
09
00
EF
FE
06
00
FB
FB
F1
F3
03
09
FC
F1
05
05
EE
F2
FC
E5
F0
F2
09
04
F1
FD
F2
FA
FE
0F
EB
06
F3
D9
07
0A
F3
09
05
E5
FC
F8
EC
FE
EE
0A
10
FB
FB
FD
FC
10
04
F2
0B
FF
14
0A
E7
EA
E7
20
DD
10
F4
06
F4
F1
08
E8
F3
07
EC
F4
FC
FB
DA
00
FA
DD
21
E8
03
FF
09
0B
F1
17
F0
F3
F8
EC
12
FD
02
16
0C
F8
02
16
07
FA
F5
F6
03
14
FB
1F
01
12
1A
00
1B
09
FD
08
F2
00
21
02
F8
00
EC
F5
FA
01
FE
EA
FC
F9
12
FF
DD
0B
FA
0D
E3
FA
FC
F9
FF
04
11
F9
FB
03
F6
FB
03
FC
F8
FD
F3
06
0C
FD
07
F4
EF
03
02
01
0B
FB
ED
F9
EE
00
04
F1
08
E8
F8
05
FF
FC
F8
F2
FB
05
0E
ED
FD
0D
F6
F3
F5
0B
F9
F7
FA
FD
F8
F2
E4
FF
17
F4
09
EE
F6
0C
08
F5
09
E8
FD
F3
FB
E8
08
08
0C
09
0C
0A
FB
F0
02
F7
09
13
F8
F0
0E
09
0A
E8
D4
04
FD
F2
05
D7
FD
F6
00
0E
FA
00
13
E2
E0
02
F9
07
E5
F2
03
D2
FF
12
CA
FE
10
08
FB
FA
E7
FD
0B
08
1A
07
11
0E
F2
FF
08
07
09
F2
F5
F7
EE
EF
02
06
F5
0C
FB
09
F5
00
FF
F4
02
EA
03
F3
DE
0E
E3
F9
F8
F3
16
FE
29
1C
23
FB
F5
FB
0A
1B
21
E0
ED
04
06
F0
FC
0F
09
FD
07
F3
EC
0F
0D
FD
14
00
18
F6
EC
F0
02
08
15
EF
F6
D9
07
F7
06
1E
11
09
FF
0C
02
DE
0A
FE
06
05
DE
F7
FF
F5
09
EE
E8
02
F3
FB
0F
F7
E2
04
EB
04
EE
FD
19
FF
F1
11
01
10
1F
E0
20
0B
17
05
F8
00
03
16
07
FE
09
0B
F0
0D
12
F8
03
F3
ED
0C
04
D8
F7
32
EA
03
0E
F7
F3
08
E4
FD
FC
10
F8
E5
09
F3
1E
19
06
13
F5
03
05
13
F7
04
0B
F2
06
15
E2
DE
FC
32
FB
1B
0B
FD
15
08
1F
FE
1A
FF
07
E8
E3
FA
2C
F4
16
06
28
07
F4
0A
16
1C
0C
0E
FA
F0
3D
1F
24
0C
ED
05
F6
E9
CD
1A
ED
04
0C
11
D0
FE
04
08
FD
FD
00
05
EC
E1
F2
E7
03
F7
06
FC
F3
08
00
F6
04
02
0A
01
FC
FB
16
13
EF
FA
1E
19
03
FA
0F
E9
09
F6
FF
11
05
17
F0
07
F0
13
F0
00
F3
E7
06
23
F5
F4
0B
FA
0A
E3
08
04
F5
1F
FE
FC
F2
0A
09
08
F0
07
01
19
F1
F3
06
15
04
09
FC
14
03
0E
F4
11
E8
FD
FA
0B
E4
0A
0F
FD
FA
EA
04
00
23
F1
F0
F8
06
FA
03
1B
F0
09
02
F9
FD
FD
F2
FF
03
EE
04
F9
ED
FF
FF
04
04
E2
FE
02
F3
F2
0E
F3
E3
F7
09
EA
F4
FF
03
FA
E0
0B
FA
EE
F0
F9
EF
0F
F7
F8
09
01
0B
0E
0D
E7
04
07
F5
0E
F1
03
00
FB
F3
FE
0E
F6
E1
03
F0
0B
FF
05
F2
EA
09
FE
EF
F3
03
15
09
02
03
FE
F6
0C
0E
FB
F4
02
0A
F4
FE
FF
0B
07
EC
0B
EA
18
FA
FC
F1
FD
00
FE
00
0D
FC
F2
EF
16
F2
12
17
EA
0E
EF
06
10
1A
08
E3
02
00
06
09
FC
04
E5
FB
F7
E3
F1
06
F7
02
07
D2
E4
FB
15
FA
01
FC
09
F5
FB
0B
EC
0C
F1
FC
FB
0A
01
00
E3
FF
14
FB
0C
EE
FE
FD
12
00
11
F9
DA
FB
F4
FB
FF
EA
0D
05
01
16
11
F7
EB
09
05
0F
F3
DF
E7
E7
01
08
13
20
F1
F6
02
F3
12
0C
F4
F7
0C
FD
0C
06
F1
1A
E8
02
F9
F8
EC
FE
FA
07
F7
14
F9
FA
FA
0E
F7
F6
FD
FF
07
0A
17
0E
FE
15
12
F1
FC
F5
FF
F7
F9
FB
0B
05
DB
FB
19
16
02
F3
07
13
FF
13
E5
16
05
03
F1
EA
F6
0D
13
F2
E8
18
F9
E4
08
FB
0A
E9
10
02
00
06
06
1C
07
EE
04
01
E6
E2
00
F0
ED
03
04
04
FC
0F
E4
06
1B
F5
07
F0
09
15
03
F2
F1
0C
06
08
02
D9
FD
F4
18
EE
0C
F6
F6
EA
00
0A
ED
0F
02
34
EC
E5
F5
E2
1D
F4
10
09
04
E4
02
18
14
04
F2
08
E4
05
E9
EB
0B
0C
E1
0B
F8
FA
FC
E2
16
08
12
D6
00
08
01
18
14
05
FC
E8
ED
17
EC
EA
FB
18
F7
1A
E3
F8
FF
ED
1F
FA
05
14
F6
0E
16
03
15
F8
F7
EB
F3
F9
19
03
FC
22
10
FA
16
FA
11
F2
1E
FA
0F
EE
04
FC
19
10
F8
08
03
02
0F
FB
05
0E
E5
F8
FB
01
29
19
1F
F7
F5
0B
00
09
1E
06
F9
FB
F8
FE
F0
CE
14
EE
FA
E1
17
CF
12
FA
E0
EF
FD
01
E5
E5
03
F1
09
ED
05
17
08
12
14
14
F7
F4
16
02
F9
FF
F6
13
F2
FA
FF
25
03
C7
FC
F3
D6
1D
0C
C9
09
03
FD
E6
EF
08
10
1C
1C
FF
E6
19
02
02
0D
1B
13
F2
F8
FA
0C
F9
F6
ED
FC
14
E0
F2
0F
EF
0C
01
FA
0D
F6
14
13
EE
FC
23
FB
E9
13
07
02
06
DB
F8
04
1E
FC
09
EA
F3
14
EC
03
06
05
DC
EA
1C
00
0D
06
F2
0E
E3
03
F5
06
06
F9
F7
03
F7
14
03
00
01
14
F2
09
0A
E8
F2
E2
06
02
0F
F4
EF
F9
EF
06
03
F9
01
EF
F9
EE
DC
EF
EB
05
06
04
F2
07
F4
00
02
04
0D
0A
06
F3
F6
D8
F1
05
F2
0B
E5
03
FA
F0
F5
05
F5
09
06
F1
01
04
F6
0A
FE
F7
08
F8
00
11
F0
01
F8
04
1A
22
11
F1
02
EA
11
DA
DC
07
02
F5
01
0A
E1
F9
15
0E
E5
E9
0C
F2
EA
0C
11
FD
F4
F9
FF
FC
18
F6
0A
EF
F7
F6
EB
0A
F7
FB
03
FE
09
12
FF
07
FA
10
EA
DB
09
EB
FC
F5
F0
10
ED
0C
E5
F2
FF
FD
13
0F
11
1C
F3
1F
F8
EF
F8
FF
01
14
EC
EB
E1
FF
09
0B
07
FD
14
08
02
E7
0F
13
FB
10
FC
FA
1F
F6
0E
0B
FC
E0
F1
06
10
BF
F8
F9
EB
04
29
08
00
08
0F
E5
CD
FD
F5
06
E8
0A
08
04
FC
03
FC
05
0B
0B
F5
EE
DA
0C
0E
09
FC
EE
ED
0E
EB
1E
05
F2
00
ED
15
F4
FC
FD
F2
00
0A
E5
F9
2C
FA
10
0C
04
EE
0A
F4
F8
F9
01
25
E2
F9
E4
16
EF
E0
E4
06
FF
E3
01
EF
FA
F0
ED
00
F1
FB
E5
F3
E7
FD
0E
04
02
16
F8
0A
F8
EE
06
07
00
F9
FA
04
F0
D1
02
02
F1
F6
E7
E4
04
24
13
F0
FD
11
0D
0D
1D
09
14
19
F4
1B
EE
01
F3
F9
E4
0B
E4
FA
18
EF
FB
EE
E9
19
02
06
F4
09
01
F5
ED
FC
E6
0F
09
01
13
E6
F1
04
ED
2C
11
04
E9
07
10
0A
FF
1B
E5
15
FB
F9
07
10
F4
F3
F7
08
14
17
F1
E7
10
1E
F7
07
F1
FE
02
0B
F7
FA
05
F9
15
DE
05
10
F9
11
FC
F0
16
04
F4
04
01
08
F4
FE
F6
FF
11
13
FD
FB
F4
15
25
F8
F6
0D
FE
FC
EE
E6
0E
F0
EF
ED
EF
F2
05
06
E7
FB
0A
D7
10
0B
FD
00
05
EE
01
E6
0D
03
07
FA
ED
01
F2
E2
EE
FF
FA
F6
0A
08
FC
E5
01
F6
12
FC
01
E7
EA
02
0A
F8
F9
09
0B
00
F8
E9
01
01
15
F3
EB
FF
12
12
F9
06
F3
0E
F5
0A
F7
FD
03
01
F0
DC
F6
F7
F8
01
FE
F6
F3
FC
04
08
00
04
EC
FA
F9
0A
F2
EE
F0
06
12
EC
F4
E9
F1
ED
E9
F3
FA
F4
F8
0F
F0
08
E7
0B
DE
F0
12
00
00
EC
F6
F8
0C
0B
FD
FF
FA
15
02
F4
02
E5
F4
F7
E7
00
23
11
1A
EB
01
F9
F1
06
16
EA
E6
E4
F5
E0
0B
09
10
F5
0A
04
F5
01
3C
11
F0
FF
F3
08
DC
22
FE
FB
15
F0
00
06
F3
D7
DF
FB
EE
25
18
04
16
FA
F2
DA
15
FE
23
E2
FD
1A
EA
E8
0C
06
00
01
FA
F5
04
06
F6
03
F6
F5
19
06
FA
F8
06
E5
0C
0B
F4
FC
10
F1
F1
E0
EF
05
0D
04
08
12
F6
F3
E8
07
07
00
0A
FE
0A
07
DC
0F
07
F9
08
DC
EB
00
FE
01
FB
03
17
F2
06
0C
FD
11
06
00
11
0A
10
F1
FF
18
02
0B
11
DF
19
EF
21
FB
0F
2D
07
E3
21
F4
10
0B
F5
F2
05
1B
FF
E8
EC
15
06
08
F5
07
04
1D
E0
1B
E6
0B
F6
F4
DD
F8
01
07
F0
E1
0B
E4
E2
17
17
ED
F5
12
07
CD
EE
0D
E0
0E
07
0C
0E
D8
F7
07
F5
C7
FF
EA
F4
13
E7
03
FC
14
09
F3
E2
15
F0
09
FA
0C
F2
F0
08
E6
05
28
FA
DF
01
FE
15
0C
F6
ED
FA
01
0F
01
FD
FF
0D
F3
0C
E7
FC
03
EC
26
00
E1
ED
05
0A
ED
FA
FE
09
EF
FD
0A
0F
F6
EC
03
F5
E8
E7
FB
DA
F5
F8
17
EA
12
E0
E4
24
DE
11
13
F5
09
F6
DD
E5
DD
EC
F9
FB
FA
02
03
ED
1B
ED
F4
F9
E7
35
05
F8
E2
F7
EB
09
E2
DA
00
F0
F1
FA
ED
22
07
D0
FF
FB
F3
E9
2D
EC
F4
E3
EB
0A
08
E7
16
F7
F7
FF
05
E9
F7
EA
00
F8
13
FB
0D
FD
15
05
02
D5
F7
0C
F3
08
EC
FF
00
08
F7
0D
FD
FB
EE
0E
15
F7
01
02
FE
F6
05
23
E8
F5
EC
0A
E5
06
10
1D
FA
FD
04
FC
09
FF
EB
14
11
21
0F
08
18
11
0A
F9
0D
08
FA
FC
FF
FE
F3
F1
12
F0
F2
E8
ED
06
FD
FA
03
F0
EA
10
F4
0A
FE
FE
DE
1A
23
0F
F5
F2
FC
00
00
05
EB
FF
02
08
E8
03
FB
FA
E8
0B
EB
05
0B
FD
EB
05
F7
FC
10
FC
EF
FA
10
08
EA
13
03
F5
F7
ED
FA
F0
09
1C
07
FB
F8
F8
F6
FB
FE
FD
04
FC
14
FC
04
FF
E6
0D
03
07
F9
03
F4
ED
E7
FF
F9
0C
F9
EF
09
0C
F4
DF
10
F7
13
F7
07
02
FD
09
D7
F3
09
15
EA
F7
F6
FF
0C
F4
07
07
F8
FF
09
F4
FD
0C
F7
F6
FD
FB
E7
F8
F5
10
FC
E9
F6
07
05
EE
FF
06
0E
0F
16
0E
0C
F4
F3
0F
FD
E7
12
0E
13
F6
FF
F3
02
03
EB
01
EE
07
05
FB
EE
F9
DD
FF
07
F8
EA
13
FC
0D
F5
14
D5
F8
DE
06
15
13
03
03
FF
E3
EE
FB
10
02
10
02
0F
F8
19
F6
14
F6
E5
F3
0A
F8
EC
FC
F6
EE
F3
11
0A
13
FB
DE
E2
F7
05
08
FB
0E
F1
01
E6
1B
10
06
07
1C
0D
E5
FB
1A
03
09
D1
05
04
FF
FC
0D
14
0C
15
02
EF
15
09
FB
07
11
F7
07
0C
FD
11
F2
09
0A
FC
F9
E9
F5
02
01
F2
E4
05
05
08
F9
0B
01
FA
F8
F5
FB
FB
F7
DC
08
DF
0A
F0
F8
E7
01
01
F6
0E
FF
F8
F5
06
01
F9
EF
0D
DC
F0
E4
EC
FE
F5
EB
FA
F6
FD
0A
F3
13
0A
0B
F8
F5
F9
F0
07
0B
F5
04
01
FC
FE
0C
F1
F8
EF
04
F3
FC
EF
04
01
FB
0F
06
08
F1
E5
10
F2
01
F4
0F
E3
09
EA
0E
04
FF
09
EA
FA
EA
EB
0B
05
04
16
01
F5
09
EF
0A
FE
F3
FE
01
03
F1
FD
14
06
FB
09
F3
E6
09
DE
03
F4
05
F9
E8
05
EE
06
04
0A
0A
FC
F7
06
01
02
17
FA
FF
FF
E7
16
FD
FE
0B
FD
F5
12
0E
1A
FF
F8
03
E0
04
F5
FE
00
FA
00
F0
06
08
07
F8
F0
0C
0A
08
00
FC
F4
FB
2C
F3
07
F7
04
06
00
FF
E7
00
08
09
FB
ED
FB
ED
06
0F
EA
0E
E8
08
01
F7
EA
17
04
05
10
FD
EF
E0
07
13
DE
F1
23
F4
10
0A
0E
0D
0D
0D
12
15
E1
23
14
FA
FE
DA
06
E9
23
E9
09
F2
F1
F9
01
11
D3
F6
03
FE
00
1F
F5
11
0B
14
E8
D5
03
D4
0A
FB
FF
E1
E9
0F
F3
E6
FF
DE
F8
0F
F8
F0
DF
E7
EC
03
E1
0A
0C
E8
F0
09
E8
F5
0C
FD
06
DF
08
D7
F6
FB
0D
07
F3
EC
E6
19
1D
F3
FC
1E
00
F6
F6
07
F1
F9
FB
DF
04
E5
ED
EB
F4
06
03
00
DD
1C
FD
F1
FB
04
00
E9
10
EC
E3
FE
00
12
02
DD
F6
0E
FD
E0
FD
0F
FD
12
F9
FB
FD
FB
03
FD
DA
04
FC
08
08
EE
15
FE
14
EE
F7
FE
FC
09
F6
F4
FB
F8
F3
F0
0E
E1
05
16
E2
FD
F1
09
F8
FC
F7
EE
F2
F3
F4
FB
FD
F5
FC
F9
0D
E3
FE
F4
EF
F4
FE
18
13
F7
06
F1
E8
FC
05
07
FE
17
0E
FF
29
FD
FA
02
0D
F2
09
F2
05
FA
F4
0B
0C
1C
04
08
03
10
1B
05
FD
FC
FB
07
14
13
0A
FC
FE
0D
0C
FD
04
EE
00
FB
11
19
09
F9
0F
09
04
FB
13
F4
FE
0A
FF
04
03
E9
FD
F2
FF
04
01
FF
EF
FC
0D
DB
0D
F2
DA
05
09
EE
EF
2A
F6
0C
EF
F5
FF
10
E1
07
FC
06
E2
EE
1F
ED
F6
00
00
00
DF
F8
F7
05
00
F4
0C
01
06
FF
07
1D
ED
EF
F6
F0
F3
0D
F5
F9
FA
EF
11
0A
07
00
F2
F4
0C
04
0E
FA
E9
FF
01
F3
FE
EE
DC
FB
10
FF
F4
E6
02
E0
26
FC
FB
E5
01
15
DD
0A
06
FA
F4
02
F4
F4
FC
EE
F9
DC
00
04
EA
07
05
FA
EF
FD
FE
E8
0F
11
F2
18
FE
FD
09
E3
1C
0C
F7
FE
07
0D
FA
F7
F7
F4
0C
13
EC
1C
13
00
01
02
07
FC
0C
09
FB
FD
02
10
FE
09
FE
00
E1
F9
0D
F6
F4
E6
03
00
F0
FA
0B
F5
EF
03
F9
0A
E4
02
FE
ED
05
13
09
06
E6
08
E8
F6
EC
F1
06
FB
02
F7
F5
EF
07
0F
03
FB
FB
0F
F3
EC
F8
FC
0D
F2
0D
F8
06
EA
1B
02
1C
E4
07
F1
F9
FC
ED
FF
0D
F6
FC
F1
03
FB
F4
FC
03
FF
D5
01
0E
07
0A
F8
F9
E6
00
FA
08
09
F5
03
18
03
08
FE
09
F5
05
FF
01
0C
07
02
EC
FC
FF
E3
F2
02
EE
E4
F6
F0
02
E9
0A
F2
FC
07
E8
E8
06
F5
01
F9
FE
F6
D2
EE
04
E1
EA
02
1E
E7
05
E6
0A
E2
F5
0D
FC
01
D9
0F
02
E9
FC
EC
F9
EB
FE
E7
0D
EA
00
FE
11
FA
21
03
01
E8
02
F3
EF
06
E4
F7
F5
F5
E9
F9
12
06
07
0F
ED
0F
15
00
09
D9
EA
F8
09
FF
F9
05
08
FC
04
03
F6
07
F6
07
DB
11
00
E7
0E
FD
03
FF
DF
E4
0F
0C
F0
0A
03
06
FC
FC
F2
FC
0C
03
E3
EA
03
F6
07
F1
02
01
EC
0B
03
01
EF
F0
EE
1A
08
0D
0C
D4
EF
E4
03
F0
0F
E9
FA
01
0F
04
F1
07
FB
EE
F7
02
F3
EC
ED
F7
0C
02
EF
FD
E8
0D
0C
00
09
EB
EF
22
0A
09
F1
17
F7
02
13
1B
01
FA
06
FD
FA
0D
0A
02
14
FF
07
F2
FC
0E
04
04
09
17
FA
11
F7
15
08
F2
FE
08
FD
0A
08
02
12
F7
FC
04
FB
F3
03
F5
F9
16
17
07
E3
F0
E3
F2
E4
E6
FB
09
04
00
0A
EE
FA
EF
F9
FA
F7
02
08
EC
FC
ED
FE
03
00
02
F3
00
F9
FB
FF
FC
EE
12
04
03
0B
01
03
00
E6
04
FA
F0
EC
04
1D
0B
FF
F1
EC
37
15
16
07
FA
09
FE
01
23
0F
FF
10
07
06
FA
03
0F
F3
FF
09
FE
01
FD
00
09
16
F7
0E
02
0A
04
F5
FD
06
F0
0C
F8
F2
FB
F7
05
0E
0F
05
F5
F4
07
00
0F
0A
FD
F4
02
08
11
02
FF
02
0C
E1
00
FD
E8
01
00
09
02
05
01
EF
FB
09
FA
F0
04
FC
18
F2
0D
FA
FC
ED
01
FE
F2
FF
E7
06
F3
F2
00
F5
08
E4
FE
E9
04
F1
FB
17
FF
F1
07
F5
F9
F6
FE
09
F2
F7
06
09
05
F6
F7
EB
E7
F6
F9
0C
0B
0A
02
ED
25
19
F9
00
FA
F5
E2
EE
03
E7
FF
10
FD
20
05
05
02
19
F8
22
EB
25
EC
06
16
FF
0B
F9
0D
15
E2
01
0A
07
FB
EF
1C
10
12
F5
FE
09
F6
04
FD
E6
FF
F4
F7
F5
F2
0D
0E
07
08
03
10
14
13
F3
0F
FA
01
F5
05
EB
F9
0E
C0
01
F2
09
08
E4
EE
15
EB
19
21
0C
02
DF
DE
08
E8
0B
F1
CB
18
FD
ED
E7
12
01
04
F5
0C
00
F1
FE
07
FF
15
E9
04
17
E5
06
13
E0
DF
0E
2F
06
10
FD
FF
F7
FB
FE
04
FD
06
E7
F3
F3
F7
F8
FA
FB
E9
EF
FE
03
07
01
F4
F5
14
03
00
29
13
EC
F7
EC
10
0A
03
EE
13
FA
FC
1D
E2
F5
F8
04
03
F8
00
FC
03
E1
09
01
12
F7
E7
F0
08
00
EF
06
03
E7
F2
07
CF
E5
04
04
EC
EC
13
0A
0C
FE
09
EC
10
E8
EF
07
F0
FE
05
09
0A
0C
FC
FF
F3
F2
1C
0B
0D
F2
11
26
0F
ED
0C
ED
F5
09
ED
F3
1C
FD
FC
0F
E1
FD
FA
08
0A
F6
FE
02
21
FB
E9
F9
F8
DA
FC
0D
26
F9
E6
0C
F0
E6
17
FD
11
EC
19
02
FA
DD
F1
F3
10
FD
07
F2
F8
07
E0
F5
E5
07
00
08
05
0D
D7
EE
F7
FC
01
01
F4
DC
EF
0B
0D
F3
FE
1D
FC
F7
FC
E2
FE
EE
FE
0A
08
FE
27
FC
EF
FA
F5
0C
FE
F6
06
F2
E9
0C
F7
07
01
2F
FF
07
02
FF
ED
F4
F4
14
06
FE
FC
12
08
F9
00
DE
F8
0A
07
06
02
EF
12
08
02
11
05
04
F3
14
F6
07
F7
E3
EE
09
F6
03
F8
14
EF
E9
0C
FA
FF
0B
09
E9
F8
14
EE
04
F2
E9
F1
01
D5
08
0F
E0
14
FA
FA
F2
02
01
F5
02
07
EE
08
13
12
FC
01
E7
0E
FF
FD
00
FA
EA
F2
07
08
01
02
F6
11
E3
F2
07
FB
12
03
03
F3
F2
F7
FF
1C
05
10
15
FE
0B
05
F2
04
0B
03
FD
FD
06
F9
FB
FC
EA
01
03
02
FC
EB
F5
EA
07
06
01
D2
0C
F6
22
08
F9
F5
01
08
01
03
0F
DE
FC
F7
01
F8
E6
F8
E8
10
FE
DE
EF
FC
E2
FB
07
02
F2
06
F2
00
E8
08
F6
0C
F6
F3
17
09
E9
F4
01
ED
11
F1
03
FE
D7
02
DE
17
FA
FD
CC
EB
E9
E9
F0
03
F1
09
F7
F5
FB
01
1A
10
F7
F4
FC
1E
01
15
FD
1B
05
F7
E7
EE
F2
E4
F0
1C
FC
FD
F6
07
FE
FC
10
D2
F7
EF
07
F6
12
09
0C
25
FE
13
19
1C
1D
12
F7
FF
0B
D5
03
2C
03
0C
F0
0C
F6
00
08
E4
1E
ED
EF
16
06
16
05
D8
0D
E0
20
07
01
1D
01
12
03
12
07
09
FF
F4
00
F8
F0
01
04
05
0A
FE
F5
F0
F0
01
FE
00
F8
F9
EC
F9
06
11
00
01
F6
F7
10
FB
01
09
E0
04
09
F1
F9
19
F9
FA
09
FF
04
0B
F8
05
F5
F2
FE
1B
F4
06
08
00
F9
05
0E
0C
F2
F9
1F
F3
F2
DE
E1
E2
FA
F2
1E
F9
11
08
28
DF
0E
DB
03
F6
04
EA
E4
F1
DC
EE
F4
1F
33
FD
F8
E3
D4
E7
EC
F6
F3
19
06
15
EF
E2
F9
F2
DC
DF
07
F3
12
10
EF
1E
FF
FA
0E
1C
E1
EA
11
D9
FA
02
FB
DA
E6
E7
11
04
FB
E5
F2
0B
04
0B
0D
CE
05
05
08
E8
F2
04
ED
04
21
E4
F6
00
F1
C5
0F
14
17
05
E0
FD
0C
F7
DA
E9
17
23
F5
18
F7
E5
FA
03
10
00
DC
EC
18
09
02
05
0A
D2
FF
19
EB
D5
1D
D8
E6
EB
F3
FF
E8
08
0C
F6
FA
15
17
12
EC
ED
F8
0F
F6
FE
FC
05
13
F1
F7
07
EC
DF
0B
F3
00
0E
FB
04
09
12
12
FE
08
0D
14
FB
03
EB
06
FC
02
FE
FD
06
FE
E8
EF
09
F2
F7
EE
FB
00
DB
F9
FD
F9
FB
F9
EC
0C
F9
06
04
FA
F1
00
15
F0
0D
06
09
07
F8
FB
08
03
F3
FA
FF
FF
0C
EF
11
EE
FB
FE
12
0B
FD
01
FD
0A
FE
F7
02
0A
01
FB
04
F2
00
00
F5
E5
0C
00
01
08
EC
F9
0C
0C
0E
0D
EE
F3
FC
FD
07
05
1F
FA
04
0C
FE
FB
F3
FA
F7
FF
E5
03
16
F5
24
0D
F8
1E
E4
FA
D9
07
FE
CD
1A
0E
C4
12
F6
F2
1E
17
08
F1
F3
10
CE
EF
F4
0F
E9
DB
11
F0
25
FE
13
D8
00
F5
32
24
F1
13
F6
0F
F4
22
16
DC
DC
F8
FA
F8
E6
3A
11
FD
03
E5
DE
F8
FE
0D
11
FB
F9
14
EB
03
F1
E6
D9
F3
FC
08
09
ED
F9
F6
F4
E3
17
11
E8
FE
0F
17
F9
10
EE
FF
0F
FE
1A
09
0C
13
09
1E
F4
FF
FF
F5
F3
F2
0C
E1
12
E9
F3
FB
F6
17
ED
03
07
F7
2E
DE
F2
08
F8
27
0A
11
19
04
0B
05
EC
F1
DD
E9
04
0A
F1
08
05
03
FA
0D
E9
0F
FF
E6
01
EC
03
C9
02
FB
F7
F1
05
EE
06
FE
ED
0E
FC
EB
DF
0E
09
F5
09
F0
08
E6
19
F2
02
F9
FA
FB
EA
01
08
0D
F8
F7
FF
05
0E
E9
FB
0C
FA
FA
F8
05
F5
07
F9
F1
00
01
09
1B
F7
0E
06
FE
06
F3
09
0B
FB
0D
E7
E3
01
E2
FC
09
FD
0E
10
EA
F0
06
01
F1
FD
E5
00
17
13
FC
F7
0A
F7
E7
07
1A
E2
05
FB
11
01
FE
F3
0F
F5
12
CC
0E
FE
FD
10
DF
EB
07
ED
F0
1A
FF
D7
00
15
06
F7
F6
F2
F2
01
F1
FD
EC
09
0B
EA
F9
F0
04
FF
0B
F1
FD
F8
16
07
E2
F4
04
11
0A
FF
F3
17
F9
07
11
F5
F2
21
0E
F7
F5
FE
0F
F7
1B
20
F4
EF
04
11
EE
17
29
FC
0A
FC
F7
05
FD
EE
2D
18
FC
FC
FE
F5
06
02
11
C5
F9
E3
E5
F9
EA
F9
07
D6
FC
0D
F5
E8
EE
EB
0B
F0
14
F8
EF
11
F2
1C
0E
F9
FB
F7
02
E4
0B
E6
0A
F0
E8
05
E2
06
00
FA
08
D8
F3
EB
11
03
06
19
F1
F4
F7
F7
0C
0C
0A
03
11
E7
11
F5
12
0A
07
E7
01
16
06
1E
F4
01
06
0B
E6
1E
F0
13
FA
FE
00
F1
01
07
FC
1E
FD
FD
EB
F9
10
0F
11
EB
FD
F9
0D
13
06
0A
EC
09
00
16
F8
1A
D4
10
0D
F5
0E
E6
F5
FB
11
09
F2
04
03
09
01
07
E7
FD
F5
0B
EA
11
FA
0C
02
FC
FB
D5
F4
0D
15
13
0C
F9
FA
FC
E7
F4
01
0C
E1
19
1E
0F
10
E1
19
EA
08
F1
E1
10
F8
02
D7
FD
DD
0D
15
EF
0B
F1
F2
00
09
14
FF
04
F7
00
F4
F4
FA
FF
FB
F2
E1
E4
EB
03
03
07
02
0D
F9
0F
FB
F6
03
F6
E5
D1
EF
0E
02
F9
18
E6
FB
00
03
F7
F8
FA
DE
FD
FE
F9
F7
FE
FB
F5
02
06
DD
F9
FA
F3
03
0E
FC
0F
FE
FB
F6
FF
F5
F5
F0
11
F4
EE
13
0A
F1
0B
0A
FB
FF
FA
1B
F5
F3
06
16
F9
DF
0F
EA
F0
F9
F9
1F
0F
08
1C
1F
C4
19
F4
1D
16
F8
EC
E9
05
09
0C
07
02
FA
FF
10
D7
F8
06
E4
04
05
FC
0C
FF
19
F9
ED
F6
F0
F1
F2
F4
0C
E7
04
1C
07
0B
1B
F7
09
F2
FF
FA
12
FD
DD
EE
F9
ED
22
DF
12
0A
F5
FC
05
E8
08
02
F1
FF
DE
F5
09
F6
F6
01
0B
0E
12
02
FD
03
0F
07
05
FC
FF
FD
F8
10
02
F7
08
02
EC
05
FE
22
F1
FB
0B
11
F6
11
0A
1B
F0
FC
04
EC
07
F6
F7
FC
08
16
03
09
08
EE
FF
11
F1
FE
12
04
FB
FC
EF
04
06
0A
E5
F8
F4
F8
E3
F2
EA
1A
ED
10
13
FC
FE
F9
F4
F0
FB
FE
1C
05
E5
04
12
0F
D6
E8
04
FD
16
F4
17
08
F0
F1
FE
08
F9
EE
F0
FA
F8
FB
05
06
FB
17
FF
FB
F8
FF
F3
F3
F4
F5
FD
ED
F3
FC
0E
14
06
F6
05
FE
EF
15
02
F5
01
F4
04
05
01
FF
12
16
FC
0D
FF
11
FC
F6
FD
01
F6
EF
05
06
08
F7
F4
0F
16
F5
FA
01
06
12
04
FA
FA
0B
0A
F9
0A
F3
0B
04
F1
00
0B
04
00
09
09
F7
FE
FA
EC
03
12
10
0A
15
11
07
02
01
F5
14
FF
FF
06
F1
F3
12
0B
14
00
F7
06
F0
0D
F9
05
0B
10
F0
F9
19
E6
16
0E
F0
F5
06
15
04
08
FE
13
02
01
04
15
F9
EA
E9
10
FD
F8
02
FB
F2
FD
01
1B
17
EC
FD
16
00
EE
0A
09
E2
F1
06
02
0F
0C
D6
F8
ED
FB
F4
E0
08
09
CF
03
02
08
FD
F6
EF
FE
F6
15
F9
E3
FF
F5
FE
F4
F7
FF
0C
F5
EA
E3
E1
06
FB
05
F6
E6
09
20
E1
03
06
EC
ED
FE
05
E9
06
12
D3
FE
FF
03
12
03
F0
1D
01
F3
DD
FC
ED
09
F2
14
D8
F5
10
01
F6
F0
DA
14
EC
F6
03
02
09
DC
E7
0B
09
0D
FE
D2
10
FC
05
FD
03
EF
0C
0C
0A
1B
11
F5
13
F4
17
ED
00
1F
F7
F8
32
06
00
FB
11
11
FF
F8
11
07
15
FC
0C
0A
0A
FE
01
EA
FC
F7
EE
F4
0D
E8
0F
13
06
1A
E3
01
F7
05
18
01
F2
06
EF
FD
07
03
FF
F1
0E
01
FB
04
F5
09
F3
F4
0C
03
EE
E7
05
FF
F8
F8
12
05
E1
EC
E9
11
F7
FC
0E
F3
1D
F8
FE
F8
FD
0B
F8
F0
F8
07
0D
22
E1
F8
F9
EE
FD
0A
F4
08
D8
DF
E8
10
0B
1F
CF
FE
CC
16
F0
19
F0
F0
FB
0A
08
03
FB
F3
11
F1
19
0C
06
E1
17
12
13
06
0E
02
20
04
DE
F8
04
04
FE
FC
18
0C
0C
F6
23
EE
FD
FB
F1
16
D0
FE
04
15
02
26
F8
F0
0A
12
0D
0B
F4
07
03
F4
12
F8
FE
F8
06
F6
09
18
F6
F8
04
00
00
0A
0A
F6
EB
F8
F8
F6
12
FB
FE
0C
15
FB
FC
F9
02
F1
E4
FD
F3
05
FF
F8
F4
F5
E8
F8
01
F4
0C
06
F5
F4
FD
FF
00
08
F2
05
06
F7
00
10
1C
00
0B
1B
F9
F8
08
FE
EC
08
0E
15
FB
EC
F4
25
18
06
F6
0B
FD
2E
FD
0B
F6
0E
08
FF
04
0D
0A
08
08
0E
EF
F2
F6
F3
12
09
F0
F2
FB
02
10
0B
FB
08
0A
FA
0E
08
17
07
03
1C
09
18
0B
04
25
EF
0C
EF
FC
F2
0A
FE
07
DC
00
F2
E7
1B
FC
1A
F4
08
0E
F3
FC
06
FC
FB
EE
EB
FB
DC
05
01
F9
09
FA
03
F9
0A
F4
EC
06
E7
F4
0C
04
02
D4
E9
00
FA
03
F5
00
FC
FC
F4
FF
0C
0C
05
EE
EB
ED
05
F8
F4
00
0E
F3
E6
F9
FB
FA
0B
E7
E7
05
07
06
14
E5
1B
DC
E1
EF
F2
FB
07
F5
F8
15
05
01
F0
00
0C
16
F9
13
18
03
FE
EB
1C
FF
F6
F8
ED
1A
EB
F1
F4
0C
FD
EE
FC
0B
0A
05
ED
E6
F5
08
F6
F7
0F
DE
19
01
03
07
13
F5
FB
DE
E7
EE
02
06
1D
E8
04
FD
FC
FE
E8
07
01
02
FF
F7
01
F8
10
E2
02
0A
12
FC
F2
FF
08
1C
F1
03
FE
EF
E2
11
03
FE
03
0D
04
08
06
F5
1B
ED
FE
05
F7
D8
1D
FA
04
F2
14
FC
F8
F7
FC
04
03
03
0D
F4
ED
F7
11
F9
03
D2
01
0B
0B
16
0C
01
FA
0C
01
0B
03
E2
06
FB
FE
F9
F0
06
18
05
00
0D
13
0F
05
F8
11
10
08
12
07
03
F0
0C
13
FB
0D
09
FD
EC
FA
FE
07
F5
05
15
FA
FB
01
00
09
F4
06
E6
F8
F4
FC
FC
FB
F4
FC
E8
EB
EC
01
F2
E9
DD
FB
12
EC
07
E8
DC
E6
FE
FF
EA
07
11
EF
F6
03
F8
03
00
08
05
13
0A
E1
05
FB
0B
13
06
FA
06
F0
04
E8
0B
FF
F4
F4
02
F2
EE
05
0A
F0
12
FD
F9
F8
FB
07
14
EE
EF
12
03
09
16
10
F3
F2
E6
E9
0B
00
04
F8
EE
09
F3
EC
00
ED
0E
F8
06
F9
10
07
FC
E8
F7
02
00
FA
09
04
06
FA
F7
12
0A
11
0A
0C
D9
F4
0A
EC
FC
F7
0B
EE
E0
08
FA
F2
00
FC
FF
DE
F8
01
0C
FC
08
06
02
F4
12
04
0C
E5
05
14
04
0E
EE
F7
EE
02
10
FA
E9
22
ED
F6
FD
F8
01
FD
FD
FA
EE
0A
F9
E5
FB
FF
0E
01
F5
EE
01
04
F2
FB
06
16
07
F7
FE
F6
DB
15
F0
06
E5
D0
07
11
FE
F6
F9
04
0E
EB
FD
14
15
08
E3
08
11
13
F6
06
15
02
0B
01
07
00
D3
FF
0B
03
FB
F4
EC
D8
FF
0A
04
ED
03
BF
F9
F8
02
0A
FD
F3
05
08
F3
C3
F2
00
F2
F6
FE
05
0A
F4
DE
01
0B
01
02
FB
0F
F8
FF
FC
06
0E
08
08
05
EE
EE
12
FE
FA
FD
0F
F0
03
07
F2
F3
F7
F7
F7
08
0E
FC
12
F6
1A
F1
06
FF
EF
FF
E4
0D
01
10
FB
FF
ED
F7
FB
E1
ED
F6
0D
F2
F1
F3
FF
F2
EE
01
F5
F5
FD
EA
07
F7
FF
21
04
0E
FC
FE
10
F7
FE
E5
09
F7
00
FC
E7
02
FD
02
F8
11
F8
F8
09
F1
06
FB
05
04
08
FB
E1
0E
E0
FA
06
EF
12
FA
EC
13
EB
EE
0D
13
0B
ED
03
03
04
0B
05
05
F1
07
10
EF
1F
19
1D
DE
F7
0A
09
15
EA
D0
E8
0D
04
FE
00
03
EC
F5
DD
FE
00
FF
E2
F9
04
E4
E0
01
02
F4
D4
ED
08
09
EC
FA
F5
08
FD
FB
FF
05
F9
0D
E0
07
FC
0A
DF
11
0F
F1
E6
05
09
01
00
E8
08
FF
E5
FC
02
09
04
05
00
F3
EA
05
0A
FA
EC
F1
F9
FC
05
21
FB
EE
00
E6
E1
F8
F4
F5
EA
F5
F1
F8
FB
13
F9
E8
03
F5
FD
00
17
12
F7
FA
FE
0A
09
0E
ED
0B
1E
05
06
04
0C
E3
02
0C
02
ED
DF
F3
10
0D
FE
FE
07
07
F6
1B
0A
01
00
CD
20
15
03
E9
00
E5
E5
12
06
04
FB
F2
00
ED
02
0C
01
09
E6
09
F4
F8
DA
15
F4
E6
F6
F3
FC
0D
08
CA
F1
F6
F5
12
EB
F0
F7
E3
DF
00
F7
06
F6
FB
F9
EA
13
FF
E9
F3
E6
05
08
FC
CF
FE
0F
F0
00
F5
F8
FE
F4
F3
D6
F9
04
F5
ED
08
E8
E9
FE
F7
E9
02
05
F4
FC
09
05
FF
ED
F1
05
F2
19
16
27
0E
FB
F9
0B
EB
EB
F2
DF
11
F2
21
FF
EC
16
FA
0A
01
17
EB
0C
ED
FA
07
02
01
00
09
EF
12
EE
19
11
07
0E
0C
FF
10
08
1A
FF
F8
05
01
21
0C
EE
E5
EA
00
02
13
0C
11
08
0C
0A
04
0A
0D
04
25
C5
06
00
F6
F9
FD
D3
0A
F8
13
13
F6
DC
12
FB
1B
F2
D7
E5
19
F3
18
EE
0A
E3
03
14
FD
02
19
0B
F8
07
17
13
07
11
EC
D6
1A
09
F9
1B
EC
DC
F8
08
15
03
11
F4
29
F1
EE
EC
F8
03
BC
C2
FC
00
FE
15
E3
0B
F5
FE
EE
FA
F9
25
DD
FC
DE
F3
0C
F1
F9
01
DA
F7
F8
EE
1C
EB
F3
DD
04
FC
07
F6
FE
E4
ED
F4
FF
D5
11
FD
F6
00
08
F1
0A
EC
0C
F2
F7
16
05
F1
05
F0
FB
18
EC
EC
F7
15
0E
EE
11
05
FB
EF
EF
03
EE
F2
FE
17
FC
FA
F8
11
1B
0F
F5
03
F2
17
E0
07
FF
05
10
F9
FB
F8
19
1D
1C
E7
E4
06
F4
FE
17
FE
0B
ED
EC
25
01
FF
10
E6
FE
E2
F5
EC
EA
FD
02
0D
ED
15
03
FC
13
F6
F9
D5
0D
0A
F5
F7
FB
0A
13
00
0A
F6
F7
03
05
F8
F8
F8
02
F6
DE
00
02
00
F7
FD
FB
01
F7
10
EE
09
FA
FB
07
F2
FD
FB
18
FE
02
FD
F9
F5
0A
FD
FB
FB
F7
FC
00
05
17
F4
FD
EB
07
0D
0B
06
FE
EB
0F
FA
0F
06
E6
F9
ED
12
05
EE
F2
05
FD
EF
D1
EA
D4
F5
01
F3
F4
04
07
08
15
BC
0D
03
F2
D8
EA
03
DC
E4
13
04
00
09
EA
F9
00
FA
12
12
ED
FF
21
18
FF
19
DF
17
F0
E6
E8
24
1D
F4
E0
F9
FF
06
14
10
0F
F7
0E
DC
EE
F2
FE
02
00
09
D1
FB
0E
EA
04
F8
18
FE
FA
F0
FC
05
05
0A
EA
04
FE
06
E4
FC
FD
03
F5
EA
FE
09
09
F2
FF
EE
F6
F9
FE
EF
F9
FA
F7
13
08
E5
FA
F2
0E
FA
00
08
09
FF
01
19
03
01
18
02
F9
0B
0D
FB
02
F3
12
FA
F7
03
03
EC
FB
EB
F2
FD
0F
00
D6
E8
F0
FF
E6
15
06
FE
FC
E4
DF
FC
E8
EC
EC
00
FA
E3
0E
1E
05
F8
08
16
0D
FF
0E
03
16
15
24
FF
E9
D3
18
0D
F0
F9
F0
04
00
0E
20
06
F9
00
1A
F1
F2
1B
E9
F1
D1
01
FE
F8
ED
1D
17
F9
0A
18
01
16
FF
F9
01
16
ED
08
FC
19
EB
FB
FC
02
0C
05
00
F3
00
13
16
FF
EE
0E
19
07
05
00
0E
FD
F9
F9
F7
FA
05
EE
0A
F2
F8
E2
04
04
0A
FC
26
F4
F7
01
1F
ED
1B
16
05
1B
F1
1E
09
0F
0C
09
ED
E1
0A
09
04
F5
F2
F1
19
17
14
19
E1
28
F6
1B
09
16
0C
07
0D
17
FA
10
11
F3
F5
18
0F
F4
EF
07
0A
19
03
ED
0C
06
F9
F1
0D
F4
FE
E8
07
F8
10
04
FC
EC
F2
F0
F7
FA
07
F7
0C
FB
0C
08
E7
F4
FE
08
0E
09
DF
FD
C9
FB
11
1A
F6
0D
F4
02
02
FC
FF
EF
F2
01
FD
F0
E9
E1
F4
FA
FC
0D
0A
F4
F3
E9
0B
FD
06
02
21
0D
F3
F0
F7
0F
EB
DA
F2
0A
E4
1A
FE
EB
11
FF
04
08
FD
10
03
24
ED
FF
EF
03
FC
0E
F3
06
15
FC
11
F7
FB
F1
FD
03
F6
EC
FC
FC
05
04
E4
FE
FF
D2
FA
FD
EA
FF
F7
E7
F2
F8
08
0C
FD
F0
E9
0A
EF
EA
EB
F2
FB
16
F3
FB
0A
DA
E7
F0
F2
FF
EA
FB
FD
02
01
F8
FA
F2
11
03
EC
FA
F8
19
F8
FF
E1
02
04
13
FF
01
FB
00
F8
F3
F0
F6
F5
05
11
F0
E7
EF
F2
E7
01
0E
F4
F4
F7
EC
F8
0A
06
F5
15
F7
E4
13
00
DF
E9
FF
EC
FF
F9
03
1F
E4
F3
E9
15
F9
F8
E8
0B
E9
D5
F6
00
F1
07
17
FA
FE
FC
24
07
03
EA
12
F6
0C
11
EA
07
FB
EF
10
E2
F6
E8
FD
07
01
F5
07
DF
E4
0B
FB
10
F0
0E
06
E8
EE
0A
DC
01
07
F2
09
F7
D9
EF
04
03
11
1E
FF
0B
F7
02
FB
08
0B
10
FC
E7
F5
0A
07
EC
08
FE
F3
18
ED
14
F7
FF
01
F1
08
0F
E5
ED
F4
FA
FA
04
10
F2
F8
F3
07
E3
15
E4
03
12
24
FA
F0
FE
FE
E2
0B
07
FE
F4
04
08
E5
FE
EF
05
0B
EC
FA
F1
FE
FB
05
07
FA
0A
E9
FF
09
0D
FF
01
1A
EE
14
FA
18
EB
01
E5
0B
F7
FA
FD
F1
17
F4
E3
00
E6
F8
EC
FD
07
16
FC
F8
0A
19
04
F8
08
17
09
0F
FD
FA
0D
FB
06
1F
0D
06
F8
FE
FA
FC
0D
ED
15
F6
13
20
17
E5
FD
D3
06
F0
05
10
0A
0A
08
01
1B
FD
FE
17
FA
ED
F9
1B
09
10
FE
F7
02
0A
01
05
E4
F6
FF
0D
08
0E
EA
0D
03
F9
21
FF
F4
ED
FF
F9
0C
0C
F8
F6
11
F4
F2
F9
0D
10
13
F9
06
0A
F1
12
05
FE
FA
F1
0B
02
FD
05
0C
08
F6
FE
0E
EC
05
E7
13
07
F5
03
04
F9
FC
1C
EF
07
FA
03
F9
02
EE
FA
18
05
03
1D
E1
0E
FD
FA
FB
D7
F8
FD
06
F4
FE
EB
04
FE
08
04
F9
EF
FF
17
FF
FC
FE
05
1C
E6
06
24
06
1B
01
07
FD
0B
F0
FF
F2
F8
F7
FD
11
FB
09
DD
E2
FB
F3
F7
FF
FC
18
F2
E9
00
F5
10
13
01
02
02
03
FB
E8
FD
EF
EE
03
0F
FB
01
0E
05
F0
F1
E7
09
FE
FC
0D
F4
F4
F4
F3
E1
F5
07
E0
F6
FA
E8
DE
F3
F0
03
07
E4
FC
05
0F
01
F5
F2
07
F2
FD
18
E7
FC
0C
F1
0B
11
FA
E2
F9
FA
0F
FC
FE
F9
FC
FC
F2
04
F8
F1
FB
FD
EE
F6
DA
EA
E7
FC
0B
DF
0A
0A
0A
19
EC
02
16
D3
F8
F4
14
FA
EF
03
FA
D5
F6
0B
ED
F7
07
08
F6
F6
04
FA
1D
DD
16
01
30
F9
FD
EC
0A
13
02
03
EE
F0
F8
F2
D2
02
2A
11
15
DA
E5
09
0E
FC
0E
F1
E2
03
F9
F1
11
F0
09
0B
EB
0B
09
0E
16
F7
EC
FB
0D
01
FE
F1
F4
E7
FB
EF
E8
F6
04
04
F0
FD
01
F7
18
05
F0
F8
02
06
DC
07
F2
07
04
F9
FC
F3
05
F6
04
F6
F6
FE
F9
0B
FF
02
F7
F9
09
FD
F6
08
00
DF
07
05
09
EB
EC
D9
19
F4
17
F2
04
0C
06
E7
24
0F
EF
F6
F1
FE
06
0F
18
EB
F4
FF
FF
FF
05
00
F9
ED
15
FA
0B
DD
F6
DF
FE
08
EB
FA
F7
D6
0C
F7
01
FF
02
E2
08
FD
06
F5
EF
0A
D1
EF
FD
00
F6
F8
FC
F4
07
05
0F
F5
0A
E0
1F
08
F6
00
F7
08
06
F0
1D
DE
F2
08
FA
0A
11
F2
01
F0
ED
1B
FB
FB
05
F9
FE
F7
F8
EF
0A
EC
E4
F3
FB
FB
FA
03
0A
00
12
0C
F1
0B
16
FE
00
14
07
F7
ED
FE
FF
05
F5
05
FD
04
03
F4
FB
FD
FE
F4
0A
F2
E9
0E
EB
18
E0
17
08
11
DC
F1
FA
0E
05
EA
FC
F6
F7
E9
05
F1
FA
05
03
11
05
F3
09
07
FF
E2
FA
13
03
05
F5
04
FD
F7
F7
06
FB
04
03
FB
0D
EE
F5
F9
EE
0B
F4
F5
F9
F8
0D
08
F2
ED
F9
E3
FB
F9
06
00
FF
21
08
17
E3
0D
D5
23
DD
FD
EF
DE
0B
E8
FF
FC
F2
18
F1
0B
F3
EE
14
FB
00
FD
07
18
F8
1B
F7
F6
00
F5
F0
F4
EC
02
04
07
0C
ED
E5
19
1B
FC
EE
10
00
F3
06
E1
F4
07
E3
10
01
FA
FB
05
01
F6
F4
ED
FC
0C
F4
F7
0C
02
13
F3
FB
08
01
EE
F8
1B
18
07
F8
00
0A
16
07
11
FF
27
01
05
07
01
00
F3
F4
EE
08
13
F5
0C
F5
DC
06
FF
ED
0A
09
EE
0B
F7
FD
0B
F1
05
F5
FE
07
FB
08
0C
0C
F4
08
EE
ED
0C
15
F3
09
12
16
1E
0A
FB
09
F7
17
E7
E8
FD
F3
10
11
0E
FE
ED
ED
01
0A
0A
F1
F9
03
04
07
01
F7
F2
E0
F8
03
03
E3
27
FE
F8
F0
07
EB
11
18
EC
2B
FD
F4
F7
EC
0C
E9
E7
EE
0D
00
27
0C
0C
F0
1A
17
03
FC
1C
10
E0
17
E3
FA
FA
14
1E
10
0F
F8
F1
22
25
E8
0D
F7
0A
F0
E8
F4
16
27
EB
10
23
FA
E6
F8
14
19
E5
EA
12
04
00
F0
1D
F8
04
F7
00
04
00
EF
F6
FF
F2
0F
F6
16
E8
03
FA
02
03
12
F9
FE
0A
0F
06
08
05
24
EF
FF
08
F7
2F
04
E1
FC
00
04
05
08
16
0B
11
F7
02
F1
03
F4
FE
FE
E7
FA
17
E1
08
F7
06
FF
02
08
15
02
EC
E6
0C
11
00
F3
1D
EE
FA
00
11
07
01
01
03
F6
0F
F6
07
F4
01
E6
F5
E7
F1
08
13
0C
0C
ED
FA
01
E4
0A
F4
F5
08
F4
FB
0F
F8
FE
CE
F4
FB
01
07
E9
F8
00
01
FB
F3
02
EA
EE
FF
F1
05
12
F4
DE
E9
21
0B
FC
05
E2
F2
F4
0F
EE
0E
F5
F5
F8
DA
0B
F0
FA
EB
D9
F5
07
C7
EF
EE
00
13
05
0E
E8
FD
FE
04
07
0D
00
04
10
11
0B
12
F2
07
FB
03
EE
1B
14
00
F6
F5
FE
FD
1A
0E
0B
14
04
FD
01
07
EC
FA
EC
07
F5
0A
07
E8
F4
0B
EC
1F
00
0B
09
F5
F8
E9
DC
0A
F8
FB
E4
FD
0B
07
0B
FD
0C
1A
FC
04
FE
F0
06
ED
18
0B
FC
02
FC
F3
02
C3
FB
02
E2
17
19
0C
F6
E1
E8
19
15
ED
0C
17
0C
0A
F8
01
FC
17
F3
01
09
FF
EB
0B
16
EA
EC
F5
DA
14
FF
FB
FD
FC
1D
E7
FF
04
F0
07
13
02
03
06
F1
0C
F1
04
FC
FE
E8
F1
11
E3
F6
EE
F8
E7
F4
F5
00
DD
FE
04
EE
EF
F6
0B
F1
E4
03
07
F7
EB
16
12
FB
EC
F3
FF
E8
0B
FA
0D
F2
DC
07
F3
14
FA
FB
C9
F8
FB
03
F4
04
F4
07
EF
00
FB
FA
07
0E
03
FA
F9
D1
F9
00
FD
0A
03
F9
17
F8
14
F9
0E
DD
ED
E6
29
FF
FD
0F
F5
21
E6
11
06
F9
1B
05
F2
F9
EA
0E
FC
FC
E7
E5
14
10
ED
0D
EA
0B
01
1B
E5
F6
1B
15
22
0E
EE
E4
0C
CC
01
FF
0F
19
F7
17
04
ED
07
FF
0D
02
06
05
08
0F
0E
FF
0C
F7
0B
D7
0A
0B
F4
11
EC
DB
18
FF
18
FA
08
FB
FD
F3
29
0A
03
19
0B
F5
11
0A
ED
1A
0F
07
F1
F0
F7
13
08
DD
03
1C
05
FC
0E
17
F5
F0
E2
0E
01
2C
03
F1
22
F4
13
FF
19
08
0E
0A
E6
18
09
F4
08
06
F2
11
04
1F
23
F1
F6
CA
1D
24
EC
0E
04
19
07
0F
03
21
F5
00
00
0A
EF
13
0B
0C
08
DA
18
E8
2D
0F
08
E7
F7
13
04
F2
FE
FB
F4
04
16
33
FF
00
17
04
F1
07
0E
0E
FF
F9
0C
0F
F9
F6
FC
08
F7
25
0F
D7
E8
D7
EA
EC
F5
0F
06
1E
30
CE
15
F1
F5
1D
EE
DC
01
F3
15
EA
DC
F7
19
0D
CB
02
FD
18
EB
05
F9
06
E6
2E
08
13
E2
F8
14
09
1D
02
F4
CC
F5
F0
00
05
29
0B
05
F6
F4
F5
0A
FB
1B
FC
FB
EB
00
EA
FA
06
05
19
F9
09
E3
F0
F6
05
F2
09
0A
15
EF
F3
FE
F4
09
FA
FE
E0
F5
02
0C
04
FB
0C
0B
07
0D
05
04
08
06
E6
F8
0F
08
E9
08
EA
05
DB
04
07
FF
07
0D
FB
DD
FB
0B
13
FD
FF
FE
06
F3
FB
0E
FD
07
02
08
F7
01
03
05
F4
FC
F9
0A
E2
12
0E
F4
05
FF
0E
E3
FE
EA
F7
F1
0C
F4
ED
F8
F6
FC
FC
E2
F2
FF
FB
FA
01
EE
FB
F3
13
EC
FF
0D
11
04
08
F5
01
0B
03
FC
02
0D
04
F9
04
F9
F1
FB
0C
FC
F6
16
E9
E7
15
0F
03
12
FA
F3
09
FD
E9
F5
0D
23
FD
0D
02
E8
0E
EC
CF
FE
0B
1C
F9
E3
E6
F8
06
F0
F8
12
06
F2
1A
F6
01
F8
1B
FF
09
DA
F2
15
F2
FF
0D
05
F9
22
DD
F4
E9
08
FA
F3
01
E6
EE
EE
10
F4
D6
F9
11
0C
E1
07
F8
FD
0F
20
0A
09
EF
FF
EB
04
FC
F0
FD
02
01
F3
09
0B
0D
E2
F2
00
EB
F9
F6
11
03
E8
E5
14
0D
FB
0F
E1
05
F3
E9
09
05
EC
22
F6
FA
02
00
0D
DC
FA
F6
FD
14
01
0F
02
F4
F2
13
F9
FA
D1
19
F8
02
FA
E4
E2
15
14
22
14
04
E9
03
F8
29
F8
F2
D8
04
0D
16
0A
27
08
FE
15
F0
19
0B
FA
04
0B
FE
22
0C
0D
FE
E9
10
12
0F
11
FD
F6
06
1B
0E
1A
13
05
04
F5
F5
E9
FB
FA
E4
D6
E2
07
E8
F3
F5
0F
F6
E1
00
01
05
0C
F8
F2
F5
E8
F8
03
FA
FF
F4
F9
05
07
FE
CD
11
18
01
07
00
F8
EE
03
16
04
00
E4
EF
16
EE
F0
0A
0D
F3
F8
16
0B
0E
09
0C
01
F8
00
FF
13
F0
FB
01
08
00
08
0B
09
F8
12
05
FC
FC
EF
14
08
05
14
F2
F1
12
EE
FD
0B
F8
0D
F5
17
FB
ED
00
F5
0D
04
FB
FF
00
FA
F2
FC
E5
07
16
06
04
1A
05
01
F2
1F
02
09
FD
10
03
03
02
FD
FA
00
01
0F
08
07
F5
05
FA
FD
FD
12
01
07
FA
12
FB
06
16
01
F9
F8
F7
EF
02
EF
FD
F5
16
06
E5
10
FF
F6
F9
FA
FB
05
FF
F5
ED
08
02
F2
FA
D5
02
F2
05
FF
FF
02
15
00
FD
F9
F6
04
F9
E0
01
EA
F0
FF
FA
03
F7
04
04
F1
16
FB
F2
06
EF
FF
02
00
0D
07
04
0D
FF
FF
FD
DF
1A
02
F9
0A
F8
0B
15
F7
EE
E8
FD
02
10
18
E6
F0
E4
FE
E4
0A
F6
00
FC
FD
F2
15
F8
02
09
10
1B
FD
F9
FA
F4
05
C8
FB
F0
15
FE
05
0A
DC
F2
13
0B
0F
F0
FF
E8
02
F7
F0
E8
FA
0E
FD
F3
EE
10
19
E5
0A
08
F3
FD
FC
F7
F0
05
E8
20
CB
FE
D6
0A
FA
17
13
E9
0C
EF
FD
FA
02
03
F9
16
F3
09
1F
0F
E7
EA
ED
07
11
01
06
0D
FE
EC
0D
11
EE
F4
04
05
F5
F6
ED
16
05
1A
FF
00
06
F0
2A
FA
F9
EF
00
EB
E0
EF
E3
F6
00
E0
17
F8
04
ED
FC
E9
FE
0B
0A
CE
FF
F2
BC
1C
F6
08
F3
04
22
09
F4
EF
0D
E5
D3
01
D4
0A
06
10
D9
15
EA
FC
00
1C
0C
F0
23
00
15
EE
F8
06
17
F2
E5
DD
03
FE
F9
F9
D0
E6
03
03
EF
04
01
FA
F6
E7
04
01
00
0A
07
00
F6
02
0D
FB
F2
04
F0
F2
DE
FB
FD
06
04
0E
E3
0A
13
FC
F5
E6
06
FA
04
F2
1E
0C
EE
EB
FA
E0
D2
E4
05
07
F2
15
D5
0A
11
08
0A
EE
FF
E8
06
EC
F1
09
0A
FF
07
FD
EC
E2
00
11
EE
0C
01
22
17
FB
14
F2
FC
FF
FB
03
06
EA
04
05
EE
FF
F9
0B
EC
FA
22
FF
FD
DE
1A
06
F4
05
E6
0B
FA
FA
F0
15
DD
F4
FF
FD
F9
E4
26
16
0C
15
06
FA
16
F1
EA
F5
1B
02
E8
0C
D6
DE
FE
FB
ED
F9
EE
DF
E0
E9
13
03
16
07
00
FC
28
02
04
FE
1A
ED
F8
0B
EB
05
D8
EE
F1
10
1F
FE
07
F3
FE
F2
F1
F2
F0
FE
F8
F2
02
ED
FA
F3
FC
FC
0E
F3
18
0B
18
1B
FA
03
0F
0B
F0
E7
20
11
0D
16
F0
04
03
F1
FC
18
00
16
0D
F8
12
FA
DB
0C
FB
05
02
F0
1C
01
EE
0F
0A
FF
EC
03
0B
FC
08
FD
F9
F6
15
F9
0C
0E
09
FB
0F
F4
F2
FD
06
F8
00
F7
10
E6
03
FD
FC
17
01
EE
FA
0D
EC
F7
07
F8
F0
FB
16
0C
0D
FC
1B
19
0D
EF
F1
F6
FE
08
FD
02
F7
EE
00
FA
04
03
F4
FD
F1
EE
0C
0C
F8
E3
07
EB
F5
0D
04
FB
EF
07
02
05
E8
00
F2
FC
0E
FA
EB
F1
FE
08
03
F8
EB
01
04
FD
0A
08
FF
DF
03
FE
