D0
2B
C6
E3
2C
DA
C7
24
C6
2B
45
E9
4A
ED
F9
39
30
BF
DA
DF
3C
37
DD
EF
00
F5
47
E9
41
3F
02
F2
31
F6
2E
E3
E0
2E
36
E5
69
B0
AB
A2
7C
4D
FA
E9
44
52
2A
C6
C1
26
30
1C
B2
B9
1B
C1
C0
4A
BC
D7
4F
03
C0
A3
62
69
ED
ED
DE
7B
7F
D6
05
D8
4E
EE
48
D3
E1
D9
F0
DF
40
E5
3E
F5
29
D7
2D
E2
EA
B3
2F
B8
33
D0
E7
4F
49
F8
FC
AF
B1
26
46
B3
D0
3F
CB
E8
3D
12
0F
AD
C2
D0
BD
A3
2F
89
60
E9
42
40
CF
D9
48
F0
EA
F4
46
1D
97
19
23
A9
EB
D6
2C
D7
31
66
C4
CE
64
CD
17
13
9A
AC
BE
4F
42
A9
CA
D0
