DE
FE
FF
C9
D1
DA
04
00
C4
C6
9F
C4
DC
C4
B5
CC
C8
E3
04
C6
FF
FF
DB
BF
FF
FF
C4
FE
FF
CC
D6
D5
B7
FF
00
C1
C7
F6
05
00
B8
F6
08
FB
B6
02
FF
0F
C0
F2
02
0F
FF
FE
AF
BC
FE
00
B2
FF
00
00
A3
B6
06
0E
C0
F6
07
0D
03
ED
F5
02
F2
DA
06
0C
11
12
BC
12
B4
09
FA
F4
00
EB
00
02
E7
D1
03
E5
07
F7
05
E5
D9
04
F4
F5
D2
E3
BE
D1
BA
BA
FF
E1
DE
BF
AA
05
B1
03
01
C0
0A
02
DB
FA
C2
AF
EF
B5
FD
FD
BC
CF
0F
07
20
C3
DB
CA
F1
EB
22
F2
D2
05
9F
A8
18
C2
FA
C6
C8
C9
D5
FF
DF
E5
16
F9
E2
02
F4
F3
D3
CD
DD
CB
E4
C4
1A
2E
33
01
25
1B
EB
EF
16
1E
27
C8
3F
06
48
39
CC
DC
16
09
FA
CC
4A
E5
B7
33
F7
FD
02
D6
EA
F4
18
0A
B1
BB
A0
B2
FB
CB
D5
D5
CE
FD
07
D8
02
F6
F0
EC
F5
FC
98
FA
03
AF
F8
DA
BD
CC
03
00
FF
EB
D6
07
FD
0C
FE
01
BF
02
05
14
02
FA
02
FF
B5
FE
B9
FB
C8
D2
05
FD
CE
FF
FF
FE
FE
A0
BF
00
04
07
C6
A4
C7
D4
C0
D3
FF
C9
AE
D3
DD
00
BE
FE
00
A7
00
01
A6
00
D1
A2
AD
CF
FE
FD
02
98
01
00
02
01
B5
95
FE
FD
02
00
FF
BB
96
C6
03
02
01
FF
01
9C
00
00
AD
FE
03
FC
B4
00
01
FE
F3
BD
CE
02
06
00
A0
B5
C3
CD
B8
CC
00
B1
D2
17
C9
00
BD
FE
FD
BC
0A
FC
A6
FF
C2
A7
B9
C3
FE
FE
0B
E4
09
14
18
0A
DA
CB
F6
01
EA
FB
00
EE
B7
A3
0A
17
F4
F8
06
C9
08
17
DC
FE
0A
F8
D9
FE
03
EC
03
00
01
C7
D2
01
03
02
FF
01
01
BB
01
FF
01
9F
DB
A0
02
8F
FE
FE
02
C6
FF
FF
05
FE
00
BF
AC
BD
10
A7
C2
09
03
01
BF
A4
CC
D3
C1
C6
F3
BC
A0
0B
D5
06
C9
FC
FB
A8
08
F9
B1
03
C6
BA
B0
C8
FA
FD
05
00
BB
C3
D6
0F
0E
B0
FD
05
07
C7
FB
FC
FC
C6
D8
95
B3
94
BB
B2
02
BD
FC
B5
0A
B4
02
CD
B0
BD
AF
C3
00
FE
FF
FE
BC
02
FC
0B
FC
05
B3
FD
03
0D
06
FB
02
FD
A7
00
A8
F9
C8
CF
04
FB
C1
00
FB
FE
09
B9
C5
FC
FF
08
E8
9D
C2
D8
CC
CA
FB
DA
C4
A9
DC
02
C8
FE
01
9E
FD
03
D1
FE
C4
A9
CC
C6
FE
FE
C3
E2
0E
FD
09
C2
E3
D0
FE
16
10
05
CB
DF
D8
CB
FC
AE
0D
B9
C5
C4
CC
03
E8
D9
EF
FA
DF
F9
02
FA
FC
FE
FD
EB
EA
04
08
01
98
F6
FC
03
FE
FE
04
04
A1
0C
FE
04
02
FD
FE
F2
FB
00
97
FF
04
FD
F2
EE
D1
00
00
DD
E5
CB
01
FF
E6
D4
CC
CF
CF
D1
D3
D2
E1
CC
02
B5
FF
00
C6
C6
FF
00
D3
FF
01
DD
A2
AA
00
CA
BB
DD
DF
FC
BB
00
A7
FB
09
00
F8
01
FE
F8
B5
11
A8
03
E8
FD
1C
E3
BA
DC
9F
FE
C0
FE
E0
DA
17
DD
CC
D8
DB
A8
24
B9
FC
20
2B
D7
09
FD
FA
D6
EC
B7
C9
AF
BE
B5
27
DC
F7
B5
E9
C3
26
D2
D0
D5
FF
DB
CB
FE
00
01
E3
DC
C3
BE
BF
CD
FE
B6
B3
41
C8
FF
BA
FF
FF
CD
00
01
CB
00
B0
B1
CC
B1
00
FE
04
0C
2E
0C
DE
B6
BF
EA
DC
4B
48
E2
ED
06
0C
13
C2
D7
50
D4
C8
21
D6
33
0F
F2
2C
E9
EB
2B
F1
27
04
B9
00
01
03
00
C4
9A
FD
FF
FD
00
FF
C6
8A
A8
06
00
00
FE
02
A4
01
00
C2
00
04
FC
C0
FF
FF
FE
C4
CD
04
FF
01
BC
DF
AE
00
05
03
00
C8
D5
B3
A7
F9
B4
02
BC
BC
A7
C5
03
C5
CC
00
01
D0
FE
02
FF
16
E0
CA
09
F8
16
E2
D0
C9
CD
B8
D5
D3
BB
D4
FA
E4
06
D2
F3
06
BA
08
F7
C6
02
D8
C3
B0
D5
0E
FA
00
B6
CC
00
02
06
C6
B1
CA
C8
BD
D3
FF
B3
93
D8
D9
00
C3
FF
00
B1
FE
FF
B4
01
D0
AF
BB
CF
FF
FF
B8
01
00
C9
DE
CD
01
01
DE
CD
C3
DC
AE
CC
DA
DB
F4
D8
02
B1
FF
FF
B6
B5
FE
FF
D3
FF
00
DE
B0
C2
08
FD
AD
D7
D5
FC
09
B8
FD
05
06
A1
01
00
FE
C8
B7
E6
99
BD
DB
B8
04
DA
FE
CE
FF
98
02
AD
E0
C6
BC
04
06
F9
0B
C5
0C
FB
F5
1E
EC
10
C5
EC
B6
AC
03
AE
14
B4
E3
E4
C3
06
F8
F7
23
FC
FE
F3
FB
FF
FF
00
FF
FF
02
02
03
01
C8
C1
C0
C7
FF
A5
92
C7
D0
01
01
00
00
FF
00
02
FE
00
BF
FD
01
C1
FE
FF
3F
E1
42
3B
3E
04
07
11
1C
23
17
46
FD
EF
2F
BA
13
0E
B9
CD
2D
C1
18
C4
CF
00
E9
24
D4
CD
23
B8
16
A2
C2
FF
04
14
D2
C7
CA
D1
B6
C6
FD
CC
C3
21
BE
FA
B3
FD
00
AC
EE
05
CC
02
C7
B0
C6
BC
FB
FC
03
02
09
FA
01
FA
0A
FB
FE
06
04
01
FF
FE
00
A9
07
9C
0C
A9
F1
F7
01
FE
FD
F8
07
FA
04
FD
FB
FC
E9
ED
05
12
F9
D5
07
F5
04
05
0F
E3
DF
0F
F9
D1
12
D5
18
CD
E3
E8
E2
11
00
F6
03
0C
F9
FF
FC
F0
F8
05
AB
F6
05
08
F5
9F
FE
04
04
A4
02
FF
FF
CF
AB
FC
9F
0A
F7
AA
07
FF
FF
F2
01
A1
0A
9E
FE
F8
F7
03
02
FE
F4
F7
03
06
C8
CB
BB
C8
02
C2
B8
C9
D9
0E
05
06
00
FF
0A
FF
F9
00
C4
F5
FE
C3
01
FC
D2
CE
BA
C0
CA
25
B9
05
B0
16
FA
07
B5
F7
FB
FE
CF
EB
A5
06
B9
00
B9
AD
AE
BD
B9
FF
D1
FD
B8
CB
D2
03
06
A9
C6
01
0B
02
B7
FB
FA
01
C2
F9
05
00
B7
09
EB
FE
0C
FE
BB
B7
FC
02
A7
02
07
FE
C0
C5
BA
0C
07
FC
03
BD
0E
07
FE
FB
09
02
BF
E3
EC
ED
06
AD
05
C1
D3
F8
B7
FF
F9
F5
05
FE
05
00
FE
FE
05
02
AB
B7
C7
18
13
A9
FE
09
FA
C0
FF
FD
FE
CD
D0
98
A1
8C
AC
AB
F6
B2
FD
9F
0F
AD
FB
C2
A4
B1
CA
B6
B8
C2
C9
13
BE
02
C2
FC
04
02
B9
FE
FF
01
B9
F6
A6
03
B7
FD
BA
BE
B9
BA
B7
02
BC
01
BF
C0
04
02
B5
FD
00
01
06
B8
FE
01
04
BF
00
01
01
DC
B6
02
9F
00
FD
C1
01
FE
FF
FC
FF
AC
01
B2
FF
FD
01
FF
FE
00
00
01
04
01
D2
C4
BF
CC
FF
B4
C5
CF
D2
02
00
00
FF
FF
02
00
FE
01
C4
FD
00
D5
01
FF
B3
BB
F6
00
FD
03
C0
06
FB
07
03
04
B0
FB
02
07
09
01
00
FE
A2
FE
A2
F9
C7
CF
07
FF
C3
00
F6
FF
0A
A6
C7
E5
1C
09
CB
B0
CC
DB
BC
D5
0A
BD
94
E3
D2
FE
CD
00
0A
97
E6
0C
AA
01
C4
BB
AA
C2
F4
04
D7
DD
00
03
06
CA
E0
D7
FA
0C
0C
04
D6
0C
E4
F4
F9
CF
13
DC
C4
D9
D4
0B
D9
ED
07
03
D9
F7
F9
FC
C6
C7
05
FF
06
B7
C8
B2
FD
09
05
FE
C8
D4
B1
A7
FF
AE
00
B8
BA
AB
C3
FD
CF
CC
02
FF
DC
FE
FF
FF
02
A1
FB
00
03
02
C4
92
FD
F9
F8
FF
FF
CE
87
97
0B
00
FC
FD
01
99
00
01
AF
FF
01
F4
BD
00
00
FF
00
D4
D4
FF
05
05
D6
D6
C1
CE
BD
D0
FE
D5
CD
CE
CD
00
C1
FF
FE
CA
FE
FF
D9
01
C5
AA
D7
C6
FF
FD
FA
9D
FA
FF
06
FD
B7
F8
00
F3
0E
04
F9
02
01
04
FF
01
0B
FC
F0
FA
F7
09
AC
F7
04
04
B0
FF
03
FD
BF
00
00
FF
01
BD
05
01
01
F7
FB
FF
BF
CE
B8
BE
0F
AF
03
AE
00
FE
B8
F9
FB
FE
05
FD
02
01
FC
FD
FC
10
FC
FC
E3
08
27
22
F0
FA
E5
C1
0E
F6
FE
CE
CA
F4
BF
00
0B
FF
0C
02
EF
0C
CF
FE
15
C3
04
F4
C1
FF
01
E0
E2
C1
03
FF
DC
CB
C1
D3
BB
CA
CF
C6
D3
B1
01
97
00
FF
C9
C8
FF
FF
DC
00
01
D6
BB
B3
C1
E3
02
00
00
B9
D4
BB
FF
07
03
FE
CA
E4
B9
AA
FE
AE
02
B6
BC
C1
C0
02
DB
D0
FF
03
D9
FD
02
FF
B6
CF
BB
A8
CB
16
BE
03
B0
02
05
FE
90
00
FA
FB
C5
10
AA
F3
B6
FE
9A
B6
C1
B2
B1
01
CC
01
93
C4
D1
F0
B8
DB
EC
D0
14
0C
FE
30
29
24
07
F9
44
E2
19
38
EE
F5
DA
FF
10
C4
18
11
04
38
BF
E0
D1
FE
D0
CF
C4
C0
B4
F3
CE
02
93
04
06
04
AD
02
FF
FE
BE
14
B2
FD
C1
FD
B7
AE
CC
C7
A4
FA
D5
FD
81
B4
C9
00
00
CE
D8
C8
01
FF
EA
CB
BB
D4
C3
C1
CA
C6
EE
A2
01
A7
00
FF
CC
CB
FF
00
C7
00
00
D4
CD
A9
BC
00
02
C6
E0
C9
02
00
C2
C4
C9
D6
C8
B8
CE
E5
E3
C8
00
A7
00
FF
B1
B1
FF
FF
D9
00
00
D3
BB
C9
AE
D2
E1
1D
EC
BB
2C
FE
FB
C4
EB
24
FC
FD
F5
2A
E6
4D
1A
40
36
E2
27
F2
D5
15
32
D9
19
0D
14
03
E4
E8
E6
BD
C9
06
D3
06
AB
BF
17
21
EA
F6
0E
19
C0
3F
B6
D1
F5
F7
08
D0
D1
D5
BD
ED
ED
01
CD
DA
C2
FF
07
02
07
BA
13
F6
FD
05
08
03
C5
EB
BF
C3
F3
A7
0B
B1
EC
F4
B5
06
F7
FD
0A
00
02
FD
FD
FE
