D3
61
FD
C6
F6
CB
DE
BB
27
1D
09
CE
E1
BB
A8
F7
25
0C
C7
DE
0E
DD
AA
F1
17
FA
1F
FA
4D
0F
0B
40
E9
DE
3D
FF
F9
23
C4
91
E4
26
F7
2F
70
EA
B7
22
0B
05
B9
C1
0F
1F
AD
47
09
19
35
08
C5
4E
09
BC
0F
B8
C7
76
30
43
27
07
1E
BB
21
09
FD
D9
EF
19
12
0E
D3
2E
20
EC
D1
DB
FE
16
2A
16
BE
81
0F
ED
1D
1C
0F
A6
FA
18
40
FD
27
CC
09
28
DD
2D
4A
16
0D
1D
00
2B
0B
A7
D7
CC
06
0D
C4
04
4B
ED
1C
46
36
FB
F9
01
F0
C4
E1
61
C6
42
0B
E0
A0
49
F0
EA
DE
F5
C6
16
B2
B7
2C
31
15
FB
CD
18
B9
8C
EA
F9
